[PAD]
[EOS]
[UNK]
[CLS]
[SEP]
[MASK]
und
der
vom
mit
##,
in
Keine
"
Kein
im
des
Nachweis
von
Beurteilung:
rechts
nach
Indikation:
links
##.
einer
Klinik,
keine
Fragestellung,
kein
bei
##n
Rechtfertigende
auf
Vergleich
##s
die
nicht
oder
##r
zum
Befund:
Thorax
##e
den
ohne
CT
mm
sowie
Ebenen
eine
für
Voraufnahmen
zwei
##en
Befund
bis
zur
eines
Z.n.
##:
Im
sich
Die
Anhalt
x
ist
am
Darstellung
rechten
2
-
Es
beidseits
Nach
über
normal
Klinik:
Befund/Beurteilung:
##)
Herz
##m
ca.
liegen
Zustand
Regelrechte
linken
Aufklärung
DD
bds.
Hinweis
cm
In
Uhr):
Sonographie
/
3
ml
auch
Unauffällige
an
##er
zu
Lymphknoten
V.
Frage
Abdomen
durch
LWK
(auf
Projektion
Station)
##4:
Methodik:
bed
Veränderungen
side
Untersuchung
##3:
##;
##6:
##7:
##0
##ung
5
##5:
Spitze
Bereich
##2:
##8:
ein
##7
##0:
Nieren
Bei
##-
Technik:
##3
freie
Mediastinum
##2
##5
Voruntersuchung
1
##1:
##6
VA
##es
4
##8
##1
MRT
##4
##t
soweit
rechtfertigende
Untersuchung:
das
Voraufnahme
Zeichen
glatt
Verlauf
Anamnese:
Leber
dem
frischen
Applikation
##9:
Einwilligung:
MR
T1
zeigt
Pat.
als
6
##9
sind
Das
aktuell
Fraktur
A.
T2
V.a.
rechts,
um
Kopf
Segment
BWK
frei
unter
Z.
vor
10
Bekannte
n.
pneumonischen
schriftliche
bzw.
einem
links,
liegt
Milz
Verdacht
gesamtes
ZVK
Einwilligung
Soweit
Erhebung
Pleuraerguss
Infiltrate
Vena
mögliche
Sinus
VU
Pankreas
Verlaufskontrolle
Läsion
intrakraniellen
Normal
zentrale
12
gut
Risiken
Geringe
Der
8
regelrecht
Thorax:
einen
neu
axiale
7
Gallenblase
HWK
Untersuchungstechnik:
(
Digitale
groß
Patientin
Raumforderung
gering
kleinen
Kniegelenk
ap
Fragestellung:
Beckenübersicht
jedoch
Harnblase
Flüssigkeit
mündliche
vergrößerten
Liegen
d.
Zum
regelrechter
NNH
##),
Höhe
LWS
Läsionen
unauffällige
rechte
wurde
axial,
ossäre
Beidseits
groß,
##l
regelrechte
ossären
hier
Risikoanamnese
re.
Dr.
##al
11
pulmonale
frische
##te
Klinische
deutlich
suspekten
zuletzt
Schriftliche
9
unverändert
große
weiterhin
Kontrolle
(vgl.
Pneumothorax
homogen
insbesondere
mm,
Dopplersonographie
HWS
Schmerzen
cava
ICD-10:
unauffällig
Linie
wie
linke
Aktuell
Weiterhin
##us
15
Stellung
1,5
aus
Niere
Bild
Becken
##a
etwas
I
##is
##?
Os
OSG
beurteilbar
vor.
erster
Fuß
Infiltrat
Zisternen
noch
Rechts
Rahmen
distalen
Größe
großen
Lage
Anamnese
Unverändert
degenerative
Ventrikel
13
Links
höhergradigen
ehesten
seit
nur
Hüftgelenk
gesamten
nativ
fokaler
Erguss
hinaus
Patient
freier
LK
fokalen
14
Erweiterung
vereinbar
Arteria
##s,
Lendenwirbelsäule
mehr
##A
Basale
mittels
kleine
BWS
Anfertigung
Hand
##d
V
MPR.
Durchmesser
li.
##um
Neu
dorsal
geringe
RI
4.
konturiert,
basal
zeigen
axial
beidseits,
MBq
Degenerative
suspekter
wesentliche
Nebennieren
konfluierenden
Aorta
Punktion
##n,
16
20
deformans
Sinne
venöser
Stauung,
insgesamt
geringer
Fragestellung
Mastoidzellen
KM-Applikation
pulmonalen
Stehen
oberen
Gut
Darüber
18
Sequenzen:
Anlage
Nasennebenhöhlen
TSE
raumfordernden
Native
beurteilbar,
Unveränderte
##L
Aufnahme
##se
(Serie
degenerativen
KM
Abdomens
intra-
Ausgeprägte
Ebene
Zusammenfassende
höhergradige
oben
komplikationsloser
##D
unteren
lateral
Grad
17
##ter
Aufnahmen
Sturz
Schilddrüse
intrakranielle
Abdomen:
einsehbaren
##fraktur
##T
seitlich
proximalen
liegend
orthotop
pathologischen
femoralis
Sonographisch
Infiltrate,
etwa
Länge
mm)
ventral
sicher
idem
re
bekannten
2.
Kontrastierung
##x
##S
fokale
##mm
mittleren
pulmonalvenöse
Klinik
ossärer
.
##ten
malignitätssuspekten
%
Magensonde
##g
vergrößerter
beiden
teils
Fraktur?
Ergebnis:
stellt
##em
vorliegend.
Mammographie
Parenchym
II
Gefäße
NB:
Ausschluss
Handgelenk
Regelrechtes
DHC
Konstante
DLP
rechter
Pleuraergüsse
Schultergelenk
weitere
Übergang
frontal
##P
pneumonisches
Ultravist
Serie
relevante
z.B.
mitabgebildeten
pathologisch
##le
ggf.
abgebildeten
zentral
Diskrete
frischer
vergrößert
basalen
##F
konfiguriert,
##on
Insgesamt
weiteren
Fluss
Gallenwege
T2-TSE
Verdichtung
##G
Kleine
,
##V
Stenose
Unauffälliger
##M
##ne
##en,
Vergleiche
Luft
Deutliche
Material
Gabe
Beide
floriden
Ansonsten
##ale
ebenfalls
leicht
demarkierten
i.v.
größerer
relevanten
##e,
untere
Dens
entlang
dislozierte
##k
vergrößerte
lateralen
M.
Mittelständiger
Mammasonographie
Weite
##i
einsehbar
weitgehend
Extremität
##de
Infiltrat,
RF
betont
mediastinale
Blutung.
##b
sehr
##/
Lungen
##sch
D.
Durchführung
Eine
Image
Verdichtungen
post
li
größeren
auslaufender
##C
Lauenstein
##ge
unauffälliges
S
interna
Gering
Untersuchungsablauf
äußeren
##R
NBKS
zwischen
entsprechenden
Anmerkung:
L
Axiale
CCT
MRA
wird
kann
Hals
suspekte
##ie
Computertomographie
bekannter
Hinweise
##z
vergrößert,
50
Kopfes
bds
seitengleich
Zyste
0,625
##H
Kontrastmittel-Gabe
Therapie
jugularis
Verkalkungen
##E
max.
beider
Rekonstruktion
betonte
erfolgte
cm/s
Am
Beschwerden
##K
Unterschenkel
primär
OP
Knöcherner
Auf
30
##ion
sollte
T
sagittale
3.
##I
basale
25
Lungengefäßzeichnung
Schichtung
Ima
aufgetretene
Angaben:
dorsaler
Unterlappen
(VU
Beurteilbarkeit
Schleimhautschwellung
Spiral-CT
Kontrastmittel
Mehrere
Multiple
stellen
dorsalen
progrediente
##in
T2w
maxillaris
Liquorräume
Prostata
Wand
tief
Freie
Rezidiv
E
Natives
lang
##är
Drainage
##ig
Zysten
intervertebralis
Jugulariskatheter
links.
knöchernen
axilläre
mehreren
sagittal,
Pneumothoraxnachweis
periphere
##ation
Lymphadenopathie
##B
Erguss,
Xenetix
linker
bekannte
rechts.
intravenöser
allen
Verletzung
bolusförmiger
Kontrastmittelapplikation
##O
N
Seit
links:
extrahepatischen
##ml
Patienten
100
Blutung
digital
60
Fremdmaterial
pulmonaler
konfluierendes
19
Hüft-TEP
akute
FLAIR
konstante
rechts:
##U
##o
Anamnese/Indikation:
Beurteilung
##ch
III
Einzelne
Tesla
Zusätzlich
iliaca
Pneu,
Vmax
C
##tion
drei
##).
22
Diagnose:
Hämatom
weit
Weitere
partiell
subclavia
Se
Lunge
Geringgradige
Nierenbecken
Ventrikelsystem
Abdomen/Becken
Wir
Oberbauch
Besondere
Ergüsse,
1,25
Tumor
Homogenes
deutliche
sonographisch
medial
Metastasen
cm,
mäßig
konstant
FS
a.
kleiner
Stenosen
G
Unauffälliges
##der
Thoraxdrainage
zunehmende
##el
Bekannter
IM
Mamma
Deutlich
homogenem
##lich
venösen
Orthopantomographie
arteriellen
Sequenzen
40
medialen
vollständig
akuten
##ng
Ausdehnung
Mastoide
Ellenbogengelenk
Neurocranium
Port
axillären
##ige
T1-TSE
(Se
Kontrastmittelgabe
Trachea
ng/l
##N
Parenchymsaum
Knoten
24
##h
diskrete
dieser
Resektion
##%
Ein
heute
Artikulation
mediastinal
unveränderte
Struktur
extrahepatische
Oberschenkel
Monaten
angrenzend
normaler
Unter
venös
soliden
entsprechende
Thorax,
Abklärung
Ductus
akzentuierte
Wesentlichen
Wirbelsäule
oberes
Unterbauch
hypodense
B
zentralen
Befundung
F
mittelständig,
120
Milz:
Parallel
Colon
h
wurden
weiter
(z.B.
mehrere
##p
Oberlappen
0,5
axillär
Orbito-Meatal-Linie
Leber:
diese
sonst
knöcherne
Normale
TIRM
##gen
Spondylosis
D
Patella
Entfernung
multiple
##1.2009:
Inspektion
durchmessend,
Bitte
Anteile
Form
schriftlicher
4/5
werden
abgrenzbar,
Pankreas:
Becken:
##re
S.
A
inneren
jetzt
Tubus
Mit
ventralen
1.
23
aufgetretenen
Art
knöcherner
Implantation
multiplen
Echogenität
P.
Dislokation
carotis
messende
21
übrigen
sicherer
pneumonische
##ss
komplikationslose
via
Zarte
Zur
Stauung.
SE
Pneumothorax.
Konkrementnachweis,
mittelständig
Frau
Thorax/Abdomen/Becken
Mäßige
R
sagittal
Retroperitoneum:
##rt
U
i.
##ierung
eher
somit
##s.
##2.2009:
##ar
IV
80
Infiltration
Ödem
signifikante
angrenzenden
Uhr
ACI
Skoliose
Symmetrische
Dystelektasen
maximal
unauffälliger
communis
TSH
(ca.
Knie
MCL
intraabdominelle
außen
Progrediente
Pneu
Truncus
Teleradiologische
Unterfeld
peri
VJI
##len
PD
entsprechend
Schulter
Einengung
Metastase
pektoral
pneumonischer
Femur
Schwellung
##wand
Skelettsystem:
##den
Finger
Veränderung
##itis
Postoperative
2,5
Katheterspitze
##t,
##st
Pfortader
0
Osteochondrosis
##ose
##end
Jahren
##cm
jeweils
gefüllte
350
cm)
##sche
6,
(S
Voruntersuchungen
Nieren:
ergibt
Strukturen
Pneumatisation
Marklager
Konfiguration
##f
aber
regelrechtes
Aufstau
##nt
Dotarem
Organ
Sonst
OPS:
26
DWI
##ende
HWS:
##r,
##-CT
Verkalkung
Vor
Lebervenen
min
normale
mediastinalen
##y
vermehrte
unauffällig,
einzelne
H
16-Zeilen-CT
symmetrisches
Ösophagus
vor,
miterfassten
superior
Wochen
Zeichnungsvermehrung
Bds.
ausgeprägte
Schenkelhals
bekanntem
Regio
Etwas
Osteopenie
Verschluss
klinische
Neue
##W
Abbildung
sonographische
regrediente
##00
CT-
Tibia
T2-
großes
Pneumothorax,
Wandverdickung
es
PICC
0,8
o
rechtes
unveränderter
##nd
ED
deutlicher
aufgetretener
Ischämie
Tagen
Randwinkel
MS-CT
teilweise
hilär
Hier
Reguläre
axillärer
gefüllt,
abgrenzbare
allseits
Rückenlage,
Weitgehend
T1w
CCT:
parenchymatösen
symmetrisch
Drittel
abgrenzbar
homogenes
native
Nicht
Harnstau
abdominellen
Phase
Katheter
Enhancement
ab
kaudal
P
##isch
Teil
mm),
Sklerosierung
auslaufenden
Hartstrahltechnik
apikal
Erguss?
Rippe
Versorgung
##alen
portae
ergänzende
LWS:
abdominelle
findet
##ektomie
AFS
Magen
##c
Rundherde
Schädelkalotte
Defekt
Glatt
##bereich
T-Wert
Angiographie
Geringer
Saumbreite
ansonsten
empfehlen
##om
abgrenzbaren
27
An
Areal
CT-morphologisch
Beinganzaufnahme
Lockerung
##and
T1-
entzündliche
inguinal
vorrangig
##X
narbige
Status
Ureteren
Frakturen
Perfusion
Costa
##tische
territorialen
##äre
Nierentransplantat
entzündlichen
eingeschränkte
Untersuchungablauf
neue
##CT
Radiopharmakons
Raumforderungen
Zunehmende
zervikalen
PET
M
370
Technik
Station
gewinkelte
##v
mg
Raumforderung,
Oberes
##ver
Korrelat
Projektionsradiographisch
Beckens
Anteil
g/cm2
distal
subkutaner
welche
Kalotte
Kardiopulmonaler
scharf
distale
##ent
Signal
grenzwertig
gute
##10
Unklare
Post
lässt
(vergleiche
##ll
aktuellen
Parenchym,
28
##keit
beidseits.
##ur
aufgrund
##ungen
Bekanntes
##chen
hilären
Kompression
rechtsseitig
##it
Coxarthrose
v.
Stauung
Zone
Kontinuierliche
K
Indikation
Akzentuierte
allenfalls
Lokalanästhesie
Rechte
##resektion
##ß
DD:
pathologische
bereits
Anbauten
hiläre
diskret
Spondylodese
linksseitig
Vorhof
Regelrechter
typische
##bildung
mU/l
Eingeschränkte
einsehbar,
Anschließend
Z
Osteoporose
Anamnese/
kardiopulmonaler
Radius
Dopplersonographisch
(rechts
SWK
Anastomose
UL
Lungenparenchym
nahezu
Wirbelkörper
##tz
Nierenzyste
##aufnahme
Linke
linkes
Zwei
zystische
coronare
Involution
35
parietal
Hals:
Röntgen
##):
folgenden
Milz,
Nierenzysten
Winkel
Steatosis
FLAIR,
malignitätssuspekter
Aneurysma
KM-Gabe
##ktomie
Quantitative
kranial
Rest
##ren
Portsystem
##nde
Pneu?
Erosionen
L-Thyroxin
##ra
malignitätssuspekte
Materialbruch
(2
Herzsilhouette
weites,
poplitea
##tis
##ös
Dystelektase
para
##w
Befund/
Herd
Dünndarm
##ko
Ruhe
Infarkt
freies
Trauma
7,
letzten
geschlossen,
verbreitert,
##x1
Nebenniere
##aler
geringen
Struma
ausgeprägter
trans
Weichteil
##la
Ureter
Komplikationslose
##n.
innere
Sono
Reizlose
Schrauben
Übrigen
Kopf,
symmetrische
Nebenbefundlich
Darm
Aszites
vorderen
Gefäße,
2,
5.
5,
Oberbauchorgane
Osteochondrose
Blutung,
Abgang
Morphologisch
##2.1
##ber
weiterer
##ein
Prozesses
so
Pleuraerguss,
Nativ
Parenchymbreite
Vorstellung
kontrastiert
Überlagerung
Areale
Recessus
perfundiert
pathologischer
Stauungszeichen
begrenzt
##to
äußere
Belastung
32
##cht
MSCT
34
##nen
Neuer
low-dose
dorsale
Mitabgebildete
##rung
ins
zerebralen
VI
##iert
caudal
Knochen
##an
70
vorliegend,
Verschattung
##ern
Unterarm
Stent
unklarer
Über
Frakturspalt
Große
venöse
frontalis
Gadovist
##che
##ert
Seitenventrikel
anterior
KM-
neuen
Ergüsse
Schädel
##ung,
Hilus
##förmige
Fraktur,
##kt
un
n
Quadranten
O
Mengen
obere
Steilstellung
##ierte
hyperintense
relevanter
Lungenabschnitten
##ck
inter
Volumen
B.
intakte
dar
suspekt
Zudem
einsehbarer
Lymphknoten,
zusätzlich
Minderbelüftungen
Akquisition
nun
Neurokraniums
##sen
Uterus
Lumen
TD
Nierentransplantates
demarkierter
NTX
Grades
##ns
(in
##hr
Norm
Kontakt
thorakalen
29
Auch
externe
leichte
bitte
fs
großer
##Z
##tes
Lufteinschlüsse
Oberfläche
palpabler
Prof.
Ossäre
Kutis,
Zentrale
(D
Knochenstruktur
Chronische
Knochendichte
Thrombose
Aus
##kation
Injektion
wesentlichen
Befundänderung
Gesamt
##ler
Blut
OL
pro
a
*
sekundäre
##en.
Harnwege
weißen
prä
##raum
##au
Zwerchfell
Restparenchym
wir
ml)
Infiltrate.
ventraler
fraglich
inferior
intakt
Schilddrüsen
Reaktionslose
können
erweitert,
externa
erscheint
##ell
p.a.
Verhalt
Angio
Gute
Belüftungsstörungen
flaue
##ere
Rippen
##ma
Telefonische
Konsolidierung
##tisch
renalis
Tesla,
VIBE
Leber,
Boden
8,
##lle
Regrediente
Stauung?
31
Organe
3/4
messend
externen
chronische
konfluierende
hepatica
Un
Radio
gestern
Labor
##erung
##3,
0,9
bds..
Spinalkanalstenose
misst
gruppierter
wieder
retroperitoneale
signifikanten
dislozierten
##0,
größenkonstante
berandete
Voraufnahmen,
##li
cranial
finden
empfohlen.
Tag
Nachsorge
Lebersegment
arterieller
##12
arteriell
Weichteilmantel
2D
Intervention
33
38
Konkrement
##elle
m
Zahn
Rektum
##lage
imponierende
erhöhten
temporal
Stabilisierung
Diffusionsrestriktion
##il
familiäre
3,
Erstuntersuchung
Jetzt
##ödem
s
flächiges
##ste
Beteiligung
##s-
Korrelation
4,
##7.2009:
(VA
µg
Metastasierung
pulmonalvenösen
Allenfalls
da
hoch
größenprogrediente
##6.2009:
36
Pleura
SPECT
Belüftungsstörung
##ungs
5/SWK
mesenteriale
Höhenminderung
Diese
Ab
Score
flächigen
e
Vortag
möglicherweise
3T
Radiojodtherapie
##rte
abgrenzbar.
gelegene
?
(A
intrahepatische
##ti
Zwerchfellhochstand
kontrastierte
regelrechtem
jugulär
##tal
##-1
(6
idem.
progredienter
Regelrecht
370)
SD
Fibula
(L
koronare
##1,
homogene
Pneumonie
##fe
Größenkonstante
Trachealtubus
Vergleich.
er
ältere
Intrahepatische
10,
guter
ca
45
diffuse
(4
##na
##(
##at
Harnblase:
##aus
(3
##3.2009:
Befundbesprechung
Plattenosteosynthese
##erte
Fraktur.
##9.2009:
1,2
primären
unmittelbar
besteht
##bar
kommt
progredient
Gefäß
unten
##ab
morphologisch
Bein
##5.2009:
chronischen
##u
Hili
minimal
Betonung
##gelenk
beide
Sehr
Unterbauch,
Wiedervorstellung
##as
Transparenzminderung
ad
verbleibendem
zunehmend
##or
rundliche
Coxarthrosis
Plaques
Infiltraten
verkalkte
##"
##1.1
Typ
Brust
extrahepatisch
Appendix
SAB
Anteilen
Re
kleinere
Bestimmung
##karzinom
##4.2009:
Umfang
intra
coronar,
##ke
pancreaticus
Fieber
beginnende
##iger
Hoden
Kleiner
-1,0
##ia
uns
Gelenk
Ulna
##region
Materialbruch,
Morbus
##so
Schleimhautschwellungen
L.
5/6
##ing
paraaortal
thorakale
VIII
##e.
##tt
zarter
##gefäße
##-T
Residuen
(5
Pro
WS
Letzte
-2,5
verschmälert
hinteren
##lo
große,
Guter
Datensatzes
Pankreas,
(T
##ität
Corpus
gegenüber
(bis
Miterfasste
##pro
Pleuraergüsse,
Alter
Medikation
Zeit
per
Trepanation
Läsionen,
koronar,
Clavicula
Belüftung
##ens
relativ
degenerativer
Blase
Einnahme
Er
Abszess
Ver
Imeron
##her
siehe
Weichteilemphysem
minimale
I.
75
Flussprofil
Segmenten
-echogenität,
unscharf
ausgeprägten
Halsgefäße
dabei
peripheren
##ri
Sagittale
Intra
SD;
##dem
##8.2009:
Leiste
##stellung
##o-
##gel
##cus
11,
begrenzte
Kopf:
Basalganglien
AFC
Sie
##ag
Analyse
Raumforderung.
gemessen
Bypass
##ät
##sis
##igen
Arthrose
Kurzbefund
Shunt
Querdurchmesser
48
reaktionslose
transversal,
postoperative
Diffuse
200
37
Tage
La
##nge
p
##n-
##ro
Stau
##ta
Shaldon
Orbita
Kontur
Regredienz
##ben
Mittellappen
Minderbelüftung
einsehbar.
einzelnen
vollständige
90
Familiäre
Halsweichteile
ml,
##id
ableitende
cerebri
offen
größere
Herz,
MS
Blutung?
multiplanarer
BI-RADS-Kategorie:
##ca
konfluierender
Mammakarzinom
##ts
streifige
Hirnstamm
##pe
Me
Rundherd
Fx
älteren
gesamte
Ent
knapp
Aszites,
Beginnende
dorsales
##be
zervikale
vertebralis
gegen
Konstant
proximal
Basis
neuer
Hypopharynx
Drüsenparenchyms
Gelenkspalt
hämodynamisch
Vergleichsaufnahmen
spitzwinklige
Unterkante,
unterhalb
posterior
fleckige
arthritischen
umschriebene
Katheters
zervikal
Hüfte
eindeutig
##liche
Minimale
##ekt
wegen
(100
9,
Neurologie
distaler
Elektroden
##he
64
Trachealkanüle
Defekte
Leberparenchym
Nieren-
Hemi
Stammganglien
ACR-Dichteindex:
##es,
Durchblutung
Chemotherapie
Altersentsprechende
##co
Befundvergleich
Darmschlingen
occipital
Pleuraergusses
Spondylosteochondrosis
inhomogene
osteophytären
##2,
Gallenblase:
Oro-
##no
##ische
VII
##.1
##katheter
während
##zeit
lobuliert
##..
Flüssigkeiten:
Schrittmacher
mäßige
Gallengänge:
##graphie
Bandscheiben
##untersuchung
##gewebe
Biopsie
##icht
kontrahiert,
Einlage
##mi
Schlankes
de
##ol
basal,
Funktionsaufnahme
Flüssigkeit,
##io
Primovist
darüber
intakt,
occipitomental
##ran
sitzend
abgebildet
arterielle
Des
Processus
Fistel
Früherkennung
periprothetische
Be
Oberfeld
dynamisch
Präoperative
altersentsprechendem
Knie-TEP
echoarme
breitbasig
arterielles
Eingriffs,
konfigurierte
##werte
Oberarm
Externe
stark
##m,
Radiusfraktur
passend
##material
Fragen
wesentlicher
Siehe
##11
erfolgt
Atrophie
Kortikalis
##ut
Dichte
Verband
Sigma
3,5
##/S
##-S
Mammakarzinombelastung
##ug
Gefäßmuster
##ik
Orthotope
Narbe
1,0
frisch
kardiopulmonale
erneute
i
extra
regredienter
kortikale
Hirn
Folgen
Leberlappen
orthotop,
vermehrten
diesem
##ums
Referenz
Enge
oberhalb
et
##ci
Sequenz
Multiplanare
Mittelfeld
(C
Hirndruckzeichen.
##15
##0.2009:
Atelektase
intrapulmonaler
werden,
(siehe
##-F
Durchleuchtung
Procedere:
350)
LWK1
##.9
be
##auf
erhöhte
##ktion
##et
Indikation,
##rn
malignomsuspekter
idem,
erweitert
k
Ca.
##gung
Abdomenübersicht
Ventrikels
##-L
MPRAGE
diskreter
Mäßiggradige
erweiterte
Herde
Sondierung
Befundmitteilung
dick
koronar
wesentlich
RI,
De
möglich
polymorpher
Mikroverkalkungen
##nah
##aufnahmen
##pa
##2.2008:
##rand
Ebenen,
##%,
Unterkiefer
supra-
kardialen
Aspekt
Aufhellung
Infekt
vermehrter
Ovar
u.
Kleinhirn
erweiterten
territoriale
Hände
Wurzel
##1.2008:
##ir
2/3
Hochgradige
Localizer,
##me
Hyper
L5
CT-Angiographie
##si
Einblutung
##nis
echo
Schädelbasis
Rand
FLASH
Passage
##all
apikalen
Diffusion
Veränderungen,
##0.2008
dass
pulmonal
##CA
inhomogen
imponiert
c
höhergradiger
Verwendung
Schilddrüsenlappen
durchmessende
Einbringen
##pathie
OA
ICB
kaudalen
Jahr
##ive
##ger
retro
Unterfeld,
global
Übrige
Nephrektomie
iliakal
ergänzender
Dokumentation
Trochanter
Formation
Fortgeschrittene
Einstellung
##szintigraphie
Ischämie,
##ae
gelegenen
##öse
eindeutiger
400
belüftet,
Darüberhinaus
12,
Spinalkanal
Klinisch
innen
Lipomatöse
allem
##uch
##und
(1
Ganzkörper
##,5
##lt
##zu
profunda
Thyroxin
##tumor
LAE
HCC
##ed
ascendens
Pulmo
##lappen
kontrastiert,
Eingriffes
##5,
retrograde
Konkremente
##-A
Breite
Diffusion,
Minuten
MR-
##befund
Sinusitis
altersentsprechender
##-Katheter
Schlaganfall
Aneurysmaanhalt,
Luxation
MRT-
Venen
Staging
abdominalis
W
kardiale
Fragment
kleines
bds,
##cer
##ö
prominente
Accupaque
projiziert
##ft
s.o.
Kolon
OP-
##iv
wahrscheinlich
##kal
ex
##akt
Fett
Ablauf
andere
3D
##-OP
Liquor
Ausgedehnte
regredient
##.0
sphenoidalis
64-Zeilen-CT
raumfordernde
##5.1
##technik
Spondylarthrose
55
##ions
malignitätssuspekt
konsolidierte
hat
Prämedikation
erweiterter
nachrangig
OP-Clips
##4,
Mammographische
LWK4
##zyste
Humerus
Zahl
KM-Phase
unauffälligem
##artige
##20
Pleuraerguss.
300
Füllung
S1
##mp
(B
Narben
1,3
frei.
##ea
0,7
umschriebenen
##ve
Gonarthrose
Ca
##min
lediglich
abgrenzbarer
Pleuraergüsse.
##ang
intrahepatischen
##va
Herrn
##ho
42
CT-Voraufnahmen
Li
Mittelbauch
##rie
homogener
hirnversorgenden
Zn
Anzahl
zweidimensionalen
##gang
Mikro
Durchgängigkeit
SIG
Da
kräftige
##ierter
##-E
(17:
Schultergelenkes
##6.
Moderate
Supratentoriell
&
##cha
##x2
vier
Vergrößerte
Spitzen
##ä
Anschluss
Thrombus
##gradige
##infarkt
4,5
##mo
Gallenblase/-wege:
mammographische
Progress
Anreicherung
Schmerz
Knochendichtemessung
J
Kopfspule,
Ra
mäßiger
##ef
Leichte
Durchmesser,
geringgradige
Prominente
Fragliche
1,
zusätzliche
Level
Destruktionen
Gesichtsschädel
39
stehenden
Ober-
CRP
##ble
##stenose
bedingte
##ort
Thoraxwand
direkt
zunehmender
Flußmessung
Lokalisation
St
##nk
We
Infiltrat.
##lung
##höhle
##fall
unspezifische
Naso-,
punktförmige
##ld
##od
echofreiem
##er,
46
konsekutiver
Fe
Ältere
retromamillär
Degeneration
altersentsprechende
aufge
Hals,
Halses
communis,
##bedingt
dar,
Arm
##6,
Alignment
ausgedehnte
(M
Media
Annähernd
durchgeführt
Lungenarterienembolie
43
0,6
Größenprogredienz
Para
Nieren,
44
problemlose
Kelche,
##rm
Mastoid
(P
eingebrachte
##rk
Osteosynthese
##ü
##OP
##7,
##un
intraabdomineller
##uss
hochauflösender
Diameter
Bis
seitengleiche
##13
T1-gewichtete
Nahezu
Kieferköpfchen
0.
eingeschränkt
RH
Neuro
##nahme
gelegen
##3.
Kon
##tät
Lokalrezidiv
1,1
##im
mesenterial
##ga
proximale
Lappen
Leicht
##40
##sa
Flüssigkeit.
Sub
(H
weitestgehend
Weiter
PIP
Verlauf?
kurzfristigen
##therapie
T1-SE
Mittel-
##one
Embolisation
##50
ausge
##*
Infarkte
##2.2009
65
3-
Zeilen
##di
Diagnostik
Fettgewebe
oraler
strukturiert,
Termin
Plaque
##ral
Dorsale
Phalangen
Hirnparenchym
Befunde
Y-Aufnahmen
##men
Verdickung
##t.
##arterien
entzündlich
Portsystems
41
##op
##betonte
Alignement
Pol
##lin
kleinste
##09
TK
flau
##störung
Marklagergliosen
Weichteile
Demarkierung
Zunahme
##1.2009
sub
Musculus
Seitenvergleich
kommen
Trans
Hause
digitale
Körper
47
(18:
ausreichend
vorbeschriebene
Anamnese,
##6.1
1,4
##ment
##rz
ventrale
Gang
Ka
##age
maximalen
zystischen
##cho
höhergradig
##ah
al
Cholestase
Nierenhilus
zentraler
Radiopharmaka-Applikation
##zeichen
##aum
##os
##ub
le
konstanter
Alte
##lateral
basaler
sternförmiger
sonographischer
##rg
Wechsel
Na
Druck
Kopf/Wirbelsäule
Multisegmentale
Herzgröße
##su
##ene
dann
TEP
Hämangiom
je
(16:
Arterien
Drüsenparenchym
##du
Epi
##0)
##cal
Genese
möglich.
##nung
anamnestisch
Exspiration
einliegender
mesenterialen
Rücksprache
l
(80
##ierende
##ce
weisen
Grund
linksbetont
aufgetretenes
##och
Meyerding
einzelner
cm),
##dis
(SUVmax
Ge
Infiltraten,
Polabstand
Inter
##gerung
Lymphom
##sion
hormonelle
Fettsättigung
cerebellär
vormals
Facettengelenksarthrose
einliegende
Herdbefunde
Jahre
vorbeschriebenen
Aufhellungen
frei,
PI-RADS
LWK5
se
eingeschränkter
Dünndarmschlingen
##-p
Neben
infra
Größenprogrediente
signifikanter
Progredienz
Hilusstrukturen
supra
beim
Ellenbogen
multipler
##mus
apical
##zierte
29.0
kurzen
52
einge
Hinterkante
rechtskonvexe
##enden
Blutentnahme
##ich
Lungenabschnitte
##/M
##gene
Hilär
Brachytherapie
##sse
typischer
Herdbefund
versorgte
perihilär
Fx?
COPD
Kopf/Hals-Angiographie
Evaluation
Aufgrund
erfassten
##bri
##ine
grob
##alt
flächige
Füße
mehrerer
ausgeschlossen
DLP:
pathologisches
Deckplatten
He
[
Portnadel
6.
##3.1
##prothese
##nte
Affektion
antegrad
(120
##lf
entfernt
##ären
entsprechender
##mer
##ni
Weichteilschwellung
6/7
##-/
iliacal
thorakal
T2-HASTE
Bauchwand
##ap
Sonden
##que
hin
##.201
coronar
TVT
1,6
##tomie
##ner
pectoral
tra
axialen
Gefäßveränderungen
##ex
Halswirbelsäule
durchgängig
Lymphknotenbesatz
Durch
Leberläsionen
##xi
##l,
##ei
Pneumonie,
Winkelerguss
2mm
solider
ver
Neuroforamina
##ht
zystoide
Bandscheibenprotrusion
weist
Heute
intraperitoneale
paraaortal,
##ris
caudalen
Filiae
##winkel
##/1
Retroperitoneale
##ot
Weitestgehend
erbeten
(CT
entzündlicher
zunächst
##zen
arthritische
wohl
##vor
##scher
##3)
mindestens
mittlere
##hl
Prä
##uf
1,8
Lymphadenopathie.
Retro
Seiten
##-Ca
aller
Splenomegalie
Kniegelenks
entspricht
##30
Osteopener
Hautnaht
Fieber,
Destruktion
##sf
Phalanx
##sin
##per
(a
Nebenmilz
20.0
bi
Zentral
Schilddrüsensonographie
##über
überwiegend
spezielle
subkapsulär
akzentuierter
Rechter
größte
##hi
lateralis
##7.
##fi
Aspiration
subchondraler
##tu
Arthritis
bedingt
beurteilbar.
kardiopulmonalen
Lebermetastasen
##ster
##rei
Sicht
##nden
maligne
arthritisches
Adipositas
paramedian
(links
Spiegelbildung
Radiatio
1,7
Endo
AL
##chte
Te
vergrößertes
T1-VIBE
Peri
Doppel
cMRT
Pankreaskopf
##körper
Ad
Ebenfalls
##tre
LWK5/SWK1
Ro
Hirndruckzeichen,
Ta
g
linkskonvexe
150
Schilddrüsen-
Vermehrte
UF
##ass
Dosis
Bulbus
mm.
echonormales
(10
zudem
PA
##system
tiefen
hochgradige
Z.n
##hen
##8,
##]
Schädels
##tri
Mittellinienverlagerung
##nter
##rä
pancreaticus,
##kontrolle
beginnendes
messender
Hüftgelenke
HWS,
(19:
16.0
Pan
Stadium
##par
SUVmax
##ust
##ph
Binnenstruktur
Kopf/Hals
extern
##defekt
Altersentsprechend
Flüssigkeitsverhalt
Ablatio
spitz,
laterale
Stauungszeichen.
größenkonstant
##ales
mm³
Gallengänge
Manifestation
Homogene
Intra-
##sto
##ierten
##hernie
##da
Randwinkelerguss
KM-Enhancement
##ls
##-Technik
Haut
##eit
##anlage
Stunden
##are
frühe
09.0
##pp
Acetabulum
Vereinzelte
Schichtdicke
##unter
Bildgebung
Sklerose
rechtsseitigen
T2-gewichtete
(7
##08
##-P
Orthograder
regelrechten
Pe
Lungengerüstveränderungen
Osteolysen
##chi
hepatischen
Dig
Dyspnoe,
transversal
10.0
##tra
##schen
dichtem
Ethmoidalzellen
triphasisch
##lis
pelvine
ISG
Kollegen
Fixateur
lassen
##bel
17.0
occipitofrontal
z.T.
##2.
23.0
##WK
Tastbefund
VP-Shunt
LWS,
##acht
##atz
Verlagerung
##8.
osteophytäre
i.v..
##ip
erfasst
##arthrose
##ok
##am
konventionelle
##läsion
CTA
Knochendichtewert
##loge
klinisch
##7.1
BWS,
12.0
Weichteilplus
##mm)
stattgehabter
Knorpel
Aneurysmas
v
kalkdichte
Linker
##yp
linksseitigen
##bare
T1,
Gewebe
auffälligen
##zell
##llen
ICD
18.0
##enz
Infarkts.
Mittel
15.0
##größe
11.0
Glandula
reaktiv
Thyreoglobulin
##wurzel
NET
zerebrale
angrenzende
Seitengleiche
02.0
retroperitoneal
Ramus
intrapulmonalen
lipomatöse
bitten
##lär
27.0
Digitus
größenregrediente
letzte
##los
##4.1
Achsengerechte
Mehrspeicherung
SD-
Ba
##ul
Le
##zin
Perfusions
##2)
weite
##erg
##ile
Befundwandel
24.0
gesteigerte
KM-Phase,
##8.1
Mikroblutungen
Lordose
##tum
##fen
##eh
##eri
##eu
Skelett:
hypodensen
veränderte
19.0
BET
##mm,
peripher
Trijodthyronin
14.0
Hüft
2,6
Rückenlage
konsekutiv
##cken
Schilddrüsenlappens
##ru
AC
030
eingebrachter
08.0
##tan
Coronare
(Z
##sti
axis
alle
(e
Spondylophyten
verbleiben
hypointense
##zintigraphie
##nn
##uläre
innerhalb
okzipital
1-2
Parenchym;
Arteriosklerose
06.0
Zusammenschau
(0
Pathologie
konventionellen
ge
inguinalen
03.0
zueinander
##ue
05.0
min.
Portkathetersystem
##nachweis
heutigen
fragliche
muss
##ak
Zu
##tem
13.0
malignomsuspekten
subkutan
Extremitäten
ableitenden
T.
Lappenspalt
62
##drainage
CT-gesteuerte
##4.
##Ca
Darmschlingen,
07.0
Kolonrahmen
##-Aufnahme
sie
Kopfes,
Echo
Gelenke
##ati
Diskret
T2*
##14
Konstanter
Lage,
At
Va
##gl
fl
MCA
altersentsprechend
##zer
regelrecht,
messenden
major
Distale
Befundkonstanz
ma
reguläre
26.0
schlank
PET-CT
Ende
04.0
liegende
Mediastinal
22.0
Power-Dopplersonographie
Aufhellungslinie
digitalen
Sekret
selben
Steine,
Rippenfraktur
Aorten
Jod
Indikationsstellung
HASTE
Anamnestisch
Sonographische
Drainagen
Partiell
pubis
##e)
MTP
Abdominalorgane
mediastinaler
Stenosierung
Verschattungen
hepatische
(20:
##al,
individuelle
Gefäße.
Strahlen
FT-Winkel
##alis
Kleines
So
nativen
##ze
##po
##schatten
Rippenfrakturen
##ser
##II
sicheren
möglich,
kurz
Kontrastmittelphase
fleckförmige
30.0
##gabe
Dilatation
reizlose
1/2
ent
Untersuchungs
Weise
TSE,
##wirbel
Steriler
sch
verbreitert
L1
Gelenkspaltverschmälerung
osteoplastischer
##ill
Thalamus
solide
Mäßig
berandet,
benigne
##weite
##seitig
##9,
neuro
loco
##ara
##nz
DIP
Hände:
orale
ACC
##hämatom
Vollständige
Seitenventrikels
Clipmaterial
Humeruskopf
Infratentoriell
Aneurysmen
Kräftige
größenprogredient
dichtes
kaum
LWK3
Muskel
##VA
##dosis
Nervenwurzel
F18-FDG
##sh
##ad
Emphysem
Fokale
AP
##phie
##bo
angrenzender
Daten
hyperdense
Millimeter
abge
##kte
mediastinal,
berandet
messend,
marginalen
Originale
L4
##zone
##17
miterfasste
Signalverhalten
1,9
Vorliegen
Pulmonale
postoperativ
Fibroadenom
##hn
retroperitonealen
Traumafolgen
Schilddrüsenwerte
X
##gebiet
degenerativ
##kanal
intraluminale
53
beträgt
res
Abgrenzbarkeit
##ial
BWS:
(DD
##TS
Sa
Dünn-
Malleolus
untersuchten
##formation
23.05.201
noduläre
Arthrosis
##ff
##bi
Größen
##rd
##pt
Hypodense
##18
inguinale
##sstörung
lokale
Fremdkörper
Köpfchen
Aufklärungsbogen
Dissektion
25.0
war
Zweck
Kontrastmittel;
Beckenübersicht:
Segmente
atypische
28.0
sacrum
Mamma-Ca
Ileum
hi
##ob
mäßigen
alte
Fa
06.06.201
##punktion
Altersentsprechender
Rippenserienfraktur
Lymphknotenmetastasen
Husten
##/I
0,27
##4)
##bung
13,
Wirbelkörperhöhenminderung
##ges
AIE
:
##9.1
vermutlich
daher
Pallium
51
zwischenzeitlich
bekannt
Lokalisationssequenzen,
Ggf.
axialer
2-
thorakolumbalen
maxillares
euthyreote
(Vmax:
multiplanaren
Füße:
zweier
Blutungs
Magens
gr
v.a.
VS
Differenzierung
Bo
z.
Flüssigkeitsansammlung
##-H
iP
subchondrale
dislozierter
direkten
superficialis,
Leberläsion
Grenzwertig
Mehrsklerosierung
##spr
##satz
tumorsuspekter
breitbasige
##fä
Verbindung
5-
fokal
##ka
intracranielle
##blutung
Ne
Defektareal
pa
08.02.201
vorliegend
14.03.201
Unterlappendystelektase
kranialen
ML
hepatis
##gelenke
##tin
25.01.201
##qua
ges
diffus
##16
##eck
Herr
interna,
##oli
##:00
echoarmer
frontal,
echofreie
(8
allerdings
Pancreas
##rom
Spezielle
##chse
Signalalterationen
##is,
Leberhilus
20.06.201
Herz-
11.01.201
interstitielle
##yt
globale
15.02.201
Lufteinschlüssen
MI
Freies
04.07.201
ATP
unauffällig.
Herzens
21.03.201
##-V
Deckplatte
##wei
56
Herdbefunde,
##sten
Sequentielle
chronisch
##1)
dorso
Femurkopf
11.04.201
konfiguriertes
##/m
12.04.201
disseminierte
Aortensklerose
Resektionshöhle
14.06.201
Verlaufskontrollen
(Wahlund
Voraufnahmen.
T2,
Erguß
schmal
##19
intakt.
Capsula
54
##ack
Con
##nder
07.03.201
##mie
20.01.201
po
Rekonstruktionen
##tro
Dünnschicht-
07.06.201
(n
unklare
22.03.201
Demonstration
##5.
Schmales
Verkalkte
interne
descendens
mittig
21.0
##spitze
27.06.201
##tur
thorakaler
##-B
Mehr
narbigen
Dyspnoe
11.06.201
ossär
Schrankenstörung
sterilen
Resektions
tibialis
Bandscheibenprotrusionen
Ziel
T3
##ac
NSCLC
Medial
Humerusfraktur
##est
Verhaltensmaßregeln
11.07.201
anschließend
Knochenfenster
##l-
22.02.201
##-I
lakunäre
MT
Erfolgreiche
##tand
Meteorismus
CT-Thorax
ovaläre
(bei
annähernd
Imbibierung
##chung
hyper
Vorfuß
199
##/2
deutlichen
Streifige
Pseudo
##val
hilär,
##/A
Inhomogene
(K
geringgradig
05.09.201
##0.1
Signalanhebungen
0,1
En
fein
Liquorräume,
7.
man
schlank,
Signalsteigerung
Lungenstruktur
##tation
Lokalisations
ossis
Vi
15.01.201
intraabdominell
knotige
teil
Fokus
Sturz,
##ken
##heit
18.01.201
Cholezystolithiasis
frontoparietal
Initiale
orthotoper
echoarmen
Thorax/Abdomen
T4
Um
ventro
01.02.201
Wie
N.
perfundiert,
regelmäßig
##-s
VCS
22.08.201
bipulmonale
##x3
##kuläre
Markierung
##ärer
Hochaufgelöste
Hu
##anteile
Skelett
18.07.201
ATA
12.07.201
vorangegangener
Schwächungskorrektur
Gonarthrosis
Mammographisch
coeliacus
ange
Druckschmerz
57
15.03.201
20.03.201
Normbereich,
##pol
12.09.201
Konkrementen
symmetrische,
retroperitoneal,
Kellgren
EF
13.06.201
##ps
Schleuse
14.08.201
Mediastinalorgane
##kar
Schädelbasis.
Harmonische
##ula
Nasen-
mediale
0,3
26.04.201
Läsionen.
Tc-99m-
Regredienter
04.04.201
Erbitte
21.06.201
Erweiterte
Seite
klinischen
##aris
##raktur
Flüssigkeitseinlagerungen
31.05.201
Knöcherne
CT-VA
##-Fraktur
Verlauf.
te
05.07.201
##zug
II.
29.08.201
49
la
Diagnose
20.02.201
5,5
20.09.201
##son
19.09.201
Sta
Nephro
##oid
SDH
Calcaneus
PET-Emissionsmessung
Hilusnah
21.01.201
(R
belüftete
Spinalkanals
Mittelgesichts
17.06.201
##sp
##ron
Mehrzeilenspiral-CT
##inter
##do
kariöse
Größenregredienz
##gte
##kos
komplikationslosem
14.01.201
08.06.201
indirekten
Vorbefund
08.05.201
##/P
##licher
##lar
US
Multislice-Technik,
signifikant
Mammasonographisch
##ist
Tracer
##-3
mäßiggradige
Narbige
22.05.201
09.01.201
15.08.201
13.02.201
25.04.201
3D-GRE
Pelottierung
NTx
28.06.201
Bruch
AMS
##br
konfiguriert
Verk
MRT,
12.06.201
26.09.201
07.05.201
01.03.201
##phase
SV
ob
Liquorzirkulationsstörung
periventrikulär
intensivierten
Wirbelsäulenveränderungen
##ari
28.01.201
##/p
intravenöse
Fragmente
##nst
Karzinom
Bogen
13.04.201
Myelon
##tus
Osteolyse
##geb
DWI,
flächig
tastbar
Signalanhebung
Ohrnebenräume,
Fraglich
12.02.201
10.05.201
(Aneurysmen
23.08.201
13.09.201
25.07.201
##ße
##rc
24.04.201
##kopf
20.04.201
Cholestase.
30.05.201
behandelnden
11.05.201
chronischer
Melanom
RF,
##teil
Erbitten
07.01.201
verminderte
09.05.201
24.02.201
transversale
Gefäßzeichnung
16.03.201
umschriebener
sp
(9
Ergüssen
gesteuerte
dünnschichtige
10.02.201
27.09.201
Pleurakuppenschwielen
Glenoid
##zy
02.05.201
Veränderungen.
TACE
Hemiparese
oral
LWK2
mittelständiger
Fi
15.05.201
Größe,
Do
Ante-
##adi
übrige
##ete
Re-
Pat
##wert
11.03.201
El
zarte
##2008
(N
##maß
Bülau
her
24.05.201
##0.2008:
ko
Dynamische
Allseits
12.03.201
18.04.201
Leberzysten
08.08.201
dilatierten
post-KM
Therapiehilfen
16.08.201
##bein
Spiegel
DK
17.02.201
13.03.201
NUK
27.02.201
langen
(c
Ti
22.01.201
Dabei
03.05.201
2,3
folgender
27.01.201
geringem
##ato
16.04.201
##go
16.02.201
##oren
01.08.201
##typische
Frei
29.04.201
Interhemisphärenspalt
15.04.201
##dung
##-5
##;MR
##ase
23.01.201
)
30.01.201
10.01.201
27.03.201
17.05.201
15.06.201
27.05.201
zuvor
26.01.201
##gie
##des
18.06.201
19.02.201
##ün
##eli
10.04.201
Regelhafte
Kyphoplastie
Bekannte,
30.08.201
##ala
06.09.201
einschließlich
08.03.201
##-D
minimaler
Oropharynx
##verlauf
Granulom
23.03.201
18.02.201
##nale
06.03.201
##tig
vierter
16.01.201
4,20
VK
19.04.201
09.08.201
Kniegelenke
##,4
Kleinhirnhemisphären
8.
unterschiedlichen
Gallenblasen
Koronar
Arterielle
Vorder
##platten
24.01.201
Milliliter
exemplarisch
Stern
19.06.201
sonographischen
09.02.201
03.06.201
18.03.201
19.01.201
12.01.201
betonter
Hemihepatektomie
13.07.201
11.02.201
Unterlappens
##rale
Ste
##tischen
##nie
media
26.07.201
wobei
07.02.201
##Gy
wenig
Axilla
MR-tomographisch
##rin
##onen
Minder
größenregredient
##mal
hochgradiger
23.02.201
Insuffizienz
##ST
überschaubaren
Schaft
Konventionelle
Pankreasschwanz
##gradig
##en:
##knoten
##2.201
fehlender
Stoffwechsellage
##yse
neuroforaminale
30.04.201
01.06.201
05.02.201
17.01.201
02.08.201
##Re
Hypodensität
04.06.201
##ba
08.01.201
1.5
14.02.201
Bi
20.07.201
Stanzbiopsie
5/
multiplanare
21.02.201
##07
##bs
kon
##yste
Fehlstellung
klein
##hal
2,2
vorhanden
4-
25.02.201
Herzhöhlen
saphena
Felsenbein
10.10.201
06.05.201
abdominell
eindeutige
##ischen
16.05.201
14.09.201
Hals/Thorax:
##ente
auslaufende
09.03.201
19.03.201
##funktion
T1-Flash
Linksseitig
Mesenterial
04.09.201
17.10.201
Umschriebene
Fluß
Blasen
##kale
Intrapulmonal
Pulmonal
##/CT
06.07.201
Gesichtsschädels
##,7
05.04.201
Ko
IP
superficialis
26.03.201
##9.
verbreiterte
20.08.201
vereinzelte
##verkalkungen
13.01.201
##tag
cervical
Osteo
Schraube
06.02.201
24.10.201
##-4
14.11.201
Übersichtsradiographie
Zwerchfellkuppen
offene
03.07.201
02.03.201
##schaft
Po
(3-0
17.09.201
10.07.201
##ien
05.06.201
##pre
Pflege
mesenterial,
05.03.201
##,2
06.01.201
##ression
18.05.201
entfaltete
21.09.201
MPR
18.09.201
21.08.201
##areal
Flaue
##sta
maximum
Co
IMA
23.04.201
Becken,
23.11.201
Kontrastmittelaufnahme
kardiopulmonalem
99mTc-
##tis,
##kante
3-70
Ger
Aufhellungssaum
27.08.201
Materiallage
nachweisbar.
28.03.201
Szintigraphie
0,4
starke
nativer
medialis
04.02.201
17.08.201
T2-TIRM
26.08.201
24.06.201
beschriebenen
älterer
03.02.201
24.09.201
07.09.201
##ück
##verkalkung
##ds
3,0
##cl
Koprostase
##str
##unktion
##minderung
styloideus
##ogen
##logie
Bauch
24.08.201
Nasenbein
Hals/Thorax/Abdomen/Becken
Zeitpunkten
Ventrikel,
interenterisch
(VU:
tri
11.09.201
04.03.201
27.07.201
17.07.201
29.03.201
19.08.201
16.11.201
04.01.201
Normal:
Nierenbeckenkelchsystem
abdomineller
26.02.201
eindeutigen
Fettgewebes
58
29.01.201
dextra
28.02.201
residuelle
03.09.201
##yl
19.07.201
##eil
z
26.06.201
##pan
07.12.201
15.11.201
##An
T-Wert*
10.09.201
Tri
##ide
31.01.201
23.09.201
28.08.201
(21:
24.07.201
Leberzyste
22.06.201
Auswertung
16.06.201
15.07.201
(11
Peritrast
spinale
##2-
biphasisch
Ischämie.
12.12.201
pT
submandibulär
CC
Hemithorax
02.02.201
##nekrose
10.06.201
aktuelle
##volumen
##tte
Vergleichend
28.09.201
Stufenbildung
##itäten
10.08.201
09.07.201
Kelche
##R-
07.08.201
Insbesondere
Komprimierbarkeit
postentzündliche
Mehrspeicherungen
25.09.201
##nal
Hyperkyphose
ha
07.11.201
Lage?
22.07.201
##8)
hinteres
Problemlose
Herniation
ste
Gallenblase,
weites
ADC
##we
08.04.201
19.05.201
Progredienter
##-Ma
venoes
(SE
09.09.201
kontrastierten
Auffälligkeiten
16.07.201
Cer
03.08.201
12.05.201
Plexus
Ansatz
11.10.201
13.08.201
21.11.201
zirkuläre
12.10.201
umgebenden
16.09.201
Weichteilver
Ha
pleurale
##eal
Harnstau,
##dichte
Von
erfolgreiche
Anastomosen
23.07.201
metastasiertes
Verlegung
##ate
ehemaligen
##nahe
durchgreifende
29.07.201
Schmaler
Multi
20.05.201
06.08.201
Schrittmacheraggregat
pektoral,
27.04.201
Unveränderter
Larynx
01.11.201
(S3
02.07.201
##Katheter
Lymph
##-a
##lan
29.06.201
Ganzkörper-
Sternum
##läre
Hals/Thorax
Auftreibung
paraaortale
##drittel
##ding
Nur
25.03.201
initiale
##ium
damit
##kin
12.08.201
Neuanlage
gegebenenfalls
LWK4/5
##d,
CT-gestützte
25.06.201
Atherosklerose
kortikomedulläre
lotrechte
ZVK-Anlage
##sfraktur
##nf
TOF
14,
Postoperativ
Bauchlage
(s
59
##intense
narbig
f
##tige
Phlebolithen
begrenzter
19.10.201
##ative
##wer
(E
##ore
##-2
##kla
Mehranreicherung
Gyrus
Abfluss
ilium
Prostatakarzinom
multi
T2w-
##lus
BWK12
Betonte
02.09.201
14.12.201
Verletzungen
24.03.201
17.03.201
Komponente
08.07.201
10.03.201
arteriosklerotische
05.12.201
##rti
01.07.201
reaktive
empfohlen
31.08.201
erhöhtem
Körperoberfläche
##nsch
##ic
01.0
30.03.201
lagen
##a,
##gramm
Putamen
Traglinie
15.09.201
##lie
Ileus
22.11.201
##onde
Ho
26.10.201
Kleinere
Vorwölbung
prominenter
(12
##cin
Wasser
##vertebral
##sze
13.12.201
Bes
61
04.05.201
2010
##nteile
##pf
19.12.201
05.08.201
Erhöhte
28.05.201
##,3
31.07.201
verdickten
ventrales
Abgangsstenose
Power-Doppler
Schlanke
NN
Linksseitenlage
Hinterkanten
14.05.201
Position
Begleit
##veränderungen
hepatica:
schmaler
##ms
##Thorax
30.07.201
05.01.201
##l.
63
##bild
##05
durchmessend
28.11.201
##A,
Leberzirrhose
Dr
poly
hochparietal
Mediastinale
breite
29.05.201
2009
freundlichen
Doppler
##oa
Sonde
##ute
##logische
umgebende
66
gemäß
Clip
##steo
##sel
Gy
Ju
Weiteren
Dem
##6)
dorsolateral
PSA
dd
##echo
06.12.201
##bruch
26.05.201
##bilder
##thorax
paravertebral
04.10.201
eingeblutete
iso
##gio
Woche
21.05.201
##7)
28.04.201
03.04.201
Nasen
Draht
periradikuläre
08.11.201
berichtet
antegradem
Ober
03.03.201
18.10.201
##leg
3,2
T-Wert-Analyse
09.11.201
Untersuchungen:
seitengleicher
erhaltener
##durch
Oberbauches
##1-
moderate
18.08.201
25.10.201
##bene
Grüßen
Frakturnachweis
A.e.
dargestellten
##Sequenz
2,4
metatarsale
2,8
##stand
normweite
##MRT
15.10.201
13.05.201
Mediastinum,
##ufnahme
16.10.201
mittelgradige
Verdichtungs
BPH
(O
3-7
##dio
flüssigkeitsgefüllte
Fossa
Akute
08.09.201
Lumbal
Erhaltenes
Frakturzeichen
nachweisbar,
floride
09.04.201
##ersatz
fi
Mehrzeilen-Spiral-Technik
##nti
Buscopan
Syndrom
Th
##spalt
LGZ
inhomogener
20.11.201
Schenkel
gleich
Rechts:
21.07.201
Fixation
##dia
##-v
Kalotte,
##fte
Einführen
komplett
Si
Harn
31.03.201
erscheinen
Abriss
0,2
or
##schmerz
hepatischer
Laborparameter
m/s
##01
##statische
##nose
76
Ga
14.07.201
##messung
kollegialen
10.12.201
17.04.201
##70
konsekutive
unwahrscheinlich;
##kon
antero
mm;
02.11.201
darstellbar
##nat
##nadel
di
24.11.201
orthograd
cerebrale
Dynamik
##200
Risikoanamnese,
22.09.201
maximale
rückläufige
##xt
11.11.201
Peristaltik
Husten,
Sonogramm
(aktuell
##ers
Materiallockerung
12.11.201
19.11.201
##tale
OPS:3-200
perirenale
##gu
##stelle
Komp
##pie
01.09.201
ng/ml
##-Sch
r
##man
Frische
Globale
Mittelgradige
25.08.201
##1.
##ec
##ica
##-MRT
gel
##änge
##ct
Dekompensation
##ont
##-G
##,6
##niere
erhaltene
pneumatisiert
Funktionsaufnahmen
langstreckige
Symmetrischer
##ET
Wa
Mark
Lymphknoten.
14.10.201
##rit
Fr
20.12.201
Ar
(re
interquadrantär
b
05.10.201
Malignom
##länge
30.06.201
Hypointensitäten,
##mor
##usion
##gt
erneut
##n)
07.04.201
ph
CA
meta
2,0
17.11.201
Frauen
2,7
Bandscheibenfach
Wund
Hallux
##-M
Rechtskonvexe
##uß
Links:
kg
80-Zeilen
##trauma
68
16.1
belüftet
##um,
gelegen,
##-Anlage
##uti
kontrastieren
beginnender
intrahepatischer
Ni
450
par
Abstand
##pla
Kranial
bilaterale
konfigurierter
##x4
späte
Neurokranium
CCE
schmale
##Gelenk
##spa
30.10.201
##uer
gesunden
##zie
10.11.201
##suspekte
jungen
rezidivierende
20.10.201
23.10.201
telefonische
Hüftkopf
MCP
Bewegungsartefakten
1-
##cc
Talus
##ellung
26.11.201
10.1
Harnblasen
##dens
##TEP
Asymmetrie
Darmgasüberlagerung
Schilddrüsenszintigraphie
07.07.201
##35
23.06.201
Kaliber
osteo
05.11.201
17.1
Erstdiagnose
Afterloading
Hypertrophie
27.10.201
31.10.201
##27
##rum
##gre
##breite
Unklarer
Flache
13.10.201
Beim
##ona
kurzstreckige
Ventrale
Form,
##nar
Verlauf,
Caput
04.08.201
perfundierte
unkomplizierte
##-CA
##/4
Sch
##ep
Mal
ka
##ystem
Femurfraktur
##tung
Hamm
##ngi
##icher
Untersuchungsbedingungen
##logisch
28.07.201
##th
##Be
aktive
25.11.201
13.11.201
vermehrt
Flüssigkeits
cranialen
##myo
Dünndarms
Niere:
##-W
Br
messendes
Tuber
##fer
Cage
##ulär
##kli
Anf
stellte
Weltgesundheitsorganisation
Vgl
##ielle
##cher
Cholestase,
Adenom
TIRM,
30.11.201
Zielaufnahmen
##ans
dilatierte
##3-
##weise
Thrombophlebitis
06.10.201
##saum
15.12.201
randständig
##tl
Frakturnachweis.
Strukturen:
bedingten
18.11.201
geb.
30.09.201
Verschmälerung
##platte
Tuberculum
##A-
##pos
pe
29.09.201
randständige
Kaudal
29.11.201
gibt
knotig
##ule
##kre
links)
09.10.201
##gi
lo
17.12.201
Versch
verdickte
(1,
UV
Nächste
##fie
Gastro
Orientierend
##Implantation
mesenterica
gelten
Nierenarterienstenose
11.12.201
16.12.201
##G,
weniger
Femurschaft
Magensonde,
11.08.201
06.11.201
davon
SE,
##chter
parailiakal
22.04.201
##wa
27.11.201
##cephal
09.06.201
Referenzdatenbank
neuaufgetretener
Dar
harnabführenden
(WHO-Definitionen
DS
möglicher
Arrosion
ICB?
29.10.201
Su
Kalk
Humeruskopfes
09.12.201
anterioren
Mediastromgebiet
ulnar
intracraniellen
mo
betont,
##ise
Oberbauchs
Staging.
Beckenachse
03.11.201
gra
ga
##tel
##belegung
##-Syndrom
implantierte
Phasen
gleichen
Abbruch
##isierung
Implantat
02.06.201
01.04.201
Di
multisegmentale
22.10.201
Hämatoms
##MA
Ureters
##ki
Hochgradiger
Foramen
Rundherde,
##rakt
##förmig
08.10.201
##sehne
Ergebnis
(m
Spondyloosteochondrosis
04.11.201
72
06.04.201
maskiert
##verletzung
##komponente
##fund
##ese
3-990;
epi
Konsekutiv
histologische
Pa
CT-Untersuchung
kontrastmittelaufnehmende
Lockerung,
Angrenzend
situ
81
03.12.201
C7
Abdomen/Becken:
nachweisbare
THI,
Substitution
Nuklidanreicherung
Ischämie?
DWI/ADC,
04.12.201
##t-
supratentoriellen
08.12.201
regio
##bau
Symmetrisches
glatt,
imponierend
##äsion
Zystische
##sierung
dort
14.04.201
Gastrointestinaltrakt:
##lichen
Lo
##J
##reiche
Blutauflagerungen
stehen
Cholangien
07.10.201
##es.
21.04.201
##tr
Ur
Klein
##/l
##yn
Halses,
##chs
Nuklid
erneuten
weiterführende
konturbildenden
mutmaßlich
##-,
##ßen
jährliche
(Meyerding
homogen,
##06
##lb
##Sp
fortgeschrittene
inf
fibrotische
Kor
Signalgebung
Verschlechterung
125
##hle
Skelettsystem
##etr
Sternalzerklagen
(22:
erosive
projektionsradiographisch
Sprunggelenk
Gi
##leit
##tar
##-Di
02.10.201
28.10.201
##oka
Schallauslöschung
as
anschließende
15,
##freie
21.10.201
##/H
Hypodensitäten
##5)
##embolisation
##mb
Technisch
Portkatheters
Sp
hochfrontal
Entzündungszeichen
18.12.201
OSG-
supratentoriell
##blastom
##ata
##chä
Herzschatten
Flussgeschwindigkeit
Teils
2,1
##ender
25.05.201
alter
L3
Coil
dezente
Noch
##/V
LA
sowohl
luftgefüllte
PHILIPS
(ED
67
Abgangsnah
angelegt
##tas
ta
Pankreatitis
cm/s)
Inkrementaltechnik
##atische
Traumafolge
Berlin
Aktivität
perihepatisch
##lutung
##tent
derzeit
##inde
##ele
axillär,
##äng
Inspiration
##reaktion
tumorsuspekten
sterile
##abe
Rück
Divertikel
Metastasiertes
frontalen
##ili
Zug
Ausschluß
regelhafte
##zystische
##izier
Kieferwinkel
diffusionsgewichtete
t
##cr
Deckplattenimpression
Zunächst
Hoch
##,8
Liegen.
geehrter
Fla
Gelenkfläche
##zyt
streifig
dargestellt
##hem
ziehend
##stu
linksbetont,
Falle
##struktur
beginnenden
##d-
beginnend
paratracheal
Impression
##iert,
##-R
Mehrschichtspiraltechnik
03.01.201
02.04.201
Ventral
Infektion
einliegendem
Direkt
##phal
##eg
Szintigraphisch
verbreitert.
##forme
02.12.201
##-Gelenk
Computergestützte
Aplio
##equenz
##band
infratentorielle
ac
##us,
Drüsenkörper
traumatisch
kortikalen
Wirbelkörperfraktur
##3.2009
Verlaufskontrolle,
Perikarderguss.
Dezente
##oden
periartikuläre
Planare
gefüllt
Kleinste
##-Sp
Galeahämatom
##ess
##ono
Serom
Prozess
AIC
p.
Bandscheibenprolaps
Tra
proximaler
Fusion
Schmerztherapie
telefonisch
Längs
##ero
##ographie
Hypo
vorwiegend
Höhergradige
Fibrose
sa
##zess
RA
##25
##ande
##äu
T-
Ganzkörper/Polytrauma
vertebrales
konfiguriert.
Skelettalter
enhancende
##e:
FKDS
Retrolisthesis
FAST
Frakturzone
Myelons
BS
osteoplastische
Stress
dynamische
Sterile
erhöhter
##a-
Seg
##ehen
Fehl
endet
1.000
hypert
##52
##tischer
##ogra
str
##gkeit
Femurs
Respiratorische
##7.2009
Vorderhorn
Mundboden
##33
##eite
##ple
unserem
##osi
Eingriff
##esi
##erfusion
##ym
##ks
##mon
Mamma-
Dia
Str
##kti
Saum
11.1
Stark
01.10.201
ganz
##-m
Leeraufnahme:
mitabgebildete
Mehrzeilen-Spiral-CT
##pi
d
Schenkelhalsfraktur
Lipom
Balken
##cum
Rechtsseitig
DI
5mm
UB
Nierenarterien
Schleimhaut
##-C
sichere
bildmorphologisch
##llt
##.-
ausgeprägt
(G
thrombotische
Atem
##tor
cor
##basal
Liquorzirkulationsstörung.
##ha
Eingeschränkt
Einbringung
reichend
Frauen:
intrap
vorliegenden
Akzentuierter
4/
##6.2009
TX-Niere
pleuraständige
Inf
RS
anderen
Berechnung
verkalkter
regelrecht.
LTX
kU/l
latero
ger
KM-A
wandverdickten
##02
1,5-Tesla
STIR
##verdickung
Damit
Bemerkung:
(SUV
Durchgeführte
IV.
sternförmigen
##ow
Abdeckung
##graphisch
##orm
##se,
Polytrauma
imponieren
Bronchial
##1.2008
kla
Gr
##sie
Leistung(en)
##D-
73
R.
Anstieg
##m-
perisplenisch
Palpation
01.12.201
##lit
Kapsel
##bifurkation
##rge
Hal
##skontrolle
##perfusion
II,
##rsch
##llig
ans
##äm
führend
echoarm
Fußskelett
##erguss
anatomischen
T,
PTA
##ging
##tions
Bilddatenanalyse
Leistenhernie
Axilläre
Platten
liegender
##gleich
Derzeit
##kro
##kus
Mittellinie
pectoralis
##hne
##let
##pneumo
##fläche
Zeh
Ausbildung
##törung
85
erwägen.
Alters
##V-
Transitionalzone
Operation
Nervus
Offenbar
##geste
gastro
##bulbär
##nke
Lu
Spiegelbildungen
angelegte
(mit
(b
Zeichnung
21.12.201
o.g.
##eng
OPS
##rterie
ausgedehnten
stehende
periventrikuläre
Lungenkontusion
##nan
Pons
Ber
##hol
##pra
w
Osteosynthesematerial
Entzündung
05.05.201
##IR
##9)
PT
##sbe
Du
http://radiologie.charite.de/pflegeleitfaden/
mehrfragmentäre
##eld
##d.
##trans
Hyperdensität
zartwandig
##lia
##hin
##bar,
Einliegende
VU,
##rh
verzichtet
behandelten
Pla
Kn
##feld
Metall
Koronarsklerose
##erst
##eren
ze
Arzt
##ick
flüssigkeitsgefüllt
low
Band
##temporal
einges
Pal
##e-
HCC-
##201
##mt
##eo
Magnetresonanztomographie
##enn
15.1
Spondylo
ev
Unterpol
III.
##gr
Infarktes.
Größenregrediente
Pneumonische
Thalami
4,4
##RT
Spr
##lea
schlecht
Kau
95
entfaltet
infradiaphragmal
gesteigerter
lateraler
Aufnahmenummer:
Konsolidierte
##beg
rechts)
CT-VU
Prüfung
subkutanen
Hepato
Belastungs
Aufhärtungsartefakten
##-l
##versorgung
##nierte
KHK
Mittellinienverlagerung,
##iertes
lange
Lang
Unterlappen,
Ausgeprägter
3-20
Flußsignal
Rosenberg
##eni
Linkskonvexe
##flu
##lli
Dys
welches
##unde
T2-Wichtung
Psoriasis
Lagekontrolle
##r.
##9.2009
2,00
Normbereich
externa,
Mo
Konsekutive
##abs
Meta
eins
cervikal
##F-
System
mi
Myelopathie
Deutlicher
Diskreter
temporo
##trie
lokal
SS
fett
Duodenum
AV
Y
0,0
##US
Substanzdefekt
##position
Teilinvolution
##phisch
##cm,
Ergüsse?
##kelett
1,5-Tesla-MRT
dorsobasal
rechts-
##-Winkel
Ödematisierung
Dislozierte
Pankreasgang
##iti
##iss
geehrte
##-Ab
##usi
Nierens
##eno
##äh
##halt
##dukt
nodosa
Gallenblasenwand
Lingula
##-In
##cm)
besser
(vor
##mann
Zwischenzeitlich
Ki
Mu
##stent
frontale
Eminentia
auss
Meningeom
Lokalisationsscan,
##ek
Narbenverhältnisse
Hyperostosis
##ach
##eut
3-Tesla
hypo
##rde
Schmerzen,
hypodenser
Osteophyten
##ast
##chmerzen
m2
hyperintens
Infektfokus
##venen
##rs
Spülung
Res
unscharfe
belüftetes
Hypointensität
fa
##ulo
einsehbare
##ame
Neuroforamen
##of
Cauda
##ologische
Ursache
##grenze
ischämische
ACE
schlanke
Blutungen
Ast
axillären,
Grenz
Kopf/Hals/Thorax/Abdomen/Becken
74
##lösung
##gn
beidseits:
Physiologische
(15:
##04
Fleckige
##ung.
##pathische
Hyperthyreose
seiten-
Rec
(V
Entnahme
20.1
Substanz
Sinterung
##ylo
atypischer
Problemen
periventrikulären
nahe
gezogen
Infarktdemarkierung
Kind
BARD
jugulär,
Spi
Sof
(MRT
SD-Lappen
arthritischer
best
##eitig
MF
leichter
femoro
Kollegin,
##yr
Sulcusrelief
Supra
akuter
##nische
wenden
Kar
nativdiagnostisch
persistierende
Schilddrüsenknoten
metastasensuspekter
##hro
Ableitende
##rö
angedeutet
PS
V4
Perikarderguss
Sonstige
Heparin
Starke
Phase,
Chemo
MC
Früh
subdurale
sinistra
Koronararterien
##iden
Subtraktionen
Beine
##-)
Puls
Bl
##ulus
CD-Winkel
##jährige
##erter
##sver
Wirbelsäulenganzaufnahme
kräftigen
Tumormanifestation
ak
##vas
##37
Reposition
Artefaktüberlagerung
kleinem
MTP-Gelenk
Becken/
Schlingen,
e.
basiläre
Luftüberlagerung
##oc
##tive
mm).
paramediastinal
##5.2009
##);
Danach
zonale
##pezi
##ange
progredienten
versch
Seitaufnahme
Ri
##rtige
##-An
operativen
MRT-Voraufnahmen
maskierte
##ven
Koll
bes
##lla
Luft,
##/F
##halb
##mals
MR-morphologisch
##/o
##dorsal
Flüssigkeitsgefüllte
psoas
Bülaudrainage
Materiallockerung,
##8.2009
hilärer
verkleinert
glatten
Stein
Ausläufer
9.
##stra
##fache
19.1
Intakte
10.
##okoll
##fach
##ager
VU.
##örper
NNH:
Überw
##lem
liegenden
manuelle
##ori
Radiusköpfchen
Abgangs
tracheales
##Fraktur
AC-Gelenk
##schnitt
##\u
##amt
##rf
##gesch
Pleuradrainage
Porttasche
##lz
Femora
Mandibula
DE
500
(F
strukturiert
##wo
##hafte
##telektase
##2.2008
##äß
Mon
Traceranreicherung
metastasensuspekten
ausgedehnter
##SS
##ulation
Weichteilschatten
fettgesättigt
##car
familiärer
Kontroll
LV
Schädelgrube
Somit
Oberbauchorgane,
##j
##jektion
Speicheldrüsen
##ktive
##4.2009
##lk
kräftig
##ühr
funktionelle
wäre
Ges
##steigerung
anliegende
Frakturspalten
##zi
Cholezystitis
##omin
16-Zeilen
waren
subpleurale
##-Sequenz
dis
Niere,
metastasiertem
##llung
Massive
2-3
##durchmesser
mitabgebildet
extrakraniellen
Darmwand
##.8
zy
vorge
C.
##omie
##int
betontes
entsprechen
##dy
##,1
Partielle
gelenk
(max.
postoperativen
##diagnostik
##hm
empfohlen,
kräftiger
Leisten
verkalkten
Verm
subpleural
Q
Inkremental-CCT
Hyperintensitäten
##sl
##schw
protrahierte
##rter
fachkundigen
##Ma
konnektierten
##mg
komplette
fibro
tiefe
C6
Prominenter
Minimal
##tei
gestaucht
SKS
27.1
##VK
oberflächliche
##ehung
Instillation
##teile
Harnleiter
Konsil
##linie
Ektasie
(fT4)
Schm
cervikalen
Lobus
S-förmige
##umor
Fixierung
##kle
HU
PCA
dorsal,
zart
Mas
##ume
##chle
##rest
at
##dach
6,5
reduzierte
ng/dl
02.01.201
##änderungen
Lymphknotens
##sw
auto
vergleichbar
ax,
Prothesen
GK)
Nun
konnte
6-
Nativdiagnostisch
23.1
belüfteten
Mi
(Norm
##erv
Statische
Risiko
Gefäßst
Aufweitung
##kul
sta
Lungenemphysem
Größenkonstanz
diffusionsgewichteten
30.1
dr
zystischer
brachiocephalica
Oberpol
abdominelles
Probe
verlaufende
größten
##-ge
##frei
Aortenelongation
##präch
##peri
99
##ena
Je
##cu
Störung
##reich
##läsionen
osteolytische
(p
##eurysma
Hinterhorn
Zugangsweg
##-o
Hämo
Beinvenenthrombose
##ischer
201
##tik
##ku
kar
prox.
##60
hepatisch
Primarius
Myokard
EASY
##mel
S2
##achse
(im
##n:
Gegenüber
Septum
Minimaler
Haupt
Läsion,
##eid
verlegte
##wechsel
diskreten
sonstige
kutane
gewinkelt,
##erende
Dislokation.
Infarkt,
##ons
NaCl
beschriebene
ebenso
Befund,
Gyrierung
##-Drainage
##alk
##nes
Übergangs
##arm
Appendizitis
##ruptur
Kardio
##gestellte
gl
Ausprägung
Ph
lokalen
Kopfschmerzen
Pneu.
femoris
Status?
ES
##ehr
retikuläre
triphasische
offenbar
##0.
Bildakquisition
##fluss
ggfs.
Pfannen
Ma
typisch
##äres
FDG-
11/201
Kopf-
##adenom
##ant
Schrumpfnieren
Stellung?
links-
VU:
110
Gallen
Axillär
peritoneale
Vorhof.
Telebrix
Stents
##verteilung
##rbi
##ller
Rezidivierende
3,3
einliegenden
##atheter
ne
Stunde
##21
##misch
ante
erst
Gelenks
##ichen
##oms
Schall
en
##hals
##ämie
zystisch
Planung
3D-
Vene
##eb
##ark
Hinter
Pu
##,9
##osition
infiltrat
Auslaufender
S6
car
kleineren
##l)
intrarenalen
##otische
LAD
##ild
##vaskuläre
pi
Rundherde.
Low
Breitbasige
##ktoral
Lungenparenchyms
Entfaltete
2008
##por
##art
Ableitung
##sä
##nu
abgekapselte
beg
##ret
Lyse
##kulär
##risch
##iz
Orale
##lä
Aktivitäts
09.1
Seitbild
SIRT
Shaldon-Katheter
Katheterverlaufs
Narbenbereich
Hüftgelenks
##oll
##mark
##lu
##äume
S4
##ül
##ker
##ipp
Anzeichen
*Definition
##OL
callosum
82
##P-
verstärkte
Suszeptibilitätsartefakte
##tti
partieller
Thoraxdrainagen
neben
77
Lebergefäße
##gs
In-
##rr
##klärung
##aft
TAVI
FLAIR-
Kl
##erativ
##hy
##oide
typischen
2011
16,
Mammae
demarkierte
Ä
W.
8/
71
aortal
##bili
##ppe
steigende
du
22.1
hiläre,
Vorgehen
Tc-99m-MIBI
miterfasst
69
Befunddemonstration
Parenchymkontrastierung
##arterie
Facettengelenke
Gefügestörung
trotz
ch
##ram
##atrophie
Metastasen.
Lymphadenopathie,
Bild-
##ssch
Atypische
##luxation
supraaortalen
##schmerzen
##sept
µg/
##ton
##anteil
palpatorisch
Augen
##za
##bedingte
##orn
##fakt
##tau
unklar;
aufgetreten
0.27-4.20
echoreiches
achsengerechte
klinischer
magna,
T2-TSE,
##90
3,4
##/E
##-f
gew
fast
Tu
78
Nu
apikaler
##ln
Osteopene
##teilresektion
osteopener
kontralaterales
##rten
mittel
hierbei
01/201
##sation
Mä
schwer
##31
j
Jochbogen
2/
peribronchiale
Granulome
(23:
##gm
peripankreatische
Nahtmaterial
##ozi
Strahlentransparenz
tumor
Carotis
##erapie
weiche
Fl
ei
Kla
##24
ADC-Map
echoreicher
Reduktion
##eben
IE
ausgehend
##venöse
##ieren
##örmige
Ö
##lon
mmHg
##inn
Schraubenosteosynthese
##2.0
PET/CT
Mittlere
##fr
Schmale
88
paras
atypisch
präoperative
metacarpale
Hirndruckerhöhung
##zysten
intrahepatisch
##/O
Kreuzband
COPD,
Sicherheit
Abszesse
i.v.-
angedeutete
Zyklen
Verbreiterung
##ukt
mittelständige
mandibulae
vorderes
##not
Aorta,
Tumors
st
##isiert
(ge
verbliebene
konturierte
stationäre
##ndi
valgus
beidseitige
Konkrementnachweis
Unterschenkels
##Ab
op
Ang
##ände
Schwan
##nc
##tten
##nta
##mbo
vers
subcutane
Ausge
Rundherden,
L2
Idem
Leukenzephalopathie.
Bez
Abge
durchgeführte
Scores
##ini
Darms
##/3
liegendem
Infra
##cos
Steilgestellte
(08:
##lavi
Diffusionsrestriktionen
##38
pu
##oph
##Qu
fraglicher
basilaris
##sk
##sph
##gefüllte
Sonographie:
##Po
##sequenz
post-
SM
CI
Beckenring
Wirbelkörperh
Ind
##iel
##dri
Heterogen
##Arthrose
Ventil
##te,
Hydrocephalus
Rö
US-
erweitertes
Hirnarterien,
##atelektase
##leu
Neuroforamenstenose
submandibularis
länger
Gl
ACR
##lat
##ogene
Ul
Pleurapunktion
abgangsnah
To
Mar
nimmt
vibe
Drei
verlagert
Kra
verteilte
Chondro
Omarthrose
##ür
##vers
##urz
Abdomen,
##stau
sämtliche
##fo
Direktzeichen
##omo
Koxarthrose
kranio
##igkeit
glatter
geb
##speicherung
##s)
##sbedingt
Grund-
Dialyse
Schluck
##/D
##-K
werten
superior,
##umen
##uspekte
Symphyse
Anwendung
Schilddrüsenkarzinom
##aut
##-Therapie
Lokalizer;
Fetthilus
erreicht
Geh
Subtraktion
Sternalcerclagen
##opf
Bildverbleib:
Kinking
##rem
Unterfeldern
mikroangiopathischer
Verl
##haupt
SWK1
frontobasal
Schultergelenke
Prostata:
22.12.201
echoreichem
##lst
Gelenkstellung
##ssen
co
##skopie
sub-
Leberarterie
Sc
Stufe
##mit
##-O
metastasen
Begrenzung
Gestern
Raum
##riss
plan
NP
##orp
pulmonalis
Zirkuläre
(d
##kalibrige
VA.
Quer-
atherosklerotische
Perikard
##/L
##vo
##gefäß
Kollateral
##m)
##äsionen
Kyphose
3,7
beschrieben
Poly
akut
Fibro
Perforation
Kre
##chnitt
IVa
##BI
Bewegungs
##üche
majus
Untersucht
##elte
5,1
##itte
intrabdominelle
weder
intrakranieller
subphrenisch
Standard
Versorgungstyp
##chie
##öser
S3
punkt
Seitengleich
Rei
UL-
##opa
Zystoide
##Sch
Subc
29.1
##vergrößerung
linksbetonte
Angrenzende
Gesicht
Spondylarthrosis
ICB,
##insuffizienz
ax
fal
Anamnese/Frage:
##zeitige
##umf
blut
##fisch
##angiographie
erosiven
##haltige
längerer
##0.2009
segmentale
RK
##tab
Flächige
Übriges
Auto
83
Dickdarm
##iso
verl
Osteomyelitis
Mikrokalk
##uns
intensiv
geringes
##bio
##uier
##ngen
##del
##lü
##rso
OPS-301:
verbliebenen
##sz
##kl
##asi
lateral,
##pat
Kalottenfraktur
eindeutiges
##sge
3,8
abgebildet,
CE
Fein
##koli
caudatus
##iche
FT
zentralvenöse
insb.
##reichend
##mot
respiratorische
Mittels
gef
##tio
Seldinger-Technik
Ultraschall
SUV
Ac
##AT
for
MCA-
Emphysemaspekt
portalvenöser
##aren
Nachb
massive
##lose
Proben
prall
Präparation
##/5
partielle
Vari
T2-gewichteten
FA
morgen
2x
verd
##/min
oben-außen
ur
LK-
##lauf
##rne
##orge
Ossär
Interlob
Total
verdickt
Ausziehungen
##ktur
positive
115
Arteriographie
Lokalrezidivs
lumbal
ersten
Sakroiliitis
##era
Multislice-CT
9.30-17.00
##ite
##g.
##sweise
Kutis
E-Mail:
röntgendichte
multifokale
transversus
##morphologisch
##onographie
fe
##-d
re,
me
Entzündliche
LWS-
Kelchgruppe
he
##PS
TSH-
Kong
schilddrüsenspezifische
##seitige
Corticalis
ihrer
Hirnvolumenminderung
Gewichts
04.1
metastasensuspekte
folgende
Bifurkation
Gesamtvolumen
Nähten
##ör
Ruptur
##darstellung
##osteosynthese
Lidocain
##ube
(fT3)
Wanda
##radi
Ummauerung
Tre
##je
Wirbelsäule,
Volumenbelastung,
##än
##fokale
##45
##Segment
##mina
supratentorielle
Parenchymdefekt
CM
AF
##rst
##roll
##-Segment
Tiefendurchmesser
Bandscheibe
05.1
Reiz
Saniertes
rheumatoide
Abstrom
##ppen
2,9
verstrichene
osteolytischer
##thrombose
Leukenzephalopathie
Carina
##narbe
##plastische
Okklusion
konfigurierten
Spongiosa
Thorakale
Luft.
hohe
Signalabfall
Flüssigkeitssaum
(axial),
24.1
Geringes
11/
##leer
größen
abgebrochen
frontal.
fettgesättigte
Subk
tse
erhöht
##C,
(10:1
##22
(Normwert
Hi
##vier
subkutane
Lungenanteilen
Beweis
##amm
(10:0
to
fehlende
Innenmeniskus
3/
##suspekten
VCI
Grundplatte
Erst
M1
Lungenarterien-Embolie
##die
täglich
Knöchernes
##kor
GB
internen
Frontal
zusammen
vollständiger
Pneumo
Infiltrats
##V,
2.00-4.40
Unterschenkelvenen
Basal
sei
##ECT
##uri
intrarenale
93
Hirndruck
geplanter
##eten
##sive
vereinbart
10/201
##enter
##ann
physiologische
ba
02/201
ventrolateral
locker
##kaudal
zementierten
Oesophagus
Orthotope,
##itis,
steriler
##ie,
##inden
u
##ngs
##fü
##tge
7,5
##/d
##.5
##emp
Prävertebraler
12/
Vol
Funktion
DJ-
Angefertigt
Kriterien
subakute
Transplantat
02.1
##.br
Kollateralen
##male
##kg
03/201
vordere
##füllung
Mehrfragmentäre
Kr
Ir
##-J
##fristig
Rek
##lei
8-
letzter
Restp
##iver
##ellen
lag
frontotemporal
##lität
Greulich
##onographisch
gespült
Scan
##mu
Vorbeschriebene
7-10
Perip
C5
31.0
Funktions
Protrusion
##sam
Clips
##:1
superior/rechter
Lymphommanifestation
operativer
Punktions
(00:
gemischt
Status,
##-Ka
##sonde
GK-Skelettszinti
3-997
##als
höhengeminderte
Nuklidverteilung
Ossifikationen
##uz
##mati
rundlich
##dyl
##ante
laterales
##lor
Andere
Kallusbildung
Dünnschicht
ang
Raumforderungen,
parenchymatöse
##uk
##endi
malignomverdächtiger
Mess
07.1
apikale
##x5
50%
##iläre
flache
3,6
##can
perit
Lungen,
##lavikulär
FS,
##/Abdomen
##wu
Normwert
Labrum
cc
Ubiquitär
##ai
##ungss
##s:
Peritonealkarzinose
Erste
pan
kal
##bul
Dose
(L1,
##ora
betonten
##defekte
##ösen
Linkes
Mamillen
Angaben
(13
Residuelle
Lokal
flauer
Abschnitt
Klinik/
Ke
Al
erk
Zyklus
Red
##kto
Frakturlinie
Myokardszintigraphie
Iliakal
eingeschränkten
Durchleuchtungszeit
##-Phase
Schilddrüsenanteile
alters
Wirkung
Tarsus
Makro
Alkohol
Prostatakarzinoms
Liquoraufstau.
typico
va
Bandscheibenvorfall
##parameter
Mikronoduli
Tracheal
##pul
Ex
26.1
##szeichen
Sti
postischämische
geringgradiger
##ping
##ette
(15
##esser
##eur
therapie
##top
##oideus
Erhaltene
Gesamt-
##noduläre
##neal
##gänge
##jugulär
restriktive
Thrombo
##muskulatur
##ebene
intrakutane
florider
pneumatisiert,
Außenkonturen
Speicher
Antelisthesis
##drüsen
Laminektomie
Aktuelle
-1,
schräg
##überlagerung
Polyp
symmetrisch,
27.12.201
##up
Sinterungsfraktur
Dehiszenz
##reg
As
##neu
Inkremental
##palt
10-14
zervikaler
Per
##34
##zeichen.
milchglasartige
größerer,
Jejunum
08.1
mu
2012
##cul
##bolis
11.
szintigraphisch
betr
signal
schwere
##renal
##idiv
##chm
Nierenparenchym
##-Re
Adeno
##rier
regelmäßigen
##ginal
SLN
Parenchymver
##vari
ST
Kons
stereotaktische
Porta
##lyse
##lare
verk
resorbierbarem
brachialis
Stauungszeichen,
skoliotische
Oberlappens
Bluta
Region
Or
##uff
##weis
befindet
Rundliche
Rechtes
##osis
Pedikelschrauben
##hend
(Fa.
##Me
intram
C2
br
bestehende
##plastik
##ock
##egment
##ovi
##ignal
##fragment
##nx
Osteop
Kiefer
7mm
##bl
RSO
mechanische
Ballon
##lum
paravertebrale
bipulmonal
T-Drainage
##23
werden.
pr
Spe
mes
##:2
##aktivität
##uell
su
dieses
BWS/LWS
Zervikale
Befundd
Zement
problemlosem
perihepatisch,
Minderspeicherung
Harnstau.
Dor
starken
##:0
begleitende
Schwimmen
kontinuierlicher
##zo
niedrig
##pli
intracerebrale
Retrolisthese
##versa
##ly
(10:3
##gend
glatte
Architekturstörung
##injektion
Duschen
##hren
Osteolysen,
vor:
(IM
Kontrastmittels
8mm
(U
corticale
##-St
enge
Mono
cCT
Vasosklerose
06.1
u.a.
##gig
Mastektomie
##chwa
ND:
##tritt
Entfaltung
Fadenmaterial
##bral
mikroangiopathische
##teri
Baden
Spiral
##metastase
Hypoplastische
12.
Eigen
##schicht
##enze
horizontale
nachweisbar
geschützt
mediane
##-Be
Kurz
Hä
Hierbei
intrakraniell,
Versatz
Bohrlochtrepanation
6mm
##tell
Symptomatik
##epi
##ektion
Bohrloch
##lex
Dies
##erf
Euthyreose
Tiefe
##/Referenzregion
linksventrikulär
##arenchym
Cutis-
##vermehrt
##OS
##wäch
schluckverschiebliche
Bili
zeigte
##vene
bl
##gangs
Glatte
##chtung
Mesen
Regelmäßige
##ou
Op
##gra
##pen
Binnen
##inie
Kalzifi
Harnwege:
hochgradig
wegweisende
##PA
##renz
105
##zogene
##rot
epidurale
##/T
Synovi
atem
PEG
##wä
bessere
Mat
##führung
Naso
Anal
gestaut
Polypöse
1000
##chondro
Verb
92
Zunehmend
##reduktion
##llär
##ure
##ya
##t)
DCE
endo
Portsystem:
##cular
##res
87
Thiamazol
Lediglich
LWS.
computergestützte
##rre
##get
Miktion
##I-
mm³,
Deckplatteneinbruch
##-0
86
diesen
2)
Hand-
##SH
##üft
##niti
##bd
##luss
Langstreckige
Bauchschmerzen
T2-FLAIR
##-Er
Dist
##mpla
Mittelgesicht
wenige
Dislokation,
Zeitpunkt
80-Zeilen-CT
B-
begrenzten
(Ma
##L,
fraktur
atrophe
Harnstauung
##xe
(10:2
700
##osteo
Aufnahmetechnik)
T1-MPRAGE
Mod
Inguinal
##gestützte
Mitte
Hormon
SC
el
##rechte
##ckel
##oste
offensichtliche
Vakuumbiopsie
Cochlea
79
Haut,
Block
Bilder
kalzifizierte
Genu
(St
Cortex
84
(l
darstellbar,
##herde
imponierender
gewinkelt
##veränderung
##tho
chronologischen
Zusätzliche
##atri
Ileums
7/
##T-
Pl
##03
##/7
Resta
##tikul
Hil
Intubation
ZVK-
Wachstum
##ose,
echoreiche
Paraaortal
##xie
Auss
18,
fatsat
Grundphalanx
##anstieg
S5
Gips
NTX.
##ehn
größer
übers
##ui
05/201
SCT
zeit
Chi
##anz
##stik
Zer
##ziert
TR
##2009
##bez
Marknagel
PZ
Flussprofile
##smus
##ade
CR
VCS.
Hypertonie
##akti
Stuhl
Ku
sel
parietale
##ndar
##enhancement
atypischen
(S2
pN
##cm/s
KM-gestützte
com
OS
Isthmus
##MI
##bt
##ev
Dorsal
sag
##zentral
könnte
##eder
posterioren
fT
Niereninsuffizienz
ER
mGy*cm
Tr
Deck
##tom
##-t
##if
##herd
hypertrophe
Nichtbenutzung
##zial
Oberkiefer
hypoplastische
befund
ulnae
##ring
##sus
##teili
##ichte
##dern
Metastasen,
Clearance
(li
##on-
destruierende
1)
##hepatisch
ileum
breiter
##ura
ARDS
(10:4
##qui
##ther
##lekt
Arthro
##üg
(20
arthrotische
wei
SWI
OF
##um-
##Y
##vi
##mes
94
09/201
04/201
##gemindert
medio
Gelenkflächen
##IM
magna
##ord
##att
Areals
Herzverbreiterung
##strukturen
##chlinge
frischere
ex,
Sollte
Erkrankung
91
28.12.201
##thro
##physe
Fenster
ZNS
##punkt
Drüsenkörper:
##0-
cm/s,
##dural
170
##äche
##rophie
(14
##eale
Defi
meningeale
PPPD
##essi
gewonnen
##metastasen
##D,
Femurdrittel
##pho
##iste
Pi
##mäßig
##tie
##ty
lokoregionäre
Signalqualität
##-12
verplumpte
entsprechend,
Wiederholung
Teilsaniertes
Stoffwechselsteigerung
##idi
##beschwerden
prätracheal
Ink
(RI)
verw
Verdichtungen,
06/201
Sprechstunde
##,0
har
relative
98
transversum
Vora
überlager
intrapulmonale
Zwerchfellkonturen
Nierenarterie
(SP
##thorakale
bih
pelvin
atlantodentale
Drüsengewebe
aortale
##zw
ORIF
(axial
weit,
Menge
Klammernaht
##g,
Maß
Verschluß
4mm
##Resektion
umgebender
##Veränderungen
Sä
##Ko
##losi
Groß
##syndrom
##elenk
Pleuraergüssen
Eigennieren
früh
schilddrüsenspezifischen
##gh
Sup
##sko
##80
17,
carotides
842,4
Seitenlappen
##plu
Ligamentum
opticus
plu
##oh
Übriger
##IC
eingebrachten
##sc
96
##ref
LC
01.1
##sarkom
##geh
postentzündlich
unge
BI-RADS
##Ver
kurzer
Stei
Broncho
Ach
Nebenbefundlich:
##egt
neuaufgetretenen
lympho
##sonographi
##igt
##1;
##-Me
außer
##wahrscheinlich
breit
Homogen
0,
Scout,
Bronchie
##wi
##chw
Pleuraerguß
6/
Perfusionsdefizit
##'
##pu
##chn
Retrosp
##versi
Ante
10mm
G.
##Aufnahme
assoziierte
Parotis
##hilär
seröse
##mat
Elektrode
##degenerati
zentriert
##rer
systolische
##wie
V.a
08/201
(k
SPECT-Aufnahmen
Verst
Sitz
abgrenzbares
prä-
Vakuumphänomen
##klerose
##urie
vereinzelt
##ritt
Klavikula
4,7
Schilddrüsendiagnostik
##Tr
Ovarien
Aqu
##höhlen
dys
osteopene
25.1
wa
Flüssigkeitsretention
##ormation
Wenig
Valsalva
Hochdruck
aktuell:
Leberve
erfolgen
verbreitertes
030)
Vorrangig
Stenose,
##/T2
geplanten
Lymphaden
Falx
##kta
gleicher
3-22
##r-
Om
Becken.
geschl
dies
-0,
lumbale
PE
Nucleus
No
##zonen
##orie
thoraco
Abweichung
##Stenose
auszuschließen
Achse
03.1
##Lo
Parenchyms
HWS-
Ileo
89
4,3
DIP-
Längsband
##ndel
##ies
##tet
Hygrom
(2.
Voruntersuchungen,
wand
##aro
links;
Schicht
Kari
##dose
##sme
F-
aktivierte
ICB/SAB/SDH/EDH.
(z
10:
LK,
unverändert,
danach
Thyreoidektomie
##bu
hypervaskularisierte
Restharn
akzentuiert
Wandverdickungen
##dier
##rterien
12/201
##alten
US-BI-RADS
Projektionen
-dislokation
Lokale
NA
elongierte
##kum
Hepatomegalie
stabil
hepato
APF
##han
Schwindel
##-e
verschlossen
Facettengelenk
nodulären
##T,
##57
##eber
kalte
4,2
##eine
Uhr)
##tzen
##entfernung
##6.201
##ung:
##In
HWS.
##karpal
Thymus
Lebersteatose
##rzt
TPO
##ifi
##55
##.2
Oberlappen,
##olis
##ungsstörung
##/a
##biopsie
3,1
##dial
Maskierte
Suspekte
Ausgeprägtes
##:4
##Ä
Knickbildung
##/C
spezifischer
Untertunnelung
##arterielle
Mantel
##us-
kr
Tumormarker
Schilddrüsenparameter
BIRADS
Übelkeit
Bauchdecke
liquide
##ulier
Frakturen.
Erneute
##egen
Kompressions
(11:0
##mmun
Flüssigkeitskollektion
Split-Bolus
##2;
##gastral
and
##stisch
sklero
Aortenk
##ina
##bogen
##fu
##93
##letz
unvollständig
sup
Raumforderungen.
kardio
Vorbekannte
ri
2013
perivaskuläre
Subduralhämatom
PECA
##lös
zug
Sklerosierungen
##sma
##rach
##dystelektase
sag,
Tibiaplateau
##arthritis
##gew
femoral
Spa
Knochens
Orbitaboden
Extra
neo
(alle
##²
erhaltenem
Wirbelsäule:
##uskul
Nekrose
##verschluss
Nierenpol
##ertig
##syn
ischi
23.12.201
diffusen
##53
##lumen
Hirndrucks
##KM
Befundänderung:
deren
Restbrustdrüsengewebe
Ganzkörpervorrichtung
Beginn
##VIBE
##ege
irreguläre
hyperintensen
4,8
diagnostischen
Thrombe
Hernie
##nfarkt
##eta
spin
##verb
##tsch
##xa
##örner
##san
(09:5
##en-
Subluxation
##ynamik
laut
Hypert
Distorsion
##mponente
Pyle
##assoziierte
97
07/201
Sigmadivertikulose
##-Lin
(v
intraabdominellen
asymmetrische
Low-
Etwa
##nei
##lge
nas
##ssi
##positive
Flussbeschleunigung
Einsch
Fremd
arti
portae:
##tomographi
ml/
(2,
dark
Ak
inklusive
Stich
##q
nicht-
Gated
29.12.201
##strahl
##kel
Basaler
subkapsuläre
os
SL
##-Th
negativ
ä
bezüglich
Bandscheibeninterponat
##spie
rec
##nlage
##dig
infratentoriellen
Bewegungssegment
##renale
##emb
Lakunäre
vergleichen
##nse
##trig
##ieben
Schilddrüsenl
traumatische
##ew
##apsel
Korre
flächiger
##inge
Subcutisverhältnisse
max
STA
Neck
Dignität
(FT
ödematöse
NB
Aufklärung:
Mineralisationsphase
Chole
TSE-Sequenzen
Rückenschmerzen
(zu
##mmer
##orti
Knies
4,6
##mar
begleitender
heterogene
Grunderkrankung
Keilwirbelbildung
##mn
##öhe
##lige
lienalis
##rbe
sigmoideum
##meta
periprothetischen
rechts;
##sit
##idu
##arzt
Winkelergüsse
reicht
##ön
102
Schichten
##xiert
##agen
(L2
Tc-99m-M
Studie
Ambulanz
##x,
##ärzt
##unk
axillaris
femoris,
gesicherte
Autonomie
gerne
Ossikel
Aortenbogen
Histologisch
Herzkonfiguration
##psi
myokardialen
##moid
Mass
Magen-
Cerebrale
ext
Scan,
End
##romial
##hel
##eitige
Fahrrad
Fernübertragung
Crohn
##scan
Zungengrund
Schwere
Lymphknotenstationen
##pati
3D-Auswertung;
2.0
Schilddrüse,
##/R
01
perihepatische
Hyperintensität
korrespondierende
##ez
##cra
##26
##rea
Verbl
benachbarte
Röntgenthorax
pul
##verlust
Befundtext
Territorialinfarkts.
##find
##blas
Prä-OP
basilica
Aerobilie
umge
##rat
abs
BWS-
##fibro
auswärtigen
erkennbar
Schilddrüsensonographie:
##lch
Wi
selektiver
Bau
##frontal
intrao
Verplumpte
ACA
kontinuierliche
wandverdickt
(Uptakephase:
ul
Rücken
PICC-Line
Scharf
ber
Luftüberlagerungen
Knochenm
##39
Retroperitoneal
##out
##izierte
##Di
vis
bekanntes
Abs
Venöse
##skopische
tu
portal
##Szintigraphie
##lec
Aktivitätsa
##parese
Speicherung
Hinterkantenbeteiligung
##ruktur
osteop
Hydro
##nminderung
Sekretretention
Verhaltformation
Steigende
indirekte
##98
##-in
malignen
Pars
Kaliberschwankungen
Regredientes
stattgehabte
Gefäßa
Arthrodese
Abschnitten
##kk
regredientes
(0.27-4.2)
##ssä
##iell
röntgendichten
angehobener
Bullae
zweite
Bronchialkarzinom
##CP
welcher
##eter
Verteilung
##spekt
##np
##einsch
Territorialinfarkt.
Rektums
MD
##sst
##spe
rez
##the
##s-K
abgrenzen
##oi
Therapie:
##kung
Sicherung
Strukturstörung
PET-
Gas
wandverdickte
Fettgewebsimbibierung
Ans
Spinal
##orr
(01:
pleura
Subtraktions
##FSE
##zö
sept
##konkrement
##blase
Gliose
##rah
##c-
Ern
##num
##opsie
##bär
Subak
Cobb-Winkel
##Ga
##isp
Implantate
T2-S
OPS:3-8
Osteophytäre
##-Kategorie:
##CI
Leberlappens
Diffusionswichtung
sche
Hypop
##residuen
Frakturnachweis,
Gli
##pneumonie
axillär.
##brechung
Akro
(10:5
##keiten
Lin
cervikale
(16
##uma
Bar
konsolidier
Ap
##IBI
knöchern
Unregelmäßig
##thesi
handelt
Plat
##aug
Marklagerläsionen
Lawrence
randbildende
##32
wo
##m.
##kanten
##A.
##Pa
##erie
##best
Handgelenke
ili
SDS
pontin
Kontusionsherd.
Lunge,
##43
##clavi
##nbe
Kontrastmittel-
Met
##bes
Resektionsrand
##odi
Revision
Pektoralisfaszie
(Sch
neurologischen
Röntgen-Thorax
##verdächtigen
##pfanne
##erhöhung
##isierte
Kopf/
##druck
Bec
Strahl
##teilung
##eich
bestehen
##K-
##chirurgi
bilobäre
erneuter
paraaortalen
T1-TSE,
Reservoirs
##cor
parotis
##tm
RE
##eva
##Schi
signifikantes
##hä
kol
Trac
##menta
linksseitige
aktiven
RCA
Kortikale
Bedingungen,
Zahnstatus
Vgl.
MRT-VA
Reanimation
kommende
Schu
##onu
##-Fx
##iditis
Scha
Ganzaufnahme
##ulmonale
Verlaufsbeurteilung
Topogramm
Ovarialzyste
Punktionsstelle
Zurzeit
OB
Relative
##ters
Konturen
##Ze
##OF
mesenterialer
##fleckige
##chluss
##-Sequenzen
##ventrikulär
Insu
##roß
3mm
##medi
Man
relevant
Daumen
(09:4
##äch
perifokale
##TG
##-k
Herniation.
##avi
spr
AKE
##pfe
durchmessenden
Morphologie
##Im
##dra
resorbierbaren
Hypothyreose
norm
##nin
temporale
Prot
##umpf
##99
sechs
Hy
ly
demarkierenden
##ation,
rechtsseitige
##Inf
##roph
aufsteigend
Mutter
Angedeutete
con
Mor
Arc
##inzi
Hämatom,
##3.201
##parat
PRT
ipsilateralen
##LADE
paracardial
PSI
Abdominelle
altersentsprechenden
Orthotop
Arachnoidalzyste
##/K
präp
##zogen
##vic
Global
willigte
Akuter
2014
##häl
##enc
Wohl
Mündliche
##amina
Pf
I,
##üb
##stin
##ophag
##bilde
##kzipital
vorbekannte
##ola
Kniegelenkes
##achs
##/Th
Suba
Prellmarke
(t
##ständige
##erw
ICA
##/U
##sierte
Pankreask
Portreservoir,
Folge
##lter
##eis
subm
Ansch
Gemäß
Miterfasst
##mehrung
Sella
komp
Gelenkspalte
##osit
##ntrikulär
Inspirationslage
##rech
30.12.201
##kontur
##udo
basal.
Verdichtungsherde
Obst
##litis
erkennbare
Typische
##arzinom
dringend
##win
##verl
Befundverschlechterung
Hauptb
(kein
##S,
##urch
Lungenanteile
##weils
##exp
retroc
Abszessformation
gek
##ränder
Randwinkelergüsse
##tern
Hauptbronchus
##oas
portalvenösen
linksventrikuläre
##lap
1,5T
9,30
##lock
Konstantes
##verd
##metri
mal
Herdbefundes,
##ildung
Aszites.
Varus
Tx-
palmar
Oberfeld,
##perforation
##infektion
Meninge
MR-V
##75
is
Fall
Beratung
##St
##ost
Transplantatniere
##sart
bolusförmige
Wirbel
Konventionell
Retrop
Qua
atlantoaxiale
Neurokraniums.
Mark-Rinden
Ileostoma
retrocrural,
Mittelfuß
##glich
##ations
Mittellinienverlagerung.
Explantation
##-Pro
##dr
##pekt
##4.201
##Prot
Stress-Myokard-SPECT
##PD
Spektr
Sekretion
##lasie
##ear
##hs
distendierten
(je
cerebelläre
Samenbläschen
Ruhe-Myokard-SPECT
##rü
##axial
diffuser
Stress-Szintigramm
##äste
##raub
abgeflachte
Grundplatten
(Serie/Image
massiv
fib
Loc
Leberpforte
tiefer
intercondylaris
VJI,
##üsse
Bolus
##ski
##kont
mammographisch
dient
Myokardi
##form
##28
##mittel
polypöse
Thy
##pus
freien
##hes
Mammographie:
Elongation
##opathie
Toshiba),
##seits
Ganzkörperskelettdarstellung
(w
##tigen
Ruhe-Szintigramm
Abdomensonogra
wandständige
Myelom
Bed
ru
##lde
Mehrzeilen-
Malignität
präve
Stromgebiet
##mpu
Druckg
##els
onkologischen
##reck
auf,
Befundverbleib:
WK-
entsprechend.
Stellung,
Punktum
##itäts
Lufteinschluss
##mmern
aorto
Bogenovale
##gener
konventionell
Scaphoid
##ard
##ntrolle
##-Na
##AS
##spin
##kalen
sof
##oth
Retraktionsphänomen
Einzel
##achung
deutlichem
aufsitzend
(o
##41
maximaler
MRT-Voruntersuchung
periostale
##iehung
neurovaskulären
LTX,
offen,
Sakr
##Do
##Sa
Kompressionsfraktur
Ben
sagittalen
kontinuierlich
heterogen-dichte
Mittelfeld,
Beweg
##ros
P2
##gebung
weichteildichte
begleitenden
Schwiele
Rekt
##öge
##anh
sodass
erh
Achsgerechte
##ulären
verzögerte
Befundkonstanz:
8,5
Nadel
##mastie
##dient
Struktur:
##yem
##nce
##erkrankung
histologisch
OLT
##ütz
##y-
Lockerungssaum
Ange
##-FS
##yg
Organe.
##ücken
##omegalie
##isation
EPI-DWI
##oni
Infektparameter
##höhe
20,
spe
Apikale
(11:1
##anal
Noduli
Nacht
Resorption
##szinti
ve
##chraube
##neumo
Informationen
##c.
Go
##44
##konglomerat
0,75
humer
ambulanten
##sicht
ausreichende
Gelenkk
Aortenbogens
(f
Umbau
Reze
Quantifizierung
Gegenseite
##fra
corti
Morgen
Abszess?
li,
analog
Emp
Liegende
Für
Luftb
III,
##hora
farb
Befundes
cu
SH
##-Ver
jodhaltigem
Brustdrüsengewebe
MRT:
sin
bewe
Wieder
Stanz
##gli
##forder
##7.201
Palpation,
##ins
##stel
Opti
Glei
##bei
##mme
Scapula
Karotis
erfasste
Gesamt-DLP:
##chicht
##richt
175
(u
##adiog
spinalen
##ometrie
gewichtete
Sy
maxillaris,
inhomogenes
3-05x
##83
Gefäßk
Schilddrüsenmedikation
antegraden
Leuko
##raumforderung
##OM
s.o.;
##mod
##eus
beiderseits
Colitis
Chronischer
Zugang
Late
FG
##gewicht
myokardiale
generalisierte
epileptische
Stammganglien,
Änderung
abl
##cker
##sik
##erde
perifokales
echoarm,
Fort
##59
##utis
##i,
jodhaltigen
ents
Knochenfragment
(ve
Schultergürtel
Extraktion
quantitative
Größenzunahme
Knotens
Hyperplasie
##WS
gesch
Kan
Ausziehung
##otide
Gesamtvolumen:
insulär
Tibiakopf
Conus
Anterolisthese
##grund
Außen
##ffine
pelvinen
Gle
##luc
HzR
spi
präsakral
##zende
Vertebral
Verf
Her
##lagert
##dal
##hochstand
cm/s;
Spitzenlage
Emb
##E-
##9.201
we
intraartikuläre
##mun
##ektas
Lungengefäße
##-Rez
absolute
iliakale
Peripherie
laborchemisch
Post-OP
(ml/min)/1,73
Lymphknotenmetastase
hera
Durchbauung
var
seine
Malignes
##sklerose
latente
Entleerung
Volumenbelastung
##-Au
##42
CABG
(ml
Vorges
##siche
##nö
vorbestehende
##aht
##tändige
peria
TE
verbesserte
ISG-
Vorbestehend
Trop
KM-a
Hypertension
##ilia
##lm
##condyl
statische
anliegend
##zentrum
Oberbauch,
Hämatom.
##lr
subclavia,
##gas
Untersuchungstechnik
Luftnot
Gefäßabbr
##hand
##aktion
iliakalen
Sonografi
##treten
Korrektur
E0
Cla
##fizier
interaortocaval
Papill
intraspinale
Schilddrüsenhormon
Biplanare
##port
hö
Fac
##rv
##.4
Oli
##enan
regredient,
medialseitig
Weitgehende
Neuroforamens
Frage:
Archiv,
12.1
/-
##Gr
##hysem
Parkinson
101
##abg
Ze
Tagen,
T2w,
parapelvine
verläuft
EKG
##sternal
Reaktion
##-fl
##zündlich
##täre
(unter
intrak
##störung,
Fas
dia
ar
##rven
FF
akzessorische
FDG
##36
vol
Claviculafraktur
geschlossenes
außen,
Ven
Fissur
geringere
##EP
emp
##alig
Stoma
##kan
##Technik
geplant
Hypophysen
##stal
osteosynthetischer
erscheinenden
##öh
Nitro
##Te
rechtzeitig
##hyreote
cavoatrialen
Jahre,
Zähne
cGy
Lei
##erin
Schilddrüsens
Perfusionss
Leber-
Zysten,
##uck
##atin
dynamischer
##RADS
##stützte
##ventrikuläre
unter:
Marklagers
##chlich
bullöse
Radi
##rdi
##typisch
Rindenband
##56
Cav
Wiederauf
Sero
kortikaler
##sartefakte
Teilweise
Bulls
Altersnorm
cost
##pel
hypoechogene
Mil
Sulcus
##kardi
adjuvante
Seitena
##ittel
##störungen
orientierenden
##rigierte
##5.201
SAP
103
Stoffwechsel
Tonsillen
##röße
Eye
5,3
##fal
Empfehlung
##/N
ubiquitär
parakardial
inkl.
Mesenterial,
Magenk
Akutes
Gesichtschädel
##udi
papilläre
##dic
##ys
##koll
##spira
Laterales
heterotope
Coxa
##/-
##hor
Degenerationen
(h
##pitze
Hyperperfusion
##kern
wirk
Fo
##ähr
Prall
##zinom
beträgt:
##ämangiom
##oronar
##g-
##phon
reduziert
Reflux
lotgerechte
Zuletzt
Primär
Formationen
##fil
17,00
##rag
dedizierter
##:5
harmonische
TOF-MRA
Anterolisthesis
schwach
##ami
##yel
terminalen
##bin
Tend
Dick-
Haus
Lateral
##nic
##hnt
Spl
Infarktareal
Birads-Kategorie:
zementierter
(11:3
##TE
fleckig
A1
Fettgewebs
##ulmonal
##kannt
rep
130
Dupl
planaren
##RE
##fferenz
4,40
##IN
##rvi
auffällige
Gegebenenfalls
##-Si
perifokalem
##68
ICD10:
Bildkopien
##onale
##nm
medialer
Rückfragen
Einsehbar
ex.
##üle
Medulla
vert
minder
Hämatothorax,
Hypophyse
Bildfusion
cm.
Flow
Abschließend
##iasis
(Norm:
##nkt
dig
Struktur,
Signala
Ganzkörper-S
Familie
##git
halbaxial
Akt
visuellen
internus
Wächterlymphknoten
Atrophe
##pon
##46
kleinerer
Peritoneal
##-En
Einblutungen
##mpf
Thrombus,
##ossen
##off
##nkung
fort
PIC
verschie
entleert,
##lichkeit
##bestimmung
Gallenblasenbett
dünn
##tlich
neuaufgetretene
Händen
(Mutter
##.3
Splenektomie
rand
Weichteilmantel:
Hüftgelenken
malignomsuspekte
lumbosakralen
##ctor
9mm
Vorderkante
##ephr
Überb
Tibiaplateaus
Hepatisch
Aufnahmetechnik,
##m/
##ink
radial
Kyphosierung
Erbrechen
J.
umgeben
Leeraufnahme
##-c
##oss
Seitensymmetrisch
Demonstration:
HIV
Gerlach
##Bi
##ali
subt
Verdichtungsfigur
Rinden
Mot
Gelenkerguss
ECMO
##vermehrung
Rückläufige
Pleuraschwiele
(11:2
##ier
int
##uert
##entzündliche
##bg
13.1
Hodgkin
Knochenaspekt
##neur
Anforderung,
Stenosierungen
##bla
VCS,
##inal
##enb
##Pouch
##zintigra
##angio
Atlanto
5,6
Genese.
intra-/extrahepatische
durchgreifender
Unmittelbar
hintere
Paro
Lockerungszeichen.
Cor
parieto
Aortenaneurysma
Tab
##mma
##ief
Fingergelenke
##nia
inc
gestützte
##mpo
hinaus:
geplante
T1-SE,
gegeben
##ration
##zit
Lebermetastase
schw
Behandlung
##48
Schnittbildgebung
Abszess,
Retention
Kontrolluntersuchungen
Komple
##kter
Pleura-
Entzündungs
normkalibrig
emphysematöse
Schulter-
größeren,
##xische
initial
Positronenemissionstomographie
restliche
##les
ratio
Hirnve
Grad,
Beckenskelett
##tero
##carpal
##-Stenose
##av
##reo
##ondyl
##enf
Verlaufs
ionisierender
erschwerte
Vaskul
physiologischer
Cavum
##nommen
Knochenmarksignal
diagnostische
##atellar
parafalzin
mGycm
5,2
##tial
##dro
monophasische
##ffen
250
Rel
Kri
Kontrollaufnahme
Absprache
##6-
größenprogredienter
(MR
##rif
abgebildete
HS
##ssa
Randbereich
Erbrechen,
scha
(HTQ
##rani
Subclaviakatheter
##sthesi
##figuration
subdiaphragmal
##heb
Mittellinien
(nach
Persistierende
runde
Leberteilresektion
##orektale
postoperativer
Athero
Adaptation
##suffizienz
##llte
Pre
orientierend
##trum
Ok
##rig
Genese,
VB
AV-Fistel
##dislo
komplikationslose,
Mut
##sig
##orax
##hma
neurologischer
##ähte
##Verla
##ingt
Ch
##ogi
SSW
ter
DP
inkrement
Cholangi
rheumatoiden
##bend
##a.
komprimiert
##wandige
##hunt
reaktiv.
Rands
3-900
##situation
##parenchym
##infiltration
##imm
##siti
##gest
##angs
Herdbefundes
Schleimhautschwellungen,
##beu
perihiläre
verdächtig
unregelmäßig
Mittelständiges
Lungenrundherde
Ebenso
Thorako
##pto
##mehr
Pleuras
Lymphknoten:
##lten
##phyt
Post-
180
retrokardial
##ssehne
Divertikulose
##rück
verplumpt
Hüfte:
BE-OP
##weichung
##pal
Lückengebi
##%)
Absprengung
##spondierend
Saug-Spül-Drainage
Wu
Temporal
MedVision
Lob
Kontrastmittela
Innere
Herzschrittmacher
##indi
kleinfleckige
Synkope
##phasisch
Zentimeter
Cutis
##abi
Anatomi
kalibers
T2*,
##rkung
##hiert
Verkehrsunfall
Fehlende
##ruente
##grad
##NH
lakunärer
fra
Grob
##-MS
##eiche
##sor
seitensymmetrisch
##le-
##oze
SSS
frische,
Diabetes
##rate
Äste
Geringgradig
son
pertrochantäre
Schwe
##47
##54
##-Sta
konventionell-radiographischen
##IF
Konnektierung
Kol
sklerosierte
fest
diesbezüglich
Hemikolektomie
verg
Hauptstamm
##1.0
supraklavikulär
positivem
##vision
(be
##karzinom,
##hemisphär
interstitiellen
Wirbelkörpers
##/s
##humeral
##erk
ACI-
Rückenm
##ädi
##-re
##dar
Spondylodiszitis
Ergänzende
120ml
##plant
abgelehnt
##lot
##iene
##erat
primäre
Teile
Raumes
##seite
Pr
singuläre
SI
##Vor
Krebsnachsorge/-behandlung
Koronare
persönlich
med
Transparenzminderungen
Fokussuche
##krea
viel
##29
##V.
##ille
Drüsen
Inse
hilusnah
Prothese
Ausl
##/recht
Pun
HWK4
RF?
##tura
ist,
Lungena
infrarenalen
T1-gewichteten
Kei
##dichtung
m.
Patient:
##terna
gluteal
##0m
2007
##sektion
##inf
##malige
HT
relativer
##itu
uteri
##8.201
Rötung
technisch
Ihnen
Darstellung,
##einbr
plötzlich
Absch
##/8
##cale
steriles
MP
##lip
##hte
angef
abgek
PD-
##tehend
coron
nächste
Entlang
Zi
Ili
mikro
Lockerungszeichen
konnektierte
benigne;
Lip
64-Zeilen
##rtefakte
Ampu
##nitt
##iod
WK
TSH-Wert
Radiojod
01.01.201
##fla
simultaner
Nuklida
##korrektur
Vorbereitung
##Er
##kompression
radiologisch
halbe
rectus
PJ
Flächendosisprodukt
##ürd
Vergrößerung
##rsal
Risiko-
Brustkrebs
##lation
KM-Anreicherung
infratentoriell
eingesetzt
##E,
##sitis
##lagerung
##gem
##:3
##pulmonale
##insel
sig
darunter
Emboli
##uppe
##ensive
Milzl
fla
'
##mber
lobuliertes
nuchal
Unspezifische
EPI
##konstante
Fleck
CT-gestütztes
Als
##2009:
##ahl
##-Gabe
##rguss
##rimier
3,9
3)
##zephalo
konkrement
##TA
Schnitt
Hirnstamms
##ion,
##deck
Rotations
KV
flüssigkeits
##mas
stärker
##riu
##zifi
##sal
radi
Infiltrates
Beckenorgane
Perih
RC
ho
##iede
SPECT-CT
##ON
erhebliche
Becken-
zement
eingestauchte
Sakroiliakalgelenk
verm
##ova
Bronchitis
##dicke
ROI
##usb
Listhese
##thetisch
##tele
osteolytischen
(Be
Substrat
Besserung
subk
Cr
14.1
##skeletts
##prot
##kalkung
##nten
##algelenk
Mediastinalverbreiterung
4-6
Ventrikelweite
##muster
hyperdensen
Tan
S8
Notfallindikation
Min
schlechter
regulär
median
GE
##umi
suba
##-Implantation
Wah
Autoimmunthyreo
##SE
Gelenksspalt
##Kontrolle
##net
Blutdruck
##kri
##keit,
(09:3
Thorax-
Phänomene
##itale
subkortikale
Flankenschmerz
##katheters
##einlage
Retraktion
##BS
##chosequenz
Hö
##rvat
##zel
##oe
MHz,
MR-BI-RADS-Kategorie:
19,
##ress
Mamma-Doppelspule;
Hirna
Halsgefäßen
##-Lymphom
##ärt
min)
Zwerchfellkuppe
##ierbar
Spina
signala
##fälle
Arterie
##-6
Aktivitätsm
##³
##chr
hypointens
Mehrzeilen-Spiraltechnik
Liquoraufstau
LWK3/4
Geb
##iale
Schmerzanamnese
Mögliche
##nger
##lg
falls
##tw
PC
Pen
##abstand
aufliegendes
Großer
Aortenklappen
##leich
##nechosequenz
##gati
zumindest
Leuk
##nod
Sehnen
starker
Manifestationen
104
Weber
##b.
periartikulären
##fikation
Wandveränderungen
10/1
##4.2
tr
##-0,
Jedoch
mikrobiologische
(hier
Nierenvene
18.1
perkutane
5,4
##-Clearance
bil
MR-tomographische
##49
##lenk
Fremdmaterial:
OPTG:
Dickdarms
##isk
hämorrhagische
disloziert
##51
##konst
atheromatöse
alten
(Version
erscheinender
##zeichen,
##wegs
erg
of
prominent
(S4
zentral,
wahrscheinlich;
##sches
Knochende
##lio
VP
Is
retroperitonealer
fluid
VFC
Kontrastmittelanreicherung
##-AK
geringfügig
central
Mediainfarkt
Femur,
##ndu
##lass
##ehend
##duzier
osteoblastische
einige
Schla
##:30
grenzwertige
Hinterkantenalignment
Abst
##'sche
(02:
Spätphase
##I,
##opp
hinweisend
##O-
Kiefergelenk
##inom
##enk
Pseudarthrose
Cerebr
vermindert
Parenchymb
Gen
chirurgische
Defektareale
##ungskorr
zerebellär
soll
##-di
##osa
3-752.0;
3-4
3-Tesla-MRT
10/
ti
Schwa
minimal-invasive-ambulanz@charite.de
##abgangs
Basedow
##ält
Schaftbreite
verschiedener
Materiallage,
Intensivierte
Darma
##z,
##igu
Irregul
IV,
##zuordn
ml;
unregelmäßige
Scout.
Duodenal
##web
##ränkung
Teilresektion
##liegende
prävertebraler
##fehlstellung
##cinom
##V:
Reg
Einst
Abgeflachte
##wart
verminderter
Hydroze
Flusssignal
##RA
Gefäßs
##änz
##üng
##ektive
##bek
Residuum
##ype
##atorisch
Nebenwirkungen
Cross
Ausr
##5-
(12:0
##Phasen
##G-
##verschmälerung
verschmälerte
Bull
##infiltrat
##erien
Methodik
##vern
##gula
VICRYL)
Kombination
erwogen
Ring
Lotrechte
##kamm
##ita
##dese
langfristigen
MW
##S-
##ormität
##kardiale
Schwäche
Parenchyma
##5.0
Stand
Exstirpation
##laterale
##fibular
kontralateral
##CS
##lte
##M-
cm;
Brovia
mammae
##ung)
Signalintensität
##lumige
Milchglas
(Po
##ätz
##implantation
##tze
##fraktur,
symptomorientierter
kurzfristige
Unterfelder
##phänomen
##nelle
##bezogene
Schulters
Raumebenen
##bildungen
präoperativen
Epiphys
4/5,
##rgane
Osteos
Fabella
septierte
Schlag
dichter
Kopfs
Perfusion,
Splenomegalie,
##ufe
Pedikel
##initi
##bschnitte
Corona
Proximale
setzen,
EKG-
beurteilbar:
##C-
##skelett
##här
##fig
dorsobasale
##kalzi
Anä
##komp
##xon
temporalis
nachge
schon
Schambeinast
Sanier
Bauchaort
unterer
akzentuierten
Leberf
##ino
messende,
echoreichen
planare
Serienangiographien
##ball
Hirnparenchyms
Flüssigkeitsspiegel
##ital
##rsa
cerebralen
%)
##speicher
##Se
##bula
bisher
##MS
##-su
##ndig
frisches
Regadenoson
entleert
##mose
Mamma-CA
##these
##nb
For
##En
##ndl
Infarktfrühzeichen.
Präoperativer
intraluminalen
##nze
T1w,
##-Te
lokalisierte
Int
USG
Ps
Disk
##pit
AI
Halbwert
regressiv
Leberläsionen,
PIP-Gelenk
##til
##morphe
inte
##idal
scheint
4)
##uda
##einl
atemabhängigen
frontales
##nöse
Achsen
##pneu
##omen
kraniale
Dou
##bra
Superinfektion
2.1
##noch
Stenosen,
Nabel
mikroangiopathisch
##fern
DLS
##P,
umgeschlagen
Mehrsegmentale
##Fragestellung
Pleur
##weg
a.e
Fur
Befunderstellung
##sre
Subkutane
Überprüfung
Flusssignale
Epilep
##ance
Knötchen
##TX
##x6
korrelierend
##schra
ersch
##Befund
Normalgroße
##miss
##inbar
Kraniotomie
Filia
##transplantation
##lini
Pero
1:
##sichtlich
Ferguson
##ventral
##noe
Car
##urt
parallel
##IT
Lasix
Diver
##inhal
Organs
##entr
##uche
##tont
Artefakten
Randsaum
Dis
knotigen
Mediastinalshift
ergab
##bronchi
intrazerebrale
Parenchymechogenität,
##-Arthrose
##iges
##saufnahme
##erz
##sent
##krani
##tion,
##duodenal
##teils
RG
Mediastinums
##femoral
Gammanagel
##pektor
Nachinjektion
##ech
Chia
##sbi
##imal
10x
organüberschreitende
##lig
korre
01.05.201
##-Bi
##enen
##ziehung
Ossa
##K,
##aktive
fibularis
do
Marklagerveränderungen
intermittierend
Geschehen
Flash
Hysterektomie
##.a.
Ole
##Schleuse,
##lippe
anti
CT-A
##inat
##flex
Par
spondylophytären
##dn
Druckverband
##CE
mesen
Zunehmender
##leber
Fra
DWI-
##ängige
Mineralisation
MRT-V
##xima
##dysp
##nd,
mittelständiges,
##tenos
##nver
##nreichernde
##hig
zugunsten
einigen
##rost
paraaxial
##/k
##fekt
BS-
met
##hmus
Verdrehte
##ünnung
Knochenstoffwechsel
4a
Sterno
Lipo
##FLAIR
##veol
##eriert
thora
Terminvereinbarung
Bip
2015
##agi
Bildmorphologisch
##usp
radio
Eva
Spondylolisthesis
mediolateral
ind
Nov
##wärt
##ja
##inhomogenitäten
##sol
21.1
##nome
##drom
nu
dent
3T.
systemische
gelenkgerechte
Malignitäts
Dichteanhebung
Zart
suprap
##titis
Lungengerüst
MRT-Untersuchung
sichtbare
##media
Osteom
intraa
##sab
ku
intrakraniell
Super
Duschpflasters
##unt
##ffe
##Dichte
mono
Fil
Schr
Ci
interaortokaval
##strom
Retropatellararthrose
##2/
normales
##räum
##endes
Während
Befundbesserung
##nhe
ventral,
coronar;
##nä
##gmental
Proc
##La
hemisphäriell
Pharynx
Sarkoidose
EKG-Registrierung
##Sta
##pill
lobuliert,
Ums
Intensi
Kalzi
TIPS
##ruktion
##apt
Kardiomegalie
##-Fl
Seh
axilläre,
##ira
verlauf
##rezidiv
##Cl
Fernmetastas
##ektiv
gefangene
Win
Bauchwandhernie
##inlage
(soweit
Kreislauf
##ysti
##befunde
Weichgewebs
13.
##segment
normoreflexiv
P1
Ganzkörperszintigra
Coiling
großem
Portionierte
Ausw
##chri
parailiacal
##AG
##sehen
##metrie
vertebr
Schwerpunkt
Harnblase,
##dierte
Reti
Prostata-
##progredien
##öch
cer
postero
##xo
rückläufig
richtungweisende
##94
##ephal
Schädelbasis,
##hypo
##esie
verdrehter
##-b
zw
UA
Monate
NTX,
KM-Instillation
MCA-Teilinfarkt
Hochfeld-MRT
##lateralen
Übelkeit,
morphologische
##mbran
intraven
107
Vor-CT
(Bi
(11:4
##orme
##ilde
Visu
Retrograde
OL-
NW
Spinalkanüle
Septe
ML-
Aggregat
Laborchemisch
##aste
dritten
def
Instabilität
##oco
atroph
##gen,
solitäre
Gegenphase
##qu
Hormonelle
Lymphozele
Lockerungszeichen,
Lebertransplantates
Kalzifikationen
(g
Costae
##stum
##erenz
##BW
##knochen
##icus
ple
hyperperfundierte
Torsionsskoliose
ums
haben
##ischämi
##index
Leberparenchyms
Atemmodulierter
LV-E
masto
(PET/CT)
##dest
tastbare
##maliger
##scheide
##schrauben
##pomat
##onst
was
Lungenh
Interventions
Bil
(I
##ndr
Stro
##sth
kontrastmittela
##stem
Apex
ausgeprägtem
residuell
Minuten,
##123
##opti
PSMA-
Nr.
##uter
##arka
Kontrast
##mut
##hirn
Mitbe
Gelenkspaltverschmälerung,
multinodosa
##hältnis
einmal
##entu
K-Dr
Dual
##mbolis
hyperintenses
Ports
abszess
9,3
1.1
Uterus:
##-typische
##thy
natives
dezent
Knochenmarks
##99m
retrok
##for
Lungenlazeration.
##on,
##lik
##ober
nativ,
##oral
fo
Intravenöse
FAI
##mbulanz
##bstr
Zwerchfells
Beu
MM
radiodense
KM-Aufnahme
Einliegender
##nsp
Septi
##uten
Außerdem
##/Sch
ink
Laborkontrolle
##-Hyp
Ausstrahlung
##amp
aneurysmatische
Lungenperfusionsszintigraphie
##rrho
##iente
(11:5
Hüft-
Paravasat
##signal
##isti
apikal,
Dieser
##ulitis
unspezifisch
Fehlhaltung
(Schädelbasis
##culär
inv
dopplersonographisch
Lungenfibrose
Fibulafraktur
Adenokarzinom
(an
##stamm
##redien
achsgerechte
IVb
Adnexe
##ßt
##zeitig
zirka
sonografisch
##org
(L1
Tubusspitze
baso
(Grad
##mentierte
##ändert
##/Becken
rundlichen
Sepsis
##besonder
ausgesch
Arthrose?
##ult
##extr
kompens
dorsolaterale
##chwe
##erla
Schild
##bbe
lobulierte
ausführliche
Teilatelektase
(se
##stitut
Nervenwurzeln
##nam
##algie
ra
##homogen
##beha
##schi
##gl.
##ZINTIGRAPHIE
(Klinisch
##95
3036
schwie
##äge
##ichtung
##rusion
##erd
Femurkopfes
inguinaler
zirku
##ER
cm²,
##arthrosis
Malignoms
##stieg
Dann
##peration
##alls
Anti
AZ
##reste
##organ
L4/5
1/
50m
##änger
beurteil
Spondylophyt
##Sy
steil
##nha
##lam
Mamille
parietooccipital
Pulmonalarterien
##rotation
(An
(Segment
Retroperitoneum
Kortexband
vergleichbaren
FX
internae
Transparenz
TIRM-
##ähe
intrakavitärer
Medi
##snah
Phle
##ichts
##einengung
Nuklearmedizinischen
BWK11
##stie
benignem
##luminal
##öschung
##mitt
subchondralen
Stauungs
Manu
Artefakt
##nig
##.7
##infarkte
##stan
##dont
Quer
Signalabsenkung
Gefäßvers
Chron
##puter
##tellung
##lang
verb
an,
##ragma
##prechung
Epiphysenfuge
Cholecyst
##mitte
Centrum
##58
(ER
Bülau-Drainage
4,1
##sill
##rth
nekrotische
Liegendaufnahme
##ularis
hierzu
Pericarderguss
Nasenbeinfraktur
Zentrum
Samenblasen
Myom
106
##fa
##hep
leber
Restliche
Muskulatur
Prolaps
##nahen
Ruhezeit
Marklager,
##ular
##kontrastier
größenkonstanter
erw
##PET
##affe
symmetrischer
Extubation
Aphasie
##end,
Ausriss
Anb
##reifend
Vereinzelt
##/LW
##cromial
florides
allogener
##py
Symp
##AD
##orene
##atus
Maximal
##haus
unterschied
##ürft
Millimetern
Karzinom:
3-6
Zweitmalignom
Nierenfunktion
Lokalisationsscans
9,5
imm
##likation
Platte
Ovarialkarzinom
Mediale
##-Kl
Konsolidierungen
Hohl
##DH
schr
Hemisphäre
##ahren
dafür
##tras
ME
Korp
##tzt
TcTU
##typischen
##schli
subtotaler
lä
##Dar
##CA-
##sode
Scheitel
Rege
##CL
##führt
periapikale
Reste
##schämie
Sondenspitze
##Hals
##ito
##artikul
kn
DSA
striat
Intrakranielle
minor
Rhizarthrose
Fettl
##parietal
##hase
##führ
Untersuchungstag:
Ob
Offene
parietal,
##Fa
##bronch
##ifest
##gangen
Periventrikuläre
Carpus,
invers
Spondyl
Mikrokatheter
Syndesmophyten
Vert
Axi
##thora
Ank
##ax
rechtsbetont
Leberp
##fst
imponierenden
bildgebender
plat
Prozesse
Aussparung
##ürzt
##sn
spät
##weisen
##uc
##reicher
5,7
##trukturen
Einschätzung:
Cis
Nierenzellkarzinom
Sternotomie
Kontra
Erosion
SRS
##hst
subc
(0,
##arkier
leer
140
##cend
##schä
Meni
HL
##ufskontrolle
vaskuläre
Tumorrezidiv
Anfall
supraclaviculär
lu
erb
##ista
Py
3-222
subo
Breitbasig
strukturelle
dist
Flex
Rundherden
##schwi
Lungenunter
Mäßiger
Resistance-Index
Rh
10-
orbit
Erhöhung
Kalibersprung
Ischämien
##lzyste
##groß
T1-FLASH
Cardi
verkalktes
Pulmonalven
##uken
ACG-
älter
rh
Deformier
##glei
jugular
##AC
Thoraxa
Bur
##lp
##fas
(da
unklarem
Luxation.
##Fu
perifokalen
##echt
##bier
##Untersuchung
##-Ko
Tumorn
##tiert
Bef
##renzen
##inne
(In
##terial
R0
Zwerchfellbuckel
behandel
Mehrzeilenspiraltechnik
palli
Def
Begleitend
PICA-
##differenzierung
fronto-
Mastoidalzellen
##orts
##abul
apiko
CTA:
##ziell
##bauch
Kopfschmerzen,
##artefakte
Mann
##nnt
##entie
T2-H
tauglich
##9.0
zweiten
aufliegend
Rö-
##sstell
##yk
3D-T
##vit
##reichen
##chro
Port-
Inhomogen
##kalkte
Den
##transport
##enale
##deviation
##SPECT
##isl
anteriore
DWI/ADC
12mm
##chla
generalisierten
AN
MRCP
Mammakarzinoms
##urchmesser
##eisung
TIPSS
Harnstau?
8-Zeilen-CT
semiovale
grobe
TBC
Dent
##/e
##yo
##reichernde
Abschluss
pel
pat
Weichteild
Befundübermittlung
spontan
Zielregion
Versuch
Hüfts
Calci
##thet
##üllt
##spl
##h-
längliche
VA,
MCP-
##LWK
OPS:3-22
##ringe
PICC-
Arthritische
##sbed
##asto
Lakune
##zep
##ind
Spät
(keine
Ödem,
OPS:3-225;
vorbe
gesichertes
##crani
All
T1-gewichteter
Periartikuläre
##Th
##kav
Verminderte
##/B
symp
Nebenschilddrüsen
Handskelett
Ort
##ental
Sludge
Computertechnische
Virchow
##anom
Flanke
##äs
vidit:
CT-Voruntersuchung
##sd
sein
distendierte
PR
Fr.
##ux
Pers
##bige
Flüss
Imp
vergrößert.
progredientes
##sak
koronale
##üll
##df
Magn
##-0,7
##atöse
Flüssigkeitss
##fli
Alternativen
G2
Achsabweichung
##-CT-Untersuchung
##äle
##col
CF
##B.
Abkippung
##merz
##uta
extrakraniell
##Kn
portalen
(12:1
##-h
brachi
Begleitende
##utan
##gier
Leukencephalopathie
Fersensporn
4,9
Gelenkbeteiligung
ovale
Linksbetont
Dissektionen
##oo
gestü
Plaquebesatz
##domen
Beckenübersicht,
Aniso
##zeß
Umgebung
##asal
##LA
iv
(post
verkalk
suprakarinal
##stati
##haft
##aka
##B-
Ga68-
##nos
##sul
T1-W
Mitt
##edi
OPS:3-
Leberlappen,
##diap
##metabol
Zentri
Sentinel
ähnliche
##eiben
##uli
ml/m²
malignitätsverdächtige
stern
raumfordernder
##oti
Tro
Segmentarterie
Oberschenkels
##zentrische
##oz
##orische
##n/
Ov
angedeuteter
unserer
##ome
aufgebaute
Gallenwege:
Tel.
##reitung
##bulär
##spinatus
##oidal
Dichtewerten
##sein
##phar
##grade
##bef
präs
postspezifische
perikardiale
##usd
##olo
##hancement
##ferenz
Enthesiopathie
super
##liert
##trat
pAVK
fehlenden
##töse
##tati
Weiterer
Hochrisiko
Ganzkörperaufnahmen
Gallengangs
##atum
XG
AP-
##Ganzkö
##physen
##fokal
präpe
##tb
##schaden
intrazerebralen
mögliches
##pid
pulmonalarterieller
Prozedere:
##stomie
DCIS
##olut
Patho
val
Spitzenp
842
warme
Erguss.
Sekundär
L5/S1
Konfluierende
Crani
VH
Exa
konturbildende
hinter
Not
##bliche
Zeitgerechte
Kreatinin
##atose
##arinal
Verfettung
Mis
Auswurf
##ibi
Übersichts
Ablations
##verdichtung
##mato
ehemal
Funktionsan
besonders
M2-
fehlendem
##otomie
Sche
##tliche
arterio
##pha
##my
Beins
Lungensegment
Desweiteren
posts
durchsetzt
Supraspinatussehne
rechtsbetonte
pass
##-n
subcutan
Leistungen
ged
Tracheostoma
Gynäko
##öffn
##ndung
##last
##kranie
BR
Durchmesser)
##falls
##uret
Wert
Fahrradsturz
##ypass
TI
koronal
##1/
##en)
atemmodulierten
Patientin:
zeitgleich
wirsungianus
112
Sarkom
Humerusschaft
##äll
##etzung
posttherapeutisch
stre
##ämato
##nü
Pfannendach
Ausbreitung
eng
##lun
##rücke
zunehmenden
pal
Zervix
Gastrektomie
##rp
BA
operativ
BWK1
##übers
##usl
Streifen
Ferner
genannte
Ileus?
Disko
Abgrenz
##bie
##beteiligung
spezifischen
AFP
(ko
##Gebiet
##0.0
##/b
Xen
##wick
##romio
Herzkontur
Ersch
Disseminierte
11mm
##ntro
Tubus,
Relativ
##bilität
vermehrtes
komplizierte
2006
14.
##segmental
##olische
Lokalisationen:
An:
##FP-CIT
##-r
dist.
keinen
Zyste,
Frakturen,
Weichteilen
8445
geh
nasal
Aussch
kodierbaren
##Drainage
##opl
(W
Durchgängige
##reale
ödema
konfigurierte,
ausführlicher
##ptake
##/c
subl
geste
folg
Untersuchungsbedingungen:
Krankenkasse
Fibroadenome
##99m-M
bekannt,
Laut
##otal
mehrs
##lage,
Peria
infrak
dichten
heterogen
EVD
Herzr
5,8
##rtet
##hiläre
gewechselt
Infusio
ml/m
gewe
Kutisverdickung
##Photon-Emissionscomputertomographie
##eig
##atr
2005
##pira
einliegend
Glukose
Binnenmuster
##lungen
schli
dorsobasalen
Herze
Anme
auswärtige
Et
##anreicherung
HK
intermedi
##gri
WS-
Magenh
luft
10,5
##splen
##nflutung
reiz
Striat
Ebenen:
Ärztin
##ultes
Werte
Markr
##inger
##bfluss
Bupivacain
Bettruhe
Atema
##a)
##ologie
CT-Angiographie:
##ntr
dystelektatische
Cam
streifigen
ACVB
##rekonstruktion
##onf
##chb
##arzer
subkapitale
Kost
Präparat
schallauslöschende
s.
fr
##sphä
T2w/
Remission
Richtung
Echogenität,
##trak
Rezidivs
Leberrand
Fußwurzel
tendenziell
Spätaufnahmen
Cl
##irbel
durchgehend
##ardi
my
Rückzug
20.
##klerosier
##chemi
zusätzlicher
##ktasien
Bronch
Astrozytom
(09:2
Groß-
##ey
Pert
-lockerung
##medial
##in-
##asp
Scho
AC-Gelenks
##luß
Nar
HW
Collum
retrocrural
Kurzachsendurchmesser
##nitten
½
malignomtypische
kortikal
##Ap
Rechtsseitige
M1-
##nab
Hepatitis
Stent-
##ündung
##divertikel
Lokalisationen
kleinster
fünf
##stein
##mmen
rot
(Fr
PSA-
##lomerat
3x
##operation
##x)
höc
##obi
transversaler
supras
strukturverändert
Pankreaskopfes
KM-aufnehmende
07/
##ovale
Gastrointestinaltrakt
Bekannt
Wundverschluß
Lungenflügel
##zunahme
##äne
##spitzen
reichende
Ossifikation
##.2009
##hlen
prop
##orpus
vergleich
Abd
##bog
röntgendichter
mitt
Laterale
##umba
korrekter
vorher
Listhesis
Atrium
statisch
Kalotten
##lobuläres
##hung
Generalisierte
##-Sonde
radialis
plattenosteosynthetischer
the
Cortexband
Multiples
mamm
a.p.
Magen,
Ventro
AZ-
Größenkonstanter
Colonrahmen
##sklerotische
##rt,
##gelenks
##allen
Weich
Metalla
##phag
zweimal
Infarkt.
echogene
RR
Verg
Arealen
##opathische
Lungenkreislauf,
240
lat
##lamin
Glu
Append
##differenz
manifeste
Kategorie:
##0;
lun
##Q
##vin
##meter
##hörner
juxta
Multislice
Leberr
##uktion
##ubiert
##norpel
NBKS,
##eolär
Leberflusswerte:
##-pro
##nv
##vesikal
##traße
periprostatischen,
##rotisch
##ebung
tibia
(S1
Histo
mess
Implant
Differenzierbarkeit
Corti
##gens
terminale
Seitendifferenz,
Passagestörung
Bandscheibenfächer
##piel
zahlreiche
##uchte
##orale
kavernöse
Röntgenaufnahmen
(Ge
##bibier
posti
Unterlappena
##-suspekter
retropatellar
Tibia,
##bal
##skop
##rurg
3-99
(normal
##kopi
##is.
##hondral
keilförmige
-2,
##äss
Intima-Media-Komplex
Tumoranteil
##ole
##ache
##korr
##ega
reichend,
Skleroseinsel
ICR
##sklerosier
Degen
##neus
Traumafolgen.
Kardiale
Bra
##olp
Schwi
Gehörgang
subcap
habe
vorbekannten
postt
##chenke
regelmäßige
SPACE
Apople
zystoiden
15-80
##2m
Formalin
##Art
##nehmen
##etat
Nephrolithiasis
tibialen
Portimplantation,
##/201
vierten
##ator
0,65
##sunter
##ortale
arteria
anderer
##ert,
Stamm
Retina
hypermetabole
Hämatosinus
ausgeprägtes
Aplas
303
##stol
##pple
15.
##vikal
zementierte
externes
##dige
Bas
(Ima
##zir
##heil
Einsatz
##hisch
TA
Hygroms
198
Verkalkungen,
##-Untersuchung
konstanten
infero
BDA
Arteriosklerotische
##ysteme
##ios
cranio
Ausgedehntes
##ösophageale
##ostomie
##ani
Dichtewerte
##steuerte
##juvante
##azi
##ikat
##ella
residuellen
pharmakologischer
##physär
ASS
Haste
##ystems
Span
paranasale
Turbo
TX-Leber
Femurkondylen
mässig
Temp
##nli
Mediastinals
Ligament
abgerundete
Radiojodtest
vereinzelten
Vorf
Nierenloge
Rhiz
##führenden
##wach
Caudatus
##alter
aufgetr
(ins
##aze
Venenlumina
Wirbelsäulen
AVM
##suchung
##rthrose
##abschnitte
Strecke
21,
15-50
Symmetrisch
Dystelektasen,
01/
aortopulmonalen
##arb
Signalsteigerungen
Immun
Demen
rektal
Ganz
##ebr
Nodulus
Gran
6F
##öll
##rungen
unters
auszuschließen.
Pankreasli
##rid
Posterior
Pin
##onie
##grafi
Interventionsradiologie
Aufge
##ntin
##hra
möglichen
##ällig
##stas
##pr
geringgradigen
differenziert
Femurköpfe
S7
Knöchern
Infarktareale
Erg
##weich
Oberlappenresektion
Avulsion
##vik
##ingung
signalabgesenkte
erfo
zeitgerecht
disk
Zungen
Unauffällig
##Kon
##ophy
##72
Val
Taubheit
Ei
Humeruskopffraktur
renalen
cerebell
temporal,
Pneunachweis
Schrumpfniere
AICD
femoralen
dilatiert
Brustw
Zusatz
Schenkelhälsen
Bilaterale
##set
##bro
Lagebeziehung
Hirnrinde
##yla
##tf
##ideum
zeitgerechte
Vergrößerungs
Lymphknotenvergrößerungen
##zei
TH
Splitbolus
Portkammer
##metastasierung
##fläch
Niedrig
AS
##überschreitende
medull
gynäkologische
##ontin
postr
##thyreoid
Rundherden.
##kö
##gerecht
##3m
##igne
Spalt
##öm
##hyp
##oxi
##ortal
##mpe
ADC-
-oral-GI
(12:2
Vorh
##kot
##wö
lat.
Markierungs
##kular
##IE
##ärkt
AML
##profil
Thorax-V
##82
##yer
ober
Frakturfragment
Charité
##uläres
intraabd
Gebauer
Skelettanteile
Heberden
28.1
##ärm
##aortal
vorgesch
brachiocephalicus
Verw
Eher
##FP
##sphase
vergrössert
suffizient
Großzehengrundgelenk
##ymph
begrenzte,
##tarsal
##näre
##maxi
##luier
##fus
##trahl
##kula
positiv
##Sc
vs.
versorgt
The
RT
Flüssigkeitsformation
Bosniak
##konfiguration
##lipom
zentri
Milzp
II/III
0,55-0,75
##ylonest
flacher
Nierendrittel
selbst
Skap
Kolo
##arstellung
nod
Nodu
Mitr
##eptor
Osteotomie
##otti
##oma
##ativ
Rindenfurchung
Querf
Hinterwand
Ausmaß
##musk
##erend
Kollateralbänder
Herzk
##schenk
Pigtail
##verschieb
Konturunregelmäßigkeit
Api
radik
Hüftdysplasie
manus
##96
Herzfrequenz
Bu
HB
Verkalkungsstruktur
Peribronchi
Koller-
Hashimoto
##creati
Uptake
##relief
lumbalen
biphasische
##lastische
##enose
##kutan
##klu
wellig
##.40
bz
Mehrzeilen
Grö
Wo
##ssig
spezifische
Dysplasie
##sm
Vaskularisation
##osiv
LJ
##echn
belastungsinduzierte
Pfortaderthrombose
##ichtlich
##abhängige
Äußere
##9.200
##strauma
##murale
##lären
Inva
08
##Pro
Rekanalisation
##reflex
##x7
##Läsion
Rinde
Bauchschmerzen,
Shunts
Abgänge
Ellbogen
##dental
##bus
##iform
##förmiger
##faser
Reaktiv
##teigend
##rsi
##bet
intraorbitale
LK-Metastasen
ihre
108
##bit
##bert
häm
Schilddrüsenloge
Nuklidmehranreicherung
##bahn
pedis
flächenhaft
##inu
Knochenl
##HS
Nierenl
##-Sc
##llo
Rinne
kontra
akutes
Herdes
regelhaft
Parese
ICB.
mitangeschnittene
##pfl
##einlagerung
oblongata
Tho
Sac
##recht
dom
Teleme
##undiert
Kurzstreckige
##ausdehnung
Erh
broncho
Rechtsherzbelastung
Faszi
Dekompensationszeichen
##rib
##nach
echoarmes
EKG-Elektroden
##3/
##stolische
##his
##sung
##ß,
##phalan
Dura
Bewusst
Doppelko
##yst
kleinsten
Leberherd
##relevante
##ril
##Gefäß
##62
##ähnig
langstreckig
eingele
Abfl
##volu
anges
Hin
Zweit
Minderkontrastierungen
(nur
##ärk
##omy
##knöchel
##ch-
##elekta
##bru
abgesch
Tentorium
SA
Meniskus
(18
##/0
##konvex
orthop
##AE
größeres
Rechts,
##-se
echoge
113
##indu
0,72
Grobe
##radio
##synthetisch
Minderperfusion
##rete
##kontrast
stenosierende
hoher
Flüssigkeitseinlagerung
Endg
Aneurysmata
##SW
Ergometrie
##din
ergometrische
##arese
Sinus-
##makon
##kra
##astr
Weichteilsubstrat
T1-hyperintense
Inspektorisch
Erker
##tier
##onogra
Hämatothorax
Z-Wert
##hyt
intrac
Einschmelzung
5F
parare
gelöst
##hre
TOF-
##fan
weitgehende
absorptionskorrigierten
Abschnitte
##ustritt
acetabulär
##ölb
letztmalig
Schwindel,
Ärzten
Forts
Embolie.
Elongierte
Erhebliche
31%
Zweitkarzinom
Sedi
28.
Betr
(Fax
##-Ant
seitlichen
mäßiges
##-Pa
##ika
##bhängige
längerfristigen
##edia
temporopolar
##/Infiltrat
##tiel
##erten
zervikal,
dos
Einbruch
bestehender
Trip
dichte
propria
Unscharf
0,5%ig
##ull
##overy
##glied
osteol
##5mm
PCA-
CP
##Tx
##-Res
##rund
Subcut
OPS:3-20
Dosierung
16.
##mox
##.2008
##schlu
##medizinische
Fuss
Bewegungsartefakte
##sszintigraphie
##gos
##gefü
TX-Niere:
##wege
(Te
Power
##wände
ZVK,
##anti
Pulmonalis
##-be
##lic
Ankylose
vertiefte
Dekompression
##-Met
##betont
konstantes
##eise
Regelgerechte
##abla
nachgeschalteter
Fußes
##misphäri
anatomi
##parater
##oben
##mäler
ventrikuläre
##65
##osteosynthetisch
zerebelläre
reduzierter
auftreten,
epilept
Gefäßen
##kortikal
##pharynx
##kolo
Lebera
Kutane
Durchführung:
##orotisch
ösophag
Restriktion
Ausführliche
##nephr
##mid
Sowohl
##nga
bspw.
Tumorkonferenz
Situation
Radiolog
AK
##-Do
2):
##isierter
##etzt
##capularis
(12:3
##fahr
##dimen
syn
Thorax/He
##besch
Perir
##alem
angegeben
##zent
##culare
Messung
2016
##s/
Mamm
Geröllzysten
Meatus
##spond
##slo
##sat
##führend
##arkt
##rla
##diaphragmal
##apikal
iliacalen,
Nebenbefund
HWK3
##af
volume
Osteodestruktion
Gastrointestinaltraktes,
CT-D
##-Ana
rechtshe
fortge
Dri
Stelle
##operativ
Wede
Einverständniserklärung
Cine-
Zuf
Tc-
MIP
Lateralis
##perativ
retrosternale
Aortal
strang
1cm
nachfolgend
PowerPICC
##og
##xp
##vel
mitdargestellten
Vere
03.10.201
##ypische
Mark-Rinden-Kontrast
spinaler
Wei
##anne
mehrfache
DIP-Gelenke
Brustwirbelsäule
##-9
##ipi
SPECT-
(14:3
##lastung
invasiven
##rundet
##idea
Drahtcerclage
##interventionelle
##dop
Zwischenwirbelräume
Dorsobasal
##roi
##lith
intraabdominale
##inderung
##avid
nennenswert
Beckenschaufel
abdominale
Linksve
Artefakte
##dull
##angehobene
Soli
Fau
Daher
asymmetrisch
Verkalkungsfigur
Cerebellum,
##nba
##reite
##moidal
##gina
##aco
##ces
Weichteils
Verhalte
Kontrastmittelenhancement
Fleckschatten
Bandscheibenvor
3/4,
##stre
24.12.201
Bic
periradikulär
##Vers
##ünnt
Vorhof,
LTx
vestibul
kü
##rph
Spondylosteochondrose
renale
Kü
CCC
##7m
Wandun
Meningi
3,5-5MHz,
##verfettung
perilokuläre
##UP
##viation
##pf-
Basalganglien,
kleine,
##-Ne
LTX.
Berücksichtigung
##-Vers
nachweis
Vergleich,
Kalkplaque
Gewi
##i.
##eration
Kleinhirnbrückenwinkel
##ogener
Sk
Plantarer
Metastasierung.
E.
parakolische
Rückfußachse
I.E.
C4
##0.20
##enoidal
##anamnes
destru
##-Szinti
##überg
##aph
gest
breites
aufgebrauchte
Hierzu
Daumensattelgelenk
irregulär
##zenti
milde
communes
##änderung
##aufl
Thyreoid
##szi
Ce
##IS
##ee
##chwellung
malignitäts
different
Tb
Ala
##Phänomen
##schwäch
##rtebrale
ließ
##psulär
gekammerte
erhalten
##suche
demarkieren
Auslaufende
##zerklage
##tibial
##kalk
##areale
Frischer
Knochenz
##pass
##pression
Bruchpforte
tibiale
##öße
##Winkel
##mmographie
##apie
Acetabulums
##efa
neues
bek
##-Co
##yphotische
##glas
Räume
##verlagerung
fettgesättigten
##darm
##remd
##orbitale
Zusammenfass
Intraabdominell
##othe
Einklemmung
Archiv
Pleurae
0,67
##äd
##arzi
Bronchiektasen
##wungene
##sy
##hagisch
Nierensteine/Abdomen-Übersicht
##Uptake
Verhaltes
3.1
##zünd
##ryonale
vaskul
notwendig
intraenterischen
LU
Kopfschmerz
thyreo
##here
##gefährd
scapho
##üglich
Kopf/Thorax/Abdomen/Becken
Hepar
unk
eingeengt
Innerhalb
prominenten
Mikulicz-Linie
Gefäßwand
25.12.201
##spezifische
ilia
Unschärfe
Punktförmige
Beschwerde
##mm),
##oplasti
##hter
vorab
auffälliger
Wirbelsäulenspule
Multiple,
##streckig
parenchyma
angegebenen
##-lumbaler
##efekt
BP
##centralis
##zepti
##torische
##ilus
darstellen
##ebral
##atur
##ikuläre
##nw
##siert
##lymph
Überlagerungen
seitliche
KMT
##sb
##gische
ovalär
Wochen,
Bul
0,68
anzahl
Auge
##omet
##esen
ethmoidal
Konturunterbrechung
0,74
Tor
##hasische
Beta
##bte
Antibio
##/ml
##har
0,71
##/int
##undhe
spikul
T1w-
AD
##schaftfraktur
Urothel
Schleimhautf
##äum
##rop
##cki
rostral
##ünschte
##leuse
Asp
imp
bilio
Ggf
31.1
02/
##stinale
##anke
abgeh
Hautdesinfektion
##resi
cal
Pathologische
malignem
Afterloadingtechnik
##nas
##etz
Peritone
Anprall
##rierte
gezielte
Auff
1,5-Tesla-MRT,
(030)
##Teil
Unterschenkel-Venen
##basalen
abdominal
Signalalteration
(14:0
Lungenve
Großes
##.n
##rich
##nre
##leitend
reti
##ensi
DT
abschließend
##nif
Eingeb
##iege
##früh
catheter
##-Kontrolle
##cheide
##ankrea
##inke
corpus
Subtotal
Alveolar
##zust
##füllt
Kortex
##tors
##omer
##gebildet
verändert
stat
Einm
##tuation
Mittelohr
##hinterhorn
##tänd
Inst
überb
IMK
Aufhellungs
unklaren
Aktuell:
##blut
##kni
rasche
Hernien
Umgebungs
Umgebend
Interponat
##o,
##flächige
Spu
##xy
##eme
##aterial
mL
adäquat
Einf
überlagerungsbedingt
kapsel
##67
##unregelmäßigkeiten
##ansp
DM
##läche
gestr
Tumorko
Pleurak
##kulos
08/
##/G
Unkomplizierte
(la
##vid
##anteilen
##eln
Cholezyst
Vorbefunde
V,
Polyurethan
7/8
UK
Skrot
##kapsel
##ling
längs
##osakral
kont
Narbengewebe
wöchentlich
mü
##vent
##iliae
Voruntersuchung,
##/6
hyperechogene
bestehenden
Nahtfixierung
Lungengefäßzeichnung,
##osto
dar.
Schien
parave
Infundibulum
##-Werte
Foll
##rektal
Neuaufgetretene
(14:1
##scha
Ausgedehnter
03/
##1.9
##sg
Neurokranium:
AML,
##-z
Normg
Hierunter
##-Dic
winzige
Symptome
##/min,
##etastas
##ufnahmen
malign
Schema
##zellen
##oper
##ialdiagnostisch
##ane
Seropneumothorax
0,69
##phalangeal
##omast
##kardial
##depot
##zip
SWI,
Kontusions
##altete
echoreich
Ösophagusdarstellung
Entsprechend
##app
Teilver
##plasie
##i-
Aug
einzu
invasive
fu
Rheumatoide
Lympha
Erfasste
06/
##vex
echoreduziert
Leukozyt
(Voruntersuchung
wenn
FC,
##Kli
Implantationsstelle
##k-
##ffu
U/l
Spondylolyse
Bloodpool
intraforaminal
Koaxialnadel
##tenotische
##hese
degen
Thoraxabschnitte
Leberzirrhose,
Bisher
##ibe
##gebende
teilver
Diaph
##Na
##endok
Besch
##ürz
##orb
Gegen
Lungenmetastase
##lero
begrenzt,
Orbito
Fokus?
##insu
##ilig
##ease
##dol
recht
projektions
Vigilanzminderung
##Str
##cep
Trig
##VE
Weichteilverkalkungen
VKB
Kontinuität
Len
Pause
Unv
Strei
Komplikationen
Übersichtsradiographisch
Mini
Medikamente
Lungeninhalations
##-Injektion
postprandial
moderat
line
fehl
##5.2
##arko
schmerz
##raumatisch
##omp
vera
fettig
Ker
109
(12:4
##ED
18.
##er-
##Nanokoll
##HA
##pülte
##ossäre
##kat
##acke
Signalver
Erschwerte
##bildern
##arte
Kopf-Angiographie
Hämangiome
CT:
Plattenepithelkarzinom
##lockerung
sph
direkter
Schl
GI
##sdi
##terie
inhomogenem
aufgelockerte
(peripherally
(14:4
##T-A
klare
Pflege-Information
Azetabulum
0,73
##wunde
##ibul
Thoraxaufnahme
(Ve
##,73
Stentimplantation
##tone
##arthro
##venenthrombose
##sens
##ch,
schwache
(03:
(Pol
##adapt
interve
Kortikalisun
8-16
##verhalt
##ud
glenoidal
Haftplatte
##yph
##eti
osteosynthetisch
abd
verzögerter
durchführ
Anas
##zieren
##leine
##kondylär
Deckplattenimpressionsfraktur
##mandibul
weitem
Gel
##zt
zieh
##herapie
vorlieg
vitale
prävertebrales
inserted
i.v.-Kontrastmittel
Weichteilmantels
Heparinverbänden
15mm
coeliacus,
##pulmonal
##oids
thalamisch
128
retrocrurale
intraspinal
##ogastr
Zök
(15:0
##zierende
##ponat
vgl.
Tel.-Nr.:
Easy
##flüssig
##ordne
reich
Einle
Kontrollen
##tensi
projizieren
Wurzelspitzen
Tg
##rito
##chlingen
kraniozervikale
ampullär
##enkung
##x10
##sra
porto
Bre
##upp
##listhese
gestauchtes
##rizontal
lap
Myo
Lymphangio
##R)
hirnversorgende
##ollig
##nekti
##lddrüse
##ike
LW
Konfluen
##caudal
##ES
##-te
zentrilobuläre
chronisch-
PET-CT-Untersuchung
Cervix
##taucht
Vergl
##athi
vmax
erweitertem
##onitis
##implantat
##ig,
anlagebedingt
Sus
Intervertebral
##üse
##cke
##ypisch
##olg
##egmentale
##fur
##ßte
Seitenventrikelvorderh
Pola
Plus,
Innenohr
##irregularität
Verschlüsse
Mus
4F-
##uni
Grobmorphologisch
Nebenniere,
(Sa
##sch,
##pols
zurückge
##etabul
##ationen
Exp
##tisiert
peritonealen
Antelisthese
anhaltend
Eins
KM-enhancende
Basilaris
##aden
komplexe
##Übergang
##oche
Zei
Links,
Hiatus
##order
##draht
paraösophageal
diagnosti
Single-
MIBI-
thromboseverdächtig
cub
beispiel
Schock
Dan
CAM
##neumonie
Sekretverhalt
##/t
0,03
##clage
##rl
sen
Interm
Einw
##umkehr
pontifizierenden
Coe
##moni
SD-Lappen:
##involution
##ylos
Überganges
Thoraxschmerz
Nierenversagen
HWK5/6
B-Bild
##?)
Hb-
medius
ödematös
##ONOGRAPHIE
##-Voraufnahmen
##upt
##phre
##Dy
##ächtig
##trope
##iertem
Bestellnummer
##wertig
subf
##chu
maxi
Kieferhöhlen
F18
(14:2
##stes
##effe
konturiert
kontrastmittel
(StatLock,
##rubi
##mä
uni
PIC0220CE)
Luna
orthogradem
oc
kaudale
Sau
22,
##rende
##hyreo
globalen
PACE
(S5
##vide
##ibr
##hinter
Hypervaskularisation
Gebiss
##chal
hepatis,
Makroverkalkungen
überg
wi
imponierendes
Indikations
##spo
stä
cor,
Ausle
SCHILDDRÜSENS
##üssig
##hlt
##e/
##GRE
##uelle
##ndes
gewölbt
17.
##ong
zeitgerechter
Skelettszintigraphie
##ört
Localizer
Cob
Befundkonstante
(au
Tumore
(Angabe
##its
##granulom
##mag
##eot
##g/m
Drahtmarkierung
##inis
Fundus
##aschen
medikament
Angina
##veau
##big
Subluxationsstellung
Rotat
Gem
##ry
emb
Verdr
Thyro
MR-Voraufnahmen
Beinarterien
Aktivitätsanreicherung
thoracal
SP
##roti
(ein
##rosi
parak
Zeilen-
J18
##rtes
inj
basi
T2W
##orbital
##anierte
kombinierte
Mittelständiges,
Mehrfragment
rechtsseitiger
Emphysematöse
Cha
##tracheal
##das
##verschl
##usa
veränderter
Vaso
Einges
##Spiral-
##tragung
##lobul
paratracheal,
Territorialinfarkte
##Pla
belas
bandförmig
##x;
##graphische
supracarinal
sonomorphologisch
kollabiert
Wal
Serien
##ors
Pac
Darmi
##-Stent
##oro
##nahmen
lei
ethmoidales
Speicherfläche
Schlei
PL
##loka
präka
##FS
##/h
Vollständig
PET/CT-
I-131
brusterhaltender
##/i
##nreiche
schmales
Alpha
Beatmung
##matos
Singuläre
Portka
##tirpation
verfolg
demarkiertes
Konusstand
get
Erb
##Per
##-Pl
##verbreiterung
##plit
##ideus
Perfusionsphase
##AK
##brach
pleuraständig
gescatterte
##schie
Nagel
Nebennieren,
Metacarp
(Ta
Gefäßver
##/su
subjektive
Belegung
09/
##thel
##parie
##kalkungen
umschriebenes
thrombosiert
Adhäsi
##PET-CT-Untersuchung
##-lateral
##rachte
Zyst
Radiochemotherapie
(Pa
##rme
TM
Oberbauchschmerz
##öpf
##iu
##chend
##rural
##prüfung
Hautfalte
##k,
calcar
##/Fragestellung:
##-Rad
##zentuiert
ligamentäre
Transversal
Rheumatologie/Dispensaire
##irr
Gesch
(Termin-)
##Ge
##van
##def
acusticus
Knie:
##menge
achsengerechter
abgelaufene
Linksseitige
Cho
##t:
##olith
##lud
retrosternal
Lumb
##oten
##irn
##stern
verschmälertem
##nnel
##gni
verst
kong
Tel.:
Marklagerhyp
##rks
gröbere
Tumora
Präop
Ampullär
##lvi
Lebersegmente
3-226
(15:1
##ual
##sym
##einbruch
unruhige
spondylophytäre
septische
Alignement,
##rri
parakorona
durchb
coronale
(13:3
##ARD
##ikal
sek
Ru
##ateral
ci
##8.0
##1m
##-na
##verdächtige
Schmerzs
##rode
##kuli
organis
##ntif
##nachweis,
Innen
##xs
##aktinisch
Supra-
Erf
##raniell
##iet
##ektomie,
cervicalen
##nativ
##esektion
Januar
(13:4
ausged
Femorotibial
##tomatische
subarachnoidal
bronchi
05/
##platz
##pankrea
##osta
##nost
suprac
plantare
Nierenk
Endotrachealtubus
Schräg
hypot
Euthyreote
##digung
##deno
Pneumat
Dotarem,
##zun
##chlüsse
art
##pinal
##ggr
##gescho
aufgetriebene
Osteotomiespalt
Dopamintransporter-
##äf
##lappe
##basis
##ssus
normgroß,
mehrfacher
##kno
MR-Angiogra
Intima
80,
5F-
##durale
TX-
OM
bo
bilobär
31.12.201
##-Aggregat
##jo
Stammskelett
Schallbedingungen
metall
Lor
##eller
dessen
(Vmax
##K)
##ynthetisch
##thrombosier
inferioren
Herzin
##artig
Gadovist,
##tika
transpedikulär
##klear
##ket
Lumbale
##nner
##liten
axim
anteriores
##nl
##gegen
##Wert
re..
linkshe
Fingertremor,
##zidi
##emen
embryonaler
8.1
##ilt
##prä
maschineller
Schwächungskorrektur;
Karzinom-suspektes
##-Po
##stellt
##omplett
erstmal
Kaverne
UL,
##-Art
##blic
##abdomin
dazu
aufliegend,
Signalveränderungen
%):
Bursa
(anamnestisch
##-7
##lca
atrophi
Partikel
##zid
prob
ggf
dara
##Ö
##trische
Tubuslage
##corpus
Punktat
HWK6
thorakoabdominell
Epig
Wirbelkörper,
Monaten,
Leukenzephalopathie,
##-Spi
##asti
Mikulicz
##gefühl
doppel
BWS.
##max
##arterieller
Verlauf:
##ural
##basale
Verschlüssen
##KG
##she
##lve
##eins
grobschollig
##uße
posttraumatische
parajugulär
Sprunggelenke
Prostatitis
opposed
(Re
##lastom
naß
hypop
MRT-Termin
##-L4
0,66
##dom
Subs
Intervertebralr
##-Ca,
##miti
prolabierte
Arthr
##grafie
##lob
##argelenk
Troc
Anteils
##gg
posteriores
Technetium-
##-Tra
##urs
hiervon
##rik
KM-S
Darmgasüberlagerungen
großen,
Niedrigdosis-Computertomographie
##räng
##hys
retros
leukencephalopathische
Clementschitsch
Nuklearmedizin
geführte
Knochenmarködem
Jochb
Femurk
sakr
initialen
NI
##5;
##orientier
##verso
rekto
Unterbauch.
Neuroforamenstenosen
##nestisch
Zervik
Subklaviakatheter
Dichteminderung
##ktale
perf
Mun
infrarenale
gruppiert
Vd
Untersuchungen
Dilat
##itiv
zerviko
HE
(09
##lest
Materialdislokation
Bio
##-ra
extraaxial
Radiopharmakon:
##kut
ml/min/1
##/Be
subcorticale
##teral
bul
Sklerosierung,
hochgradigen
(positiv)
stoffwechsel
Canalis
##wich
##neigung
##liches
disko
abzugrenzen.
Papille
Leistungs
##Ka
fach
Hals-
##zeichnung
##itut
##eblich
##aneurysma
11/12
##ög
##iums
san
##/Ab
##urteilung:
betroffene
##alzin
subcorti
##ument
lumbosa
Neues
Sic
Oper
Lokalisations-Sequenz
##oberf
##deut
dimensioniert,
Stellungsverhältnisse
MA
Platzieren
On
Hierfür
Gangaufstau,
Exostose
ARFI
26.12.201
progredient,
Syndesmo
GBq
D-Dimer
Ao
##ungsgemäß
##gehende
reg
liquori
Deze
##-N
##enne
##bereit
tubuläre
Voll
Bruchs
##ysio
HWS/BWS
##0-4
##olume
Zusammen
##kamme
Hochs
##markierte
##gef
Zystenniere
Tendino
##ied
##tä
##atm
KM-gestützten
##progr
venae
kleink
VA:
MCA-Infarkt
Lebens
F.
anzahlvermehrte
##auri
##ünde
##b,
belüftet.
Plötzlich
Diss
Abgebildete
##jekt
Mineralgehalt
6x
##ssoziiert
##osk
##met
##apparat
supraa
Polyarthros
marginal
abgerundet,
Sepsis,
ALL
metastasier
##TP
cap
CT)
##nec
##alm
##wies
##sac
spo
angeschnitten
Teilkörper
Std.
Anu
##HW
##5x
##cat
##/VIII
##mea
##far
inhomogen,
fortgeschrittenen
Carotisb
##-Zeile
##verkürzung
Neoplasie,
##2.20
##ästhesien
Mittelh
LWK5/S
Aufz
##hon
sternförmige
Mastoidzellen.
Forschungszwecke
##FI
##rekt
##ichtete
Stre
Farb
apicalen
NS
##tende
Ventrolisthesis
T2/
Hilusfett
##Schw
##itz
Zahnersatz
(Cobb
##erkrankungen
Schli
Klappen
Kalibers
Eintritt
2004
##versu
##ctum
Platzierung
##mbe
##test
##grenz
Rektumkarzinom
##nnen
##ineralis
sphenoidales
carot
Mü
Anamnese/Klinik
##pend
ärztlichen
Ergüsse.
##uh
##salz
##ismus
##bor
spinosus
##rechen
##ngend
##ffi
##uchung
unbe
##uit
##nsa
Methode:
FDG-PET
##vertik
##suppr
##spekte
##perf
regionale
Bizeps
##thal
Liquorräume.
##häng
sicheres
höher
Linksherz
Dislocatio
##DP
##bereich,
Raumebenen,
##otie
WK-Höhe
HTEP
Distanz
##nspule
abgese
Komm
Geplante
CH
Aorten-
##schla
intrav
Densit
sy
sternal
Verz
Schallverstärkung
##gamentär
diff
Venae
Auffällige
##ätte
##unnel
5x
##OR
##manifestation
##hypert
Impressionsfraktur
Befundprogress
##versch
##nement
##las
Randa
Leberk
Ents
genaue
Sin
##termin
##ov
Milzh
Fok
##/de
##köpfe
##bett
##schei
Unterlappenteilatelektase
Ris
Kalka
##hyperintense
Tel
##getriggert
konvexe
Normalisier
Lungenr
Hyperdense
Wirbelkörpere
DJ
intervertebralis,
durchgängige
Organkon
Cerebellum
halb
##rain
seitengetrennter
endokrine
##-Ze
##setzung
##itung
##fassen
Telefon
temporoparietal
rarefiziert
gefäß
Spiegeln
Intensivierten
##örung
intrathorakal
0,64
##tzte
Subsegment
Subileus
7.1
##-8
##dex
Zerebr
VK.
##MG
steno
Bilddaten
Außenmeniskus
##SI
##rli
langsam
Sigmadivertik
Rückbildung
CT-P
##Lumen
##sgefü
##operative
##echogene
##klavikul
Wirbelsäulenveränderungen,
##boden
##Syndrom
##geme
letzt
Lungenabschnitten.
Kollegin
Hämosider
Flo
19.
##ozytom
##koh
hochdruckkompa
99m-Tc-
##phr
##noidal
auslaufend
Tria
Abdominal
9.1
##ifen
##ellär
Sklero
Mehrs
IMD
1,5-Tesla-MR
##ngförmig
##hinder
verdickter
schmächtig
parasagittal
gedeckt
Restbefund
nucle
My
Einbez
##tivität
Rep
Nachsinterung
Koch
cervicale
##öglichkeit
##lute
##aktische
berandeter
Trü
##oto
TC
##kond
identi
##uzierte
Front
11,5
##hou
##chließ
PICC-Line-
Exzision
##ifig
##icu
##plas
##linder
##dizi
Valgus
##Zu
Mitab
##F,
##yma
##Daten
##ussi
Pleurakuppenschwiele
##-Befund
##oca
Obere
##tato
##obasi
##gona
infolge
Fu
##ondylo
tibio
Druckbegrenzung
/-wege
##dik
##chnet
prae
Frakturgefahr.
##reolär
Beckenvenenthrombose
##chtungs
LKs
Com
##ection
##bahnen
Tibiaschaft
Radiusköpfchenfraktur
##-Ra
Maxilla
Lungenparenchymveränderungen
%,
##minen
Ext
##de,
dura
Krani
##halte
abnehmend
##rbu
##guss
punktionswürdig
Perikarderguss,
25.
drain
Osti
lymphonodal
Fol
Ergussmenge
(14:5
##hitektur
peripherer
Neo
(09:1
##dok
fibrotischen
##ünscht
intramammären
TIRM-Signal
Gliosen
##nus
##het
Fußg
27.
##ngu
##mall
##sächlich
##lut
cervicalen/thorakalen
##tit
geeignet
ap-Projektion
##rynge
##inti
kurzfristig
Tumorsu
Handwurzelknochen
CT-Aufnahmen
seitengetrennte
mikrochirurgische
##om,
##hie
jeder
Stuhlg
Kontrastmittelaussparung
Gefäßverschlu
beids
Konstanz
Dyst
##chl
##astik
CT-Abdomen
Antik
##omm
##claviculär
Rund
##rochen
##alität
0.8
##77
##ebellär
##/cm
##ky
##d)
Ös
Fremda
6.1
##quest
##lierend
##ungsbed
Mesenteriale
LWK2/
Exkretion
18F-FDG
##/r
##flich
okkulte
OP,
Bestrahlung
##PECT
##ugen
##läu
unten-
##non
##hämo
##caval
Ery
peripro
cardiale
abgrenzbarem
Vorb
Intervention:
(07
##ptisch
nachgeschaltet
Unterb
Kontrastmitteld
Blutspiegel
##erker
Alle
perirenal
##norm
##ahnen
einschmelzende
Subp
Hirnbasis
Anterior
##flossen
##epatisch
chol
Komplette
##1.200
##ejun
Nasenseptumde
Ausdruck
Aufhellungss
##zephal
vorbeschrieben
vergleichbare
zweifache
04/
##mill
(max
artifizielle
Röntgenb
(Rec
##eumat
KM,
2-4
(13:5
##EF
infracarinal
Gefü
(13:1
Carb
##aminale
fleckigen
Profil
Ortho
konstant,
scharfe
Pankreas-
##lüsse
##diagnosti
Har
Kontrolle,
Achs-
##-me
cephalica
Ventilations
(17
##urvatur
##szeit
postspezifischen
1.5T,
##Signal
intramammäre
Rasselgeräusche
##schem
##patis
##bedin
Oc
##hnl
##dat
Urin
Stirn
##erh
umliegende
epigastr
Perit
Klassi
##skr
##knorpel
##geschw
##gerte
(3,
Ster
##RS
##F)
Zirk
##Pan
mel
fixierte
Verschraubung
Anhe
Aller
Mikrokalzifikationen,
09
##trophie
fun
##haut
##eoris
Schulter:
Hippocampus
##mierte
Beinve
(i
##ppocamp
##ept
Folgeuntersuchung
AC-
111
(die
##köpfchen
Desinfektion,
Befundko
gehalten
(04
stromaler
Zementierte
MCP-Gelenke
Aderhaut
##CD
Gefäßba
##utlich
Parenchymst
##ssiv
##ormis
axial;
Inc
Hämat
Bett
Abf
##änglich
##ungsf
subak
Ileus,
(extern
Strukturelle
getr
Rettungs
Hämatome
##zeration
phase
komprimier
Trachealkanüle,
##quenz
optim
Keilbein
Führungsdraht
Acromion-Claviculargelenk
Terminvergabe
Einzi
Ass
(15:2
##lich,
narbig-
intraspinalen
##x8
##isches
navi
##radiogra
echovermehrte
Exte
AM
gene
Verfügung
Mammakarzinom-Belastung
GG
13.10.
Knotig
Herzsilhouette,
##-Kon
prävertebralen
SH-
##konstr
strukturellen
filiforme
hierunter
Absenkung
##mphysem
ile
NCC
quer
periar
Sekunde
Part
Altersge
##-Skelett
##techn
Überd
denkbar
Diffusionss
##geal
Gal
##stun
VFS
##OTAT
##LE
##69
##opr
(90
##ope
##liose
Schmorl'sche
##Medi
Volumenminderung
Messlokali
##rkrankung
korrelier
##regelmäßig
##llik
radiographisch
Globus
Beinachse
Beckena
##Kar
##stämme
Kontusionsblutung
Fissura
##Ho
##tex
Hochf
##nto
biphasischer
Ovarial-
##nokoll
##genit
##fallen
ana
##resektion,
##intens
perii
##tend
##strecke
##ction
Stations
Hypertr
##osse
perihilär,
Schilddrüsenparenchym
Leberh
##-Ak
##leite
##röse
normg
V/VI
##belastung
thorakolumbal
optic
COPD-Zeichen
##toma
Verbreiterte
Körperstammes:
Gelenkver
FDG-avide
##nnah
schmerzhaft
ergänz
Abhängigkeit
2/3,
##pplikation
Kalks
##Sonographie
##uptake
rundlicher
DTI
##inva
abdominalen
##8m
fs,
##igamentäre
Cellulae
Que
LK-S
##tär
vorbes
Zwischenwirbelraum
Zwischen
randständiger
gebläht
bedingt.
Massae
Shuntve
##-Spiral-
##variante
Scheitelpunkt
Plattena
##eie
Resistenz
20m
##rba
##interv
überschreite
linksseitig,
T2-B
Sig
Abk
##nförmig
Prosta
Bipulmonale
(13:2
##reening
##ngung
Naht
Grü
Femurkondylus
Mün
H-
##imi
infektiös
Kollateralis
##üs
##rische
tracheale
##schrei
##aterale
mittleres
##hag
GB-
##x-
mg/
Venenkatheters
Selektiv
(9.
##rochantäre
Zyto-/Histologie
Posit
hängen
Szin
##taler
##fle
##dl
postinterventionell
TTF
##subst
##ktivi
##aufs
verdrehte
retrop
endgültige
I-I
Hernierung
0,76
##X.
##toriu
##eth
zurück
parietoo
subs
Hypästhesie
Enhancement,
fistulöse
bilateral
##rteil
darstellbaren
Spon
Röntgendi
Lungenf
##17.0
##exs
##chlo
Überse
Aku
##7.200
##wölbung
##rfe
cavernos
11x
(do
glandulärer
frustran
##pler
##pik
Atlas
(13:0
##8.200
Tumorres
Anforderung
##--
##leura
fronto
##sser
##koregion
##eriton
tumoröse
Sz
KHK,
##suspekter
##-Vo
##messen
Was
Osteoblasten
II-I
Schnittbild
Randsinus
Beschwerdep
##verdächtiger
##lantat
HN
(sub
##arisiert
mehrfach
Ton
Kal
Impingement
##pri
##olu
kraniokaudale
disse
##A)
##lienal
sing
mark
Sehnenansatz
Schlaufenbildung
Anreicherungsherde
9x
##nag
weiteres
ordnungsgemäße
deform
##R,
##hyl
##führende
aufweis
Unterarmfraktur
Syn
##Angiographie
##glotti
##barkeit
Urol
Pyelon
Plasm
pontifizierend
gefo
12,5
##seri
##lati
##97
##Übe
Untersuchung,
Lokalisationssequenz
Lamin
LV-
Höhen
CT-Fremd
##tail
##ständ
rag
Wirbelb
TG
##kypho
schmalen
8x
unmittelbare
##zipit
##elu
osteodis
nennenswerten
Pankreasp
##4-
##/Ve
##stoma
##quivalent
##ippte
##fis
##clips
subkortikal
Vor-O
AvD
(12:5
##essung
Vorderes
##tatu
Transformation
##schwell
glenohumerale
Parenchyme
Ansp
28,
##4mm
##xiale
Schilddrüsenparameter:
Luftgefüllte
13mm
##haryng
##ter,
##erweiter
Voraufnahmen:
Durals
##oskopie
metast
arte
Keilwirbel
9/1
##-Systems
##markierung
erforderliche
Sulci
Auflagerung
Abnahme
##EN
##äde
lage
##FR
##lls
region
##ptim
##lumbale
##junal
##infe
##hyperplasie
##diges
subtotale
massiver
Abso
Heterotope
24.
##Abs
Umst
Flussverhältnisse
(Voraufnahme
##echs
##com
bea
20G
##ienten
##abweichung
signalreduzierte
beteiligt
Vor-
Spiralf
(po
##NE
##meninge
##arteriellen
konse
Zuweis
Verzögerte
Imbibierungen
##Br
##al-
##Ni
##uation
subkutanes
rechtspe
lokaler
Fensterung
(Mischbild
residueller
Zirrhose
##uflagerung
##smaterial
##dickung
za
Mai
Filiae?
##rus
##bsta
vom:
Tracera
##stur
##lied
Tracerm
Pedikels
##rementale
##mans
Schü
##usu
##axim
okk
Pilz
Dysarthrie
##-Dr
##vis
##rape
(ni
##µg
##sku
##ffekti
maschinen-assistierte
##Ber
##B,
##6.20
##hotisch
Micro
##nerven
##hindern
##dförmig
##ymp
##nul
##mmerfraktur
##irns
Primäre
##Zy
ser
latus
Eng
##retention
##mini
Perfusions-
##truktur
##opha
##gale
Pankreat
Mye
##-Gr
intramural
Prothesensch
Bereits
Lungenart
0,63
##/La
##tigende
##rak
##ifurkation
##eral
##Diagnostik
umschrieben
Stra
##/Ha
##normale
nodulärer
Eff
##mei
##kompensiert
##ffs
##bä
##bell
http://radiologie.charite.de/pflegeleitfaden
Umg
CCE,
Abse
Schrittmachers
Pleuraver
Mastodynie
Computertomographisch
##tiefe
##sprech
##legte
vent
Spondyloosteochondrose
Mesenterialwurzel
Endlos
Akzentu
##pin
##nkl
##ngie
verlegt
prote
Komplexe
##organe
selektive
kontu
ischämieverdächtiger
entnommen
Harnwege.
thro
pleuraler
Laparotomie
##rpe
Ödema
12x
##rial
##itze
Schilddrüsensonogramm
Ohne
Adrena
##zed
muskulär
##zierung
##-Se
##svers
##lifer
##cifi
Morison-
##lasti
##flo
Gefäße:
Sheldon
Inspirations
##rvens
##hyse
Übertritt
bifrontal
atemmodulier
Temporalh
##ipa
Iliaca
##-Sonographie
ausl
##iment
konflui
communicans
Körpergröße
##hepatische
Portimplantation
Metatarsale
##krank
##fertigende
Drainagenanlage
Carp
##-Bes
##tisches
##tert
##ge,
##einander
##abfl
geringfügige
erbitten
Schlingen
Kurza
Protr
Inhalation
##amnese
erwä
axial:
Dema
##emis
T2-hyperintense
Gefäßd
##pdf
##eicht
semi
Weichteilgeweb
Differen
##ufende
##lisi
hem
##.pdf
##yperintens
##ro-
##picc\upflege.pdf
##pflege.pdf
##passage
##loc
##juno
##faden\upicc\upflege.pdf
##ege.pdf
##den\upicc\upflege.pdf
##cc\upflege.pdf
PN
Neoplasie
Hinterh
Fragestellung/rechtfertigende
##\upicc\upflege.pdf
##\upflege.pdf
##schwie
##ktati
23.
21.10.
##rige
intraparenchymatös
Höhenminderungen
##Injektion
##doch
malignomverdächtige
Planungs
Kompart
Belastungsherzfrequenz
06
##ostos
##ikö
aufgehobene
##primier
##mass
##flexur
##appe
Lumboischialgie
LK-M
Durchgehend
##w.
Kopf/Hals:
##dopplers
Ini
ubiquitäre
dissec
##isodens
überrag
Vit
Krampfanf
Dyspnoe.
26.
Vo
Metata
Liquors
##itta
##mamillär
##fug
paraco
PK
Führ
Dick
##rderli
##hros
Sonographiegestütz
Hart
##präg
Kranken
Bildm
##forami
verz
verbleibende
Massa
##sges
##estin
ova
blande
Nerven
Konventionell-radio
Klip
##WI
##30-
verdichtet
bekannten,
Tc
Seitenventrikel,
Acet
##ticu
##ient
Lungenspitze
CCD-Winkel
325
geschwollen
führende
(pT
##hobene
##drück
##axi
computertomographischen
##well
Sens
Mitralklappe
##kund
##esta
##diagnose
dargestellte
blutige
Mediastinalverlagerung
hei
berandete,
##pathologi
##eilt
##amkeit
Einstrahlung
Baucho
##zis
Tes
Aa
##lytische
Beidseitig
##9mm
##trikulär
##suspe
mg/d
Gehör
Befund/B
##nungs
##entionell
##chant
transfor
klinischem
i.m.
##vul
##omato
##nsta
Unterbauchschmerzen
Territorial
Rechtsdominan
ansteigende
Rezidiv,
Messgenauigkeit
Hypot
Gesamt:
Abdecken
Schle
Linksbetontes
Felsenbeins
Diffus
##ido
SPECT/low
tibiales
Daraufhin
##ellar
##efühl
Sehne
##ardiale
Vier
Traumat
Perfusionsm
Hyperlordo
Gefäßne
Auffä
21.
##2007
##zellig
##sierende
semiquantitativ
FSE
##mediale
gastrica
flav
Vorbeha
0,77
(sag
##Ü
##ju
##apit
##!
facial
bio
##ährlich
##ngli
Progredientes
Oberflächenspule,
Abszedier
##tost
Inklination
##run
##ologi
##hasisch
##cheidung
infiltrier
duodeni
##paren
caudati
T1-S
##D)
##ynge
Pariser
Fer
Soma
##-ka
##läht
Messungen
Bestrahlungsplanung
##Anlage
##chine
##ar,
##6mm
##1.20
##-dose-CT
ende
Baastrup-
Widers
Verdickt
Perios
##Rezeptor
##G-PET
##ligamentär
Nachfolgend
##Hypo
##strukt
##izie
sternocl
rö
intervention
Satel
Asymmetrische
##ymptomati
##stechnik
subse
##selekt
##enha
##en;
##elo
zirr
Tachy
##/9
ekta
Progre
Leistenkan
periportal
gli
Großze
##alia
hypoden
Zementa
MAG3
CO
Ausd
##64
##verlegte
##nitäts
Tumorresektion
Stabil
##dila
##tter
##kran
##dus
Parap
Galle
##tekto
##hoden
##figu
##erio
##chet
ähn
##ersistenz
CV
##5/
##ultier
##inan
total
gewölbte
diensthabende
Lymphknoten-
##höh
stuhl
##Verschlu
granulom
füh
7x
18.11.
##vaskula
##geräusch
linksl
befindlich
Pleuro
##vention
##rhyt
Wegen
Verhärtung
14.10.
##Bei
##xat
##isit
hins
##sdefekt
##minder
Treppen
Diffusionsgewicht
##vol
##kun
Ventrikeldrainage
Bek.
12/LWK
(pr
Umstellungsosteo
Nierenfunktionss
##zet
##nöcherung
##lsc
##cardi
Myelographie
Aussage
##hydro
brust
##cendo
vora
mitgegeben
Serum
Max
Mastopathi
##roje
Vors
Paramet
Aufhärtung
##stung
##impr
##dosierung
verschatte
darüberhinaus
atlant
Wandverkalk
Mikroangiopathi
Coronars
##oge
subp
enth
Unterlappen.
Pneum
Knochenmetastase
Arme
160
submaximaler
messend)
Template
Lungenteilresektion
Ergussko
##8-
TIA
KG
0,78
Übersch
vorliegende
abgekle
M8
28.10
##racheal
##cit
##baut
##achte
errechnete
aufnehmen
Mitan
MRT-Ko
Lü
LK-Be
Geringfügige
12.11
thorakal,
Unruh
MK
superior.
Harnblasenkathe
##Szinti
##Hyperintens
##übern
sagittaler
blutungssuspekten
Pect
NE
Konvexsonde
Deviation
Aortendiss
gewichtsadaptierten
gelegentlich
Wirks
Pfortadera
Bohrkan
##verhäl
Zistern
Thoraxs
Spinalkanalstenose.
App
##-venöse
##opi
##itti
##cipita
radials
enhancender
bildgebend
Gesta
Bronchopneumoni
Aktivier
##umbi
##gnos
##clear
##FD
##-Kontrastmittel
##symptomatik
##rwei
##ltra
14mm
##ote
##kali
##ausschlu
nek
Volumina
Becken-Be
0,62
##ynd
##läufi
verbr
auffälli
abzug
linksseitiger
abszessverdäch
Ultraschall-ge
Pulmonala
Entlast
kurzstreck
Kontusi
Kalklas
Gliob
(Thora
##Ar
##niedri
##ebe
##ansam
tro
Phar
Endphala
##-De
###
##&
##…
##µ
##¾
##¿
##é
##¼
##è
##á
##‚
##[
##·
##Ø
##@
##Ò
##í
##à
##½
##\
##ó
##§
##{
##É
##}
##Í
##Á
##º
##Î
##Ê
##ú
##Ú
##‰
##ê
##•
##î
##Ì
##ý
##ø
##Ó
##Â
##Ù
##ç
##È
##â
##À
##ô
##Û
##ˆ
##ƒ
##þ
##û
##ò
##ñ
##ï
##ì
##Ô
##~
##|
##`
##^
##>
##=
##<
##+
##$
##_
²
é
Ù
!
_
`
û
µ
y
¿
Á
]
·
‰
+
Û
³
ç
>
ì
~
Ø
<
ƒ
;
$
ú
=
^
ý
ø
}
Ô
Î
Ó
@
ü
þ
Ò
Â
È
…
ó
Ê
ò
Ü
§
í
\
â
ï
î
q
Ú
|
‚
ê
è
É
Ì
á
º
ñ
ˆ
•
¾
#
ß
à
ö
{
ô
Í
À
¼
