[PAD]
[unused498]
[EOS]
[UNK]
[CLS]
[SEP]
[MASK]
und
der
vom
mit
in
Keine
Kein
im
des
Nachweis
von
Beurteilung
rechts
nach
Indikation
links
einer
Klinik
keine
Fragestellung
kein
bei
Rechtfertigende
auf
Vergleich
die
nicht
oder
zum
Befund
Thorax
den
ohne
CT
##.
mm
sowie
Ebenen
eine
für
Voraufnahmen
zwei
bis
zur
eines
Z.n.
Im
sich
##n
Die
Anhalt
x
ist
##s
am
Darstellung
rechten
Es
beidseits
Nach
über
normal
-
Befund/Beurteilung
##r
ca.
Herz
liegen
Zustand
linken
Regelrechte
DD
Aufklärung
bds.
##e
Hinweis
cm
In
Uhr
Sonographie
/
ml
auch
Unauffällige
zu
Frage
an
V.
Lymphknoten
LWK
Abdomen
Station
Methodik
bed
durch
Veränderungen
side
##en
Projektion
Untersuchung
Spitze
Bereich
Technik
Bei
freie
ein
Mediastinum
Voruntersuchung
VA
MRT
Nieren
soweit
das
rechtfertigende
##m
Zeichen
Verlauf
Voraufnahme
glatt
Anamnese
Applikation
frischen
Einwilligung
dem
MR
zeigt
Pat.
T
als
Das
sind
aktuell
Leber
V.a.
A.
Fraktur
um
frei
Kopf
unter
Z.
Bekannte
n.
pneumonischen
Segment
schriftliche
bzw.
einem
liegt
BWK
Verdacht
vor
gesamtes
Soweit
Erhebung
ZVK
Pleuraerguss
Milz
Vena
Infiltrate
mögliche
intrakraniellen
Sinus
VU
Läsion
Verlaufskontrolle
gut
regelrecht
zentrale
einen
Risiken
Geringe
Der
Pankreas
Normal
Gallenblase
axiale
Untersuchungstechnik
Digitale
neu
Patientin
Raumforderung
kleinen
groß
gering
HWK
jedoch
Beckenübersicht
Kniegelenk
Flüssigkeit
Harnblase
mündliche
vergrößerten
Zum
d.
regelrechter
Höhe
LWS
##-
ap
Läsionen
axial
Liegen
wurde
unauffällige
Beidseits
rechte
NNH
regelrechte
ossären
ossäre
Risikoanamnese
##er
Dr.
re.
frische
hier
deutlich
Klinische
##es
zuletzt
pulmonale
Schriftliche
große
weiterhin
suspekten
Kontrolle
vgl.
insbesondere
Pneumothorax
homogen
Dopplersonographie
unverändert
Schmerzen
cava
HWS
ICD-
unauffällig
wie
Linie
Aktuell
Weiterhin
linke
etwas
Niere
vor.
erster
Stellung
Rahmen
distalen
Zisternen
Os
noch
beurteilbar
großen
Infiltrat
Größe
Unverändert
degenerative
OSG
höhergradigen
Fuß
nur
aus
gesamten
ehesten
fokaler
Lage
Hüftgelenk
nativ
Rechts
Becken
freier
Erweiterung
fokalen
Links
Lendenwirbelsäule
Patient
hinaus
Basale
Ventrikel
mittels
kleine
Arteria
Anfertigung
vereinbar
seit
BWS
mehr
MPR.
Erguss
##t
konturiert
Bild
zeigen
##ung
li.
LK
Degenerative
MBq
konfluierenden
geringe
Durchmesser
basal
suspekter
wesentliche
Sinne
venöser
Stauung
insgesamt
Aorta
oberen
Punktion
geringer
Hand
pulmonalen
Darüber
Sequenzen
Gut
raumfordernden
Native
KM-Applikation
Neu
TSE
Mastoidzellen
dorsal
deformans
Stehen
Serie
degenerativen
Anlage
intra-
Zusammenfassende
Nasennebenhöhlen
RI
höhergradige
unteren
Ebene
Ausgeprägte
KM
einsehbaren
komplikationsloser
Aufnahmen
Nebennieren
Unveränderte
proximalen
oben
Sturz
pathologischen
femoralis
Sonographisch
Schilddrüse
intrakranielle
sicher
seitlich
Abdomens
Grad
lateral
bekannten
liegend
orthotop
etwa
idem
Länge
ossärer
ventral
mittleren
Aufnahme
pulmonalvenöse
beiden
Fraktur?
Ergebnis
malignitätssuspekten
I
Kontrastierung
stellt
vergrößerter
vorliegend.
fokale
Magensonde
teils
NB
Ausschluss
Regelrechtes
DLP
rechter
Pleuraergüsse
Gefäße
%
frontal
pneumonisches
z.B.
mitabgebildeten
pathologisch
ggf.
abgebildeten
Mammographie
Konstante
vergrößert
basalen
weitere
konfiguriert
Ultravist
Insgesamt
DHC
relevante
T-TSE
weiteren
Schultergelenk
Unauffälliger
Vergleiche
V
zentral
Beide
floriden
Ansonsten
frischer
Verdichtung
Handgelenk
ebenfalls
i.v.
größerer
Übergang
Gabe
Gallenwege
relevanten
Diskrete
entlang
Kleine
demarkierten
lateralen
Mittelständiger
Mammasonographie
II
einsehbar
weitgehend
untere
M.
Blutung.
sehr
Weite
Durchführung
Eine
Image
Deutliche
leicht
Dens
re
größeren
auslaufender
Verdichtungen
Lauenstein
unauffälliges
Extremität
D.
##?
Stenose
betont
Untersuchungsablauf
äußeren
zwischen
entsprechenden
Anmerkung
NBKS
dislozierte
interna
Computertomographie
vergrößerte
mediastinale
wird
kann
seitengleich
Gering
Kontrastmittel-Gabe
Axiale
Parenchym
Hinweise
Kopfes
max.
MRA
beider
RF
Rekonstruktion
bds
bekannter
primär
CCT
jugularis
Knöcherner
suspekte
Verkalkungen
Schichtung
Ima
Angaben
dorsaler
Spiral-CT
Luft
sagittale
basale
Multiple
dorsalen
Lungengefäßzeichnung
Tw
cm/s
stellen
sollte
Beschwerden
Jugulariskatheter
Schleimhautschwellung
Zyste
Mehrere
links.
maxillaris
knöchernen
Material
axilläre
sagittal
Freie
intervertebralis
Beurteilbarkeit
Lymphadenopathie
mehreren
linker
rechts.
allen
Fluss
##a
extrahepatischen
Xenetix
intravenöser
Pneumothoraxnachweis
periphere
betonte
erfolgte
Natives
aufgetretene
Blutung
Liquorräume
bolusförmiger
konfluierendes
lang
tief
Kontrastmittelapplikation
Unterlappen
Patienten
FLAIR
Verletzung
pulmonaler
digital
Anamnese/Indikation
Zusätzlich
Am
Pneu
bekannte
progrediente
Zysten
Diagnose
Vmax
OP
Hüft-TEP
partiell
Fremdmaterial
Seit
Abdomen/Becken
Besondere
Ergüsse
post
Hals
FS
akute
a.
Unauffälliges
Wir
Unterschenkel
Prostata
Deutlich
weit
venösen
Homogenes
Orthopantomographie
sonographisch
Tesla
arteriellen
iliaca
medialen
vollständig
Thoraxdrainage
homogenem
axillären
III
ng/l
mäßig
Therapie
akuten
dieser
Rezidiv
kleiner
Monaten
normaler
konstante
deutliche
venös
konstant
soliden
Parenchymsaum
Einzelne
Ductus
Artikulation
Wesentlichen
Geringgradige
Neurocranium
li
oberes
Nierenbecken
zentralen
Resektion
Befundung
Kontrastmittelgabe
mittelständig
Parallel
Lunge
Ausdehnung
wurden
Bekannter
mediastinal
Abklärung
Drainage
angrenzend
Weitere
Struktur
drei
axillär
Metastasen
Orbito-Meatal-Linie
Ellenbogengelenk
diese
##l
sonst
Hämatom
TIRM
Stenosen
Spondylosis
extrahepatische
Wirbelsäule
Entfernung
Inspektion
durchmessend
medial
Bitte
schriftlicher
heute
subclavia
werden
abgrenzbar
mehrere
inneren
Trachea
jetzt
Tubus
ventralen
zunehmende
Ventrikelsystem
knöcherner
Implantation
Echogenität
Auf
Oberbauch
##te
Oberschenkel
Unterbauch
Dislokation
Port
carotis
##/
Mamma
übrigen
sicherer
komplikationslose
via
Zarte
Stauung.
Anteile
Pneumothorax.
Konkrementnachweis
Mastoide
Frau
Thorax/Abdomen/Becken
aufgetretenen
Retroperitoneum
somit
Knoten
weiter
Zur
S.
entsprechende
P.
signifikante
angrenzenden
Wand
maximal
unauffälliger
messende
intraabdominelle
außen
pneumonische
Truncus
Kontrastmittel
VJI
##mm
eher
Oberlappen
i.
communis
multiplen
entsprechend
knöcherne
pneumonischer
Skelettsystem
Symmetrische
##us
TSH
Teleradiologische
##A
ACI
Mäßige
Osteochondrosis
Normale
akzentuierte
Progrediente
diskrete
jeweils
unveränderte
SE
Katheterspitze
MCL
multiple
S
Voruntersuchungen
ergibt
Se
Pneumatisation
Finger
aber
Mit
regelrechtes
Sonst
pektoral
hypodense
Einengung
-Zeilen-CT
Dystelektasen
symmetrisches
miterfassten
Colon
##d
Veränderung
Bds.
OPS
DWI
bekanntem
IM
Regio
Etwas
klinische
Abbildung
##al
Skoliose
##is
es
Form
PICC
rechtes
unveränderter
Jahren
einzelne
Infiltration
Wochen
Patella
ausgeprägte
gefüllt
allseits
Rückenlage
Weitgehend
parenchymatösen
symmetrisch
native
Konfiguration
Schwellung
h
Dotarem
abdominellen
Phase
sonographische
Metastase
Tagen
Neue
auslaufenden
Postoperative
Aufstau
teilweise
Hartstrahltechnik
Erguss?
homogenes
Reguläre
deutlicher
hilär
abdominelle
findet
IV
Lebervenen
aufgetretener
axillärer
superior
T-Wert
Unterfeld
MS-CT
Wandverdickung
ansonsten
##x
empfehlen
Strukturen
Beinganzaufnahme
portae
mediastinalen
apikal
vorrangig
vermehrte
Ureteren
gefüllte
Sklerosierung
kaudal
Nicht
Verschluss
Costa
territorialen
Glatt
Art
entzündlichen
Harnstau
großes
PD
eingeschränkte
Untersuchungablauf
Verkalkung
abgrenzbare
Raumforderungen
abgrenzbaren
Geringer
Knie
Randwinkel
Zeichnungsvermehrung
Osteopenie
gewinkelte
Lungen
mg
Oberes
Projektionsradiographisch
g/cm
subkutaner
welche
Kardiopulmonaler
scharf
Schulter
Areal
grenzwertig
Versorgung
Schenkelhals
Rippe
Frakturen
Radiopharmakons
normale
Perfusion
lässt
vergleiche
aktuellen
beidseits.
aufgrund
Rundherde
ED
v.
PET
AFS
CT-morphologisch
Hier
Zunehmende
allenfalls
Lokalanästhesie
ergänzende
Rechte
Anteil
Femur
bereits
hiläre
Kompression
diskret
Kalotte
Coxarthrose
Enhancement
Status
Regelrechter
Marklager
zervikalen
mU/l
hilären
Eingeschränkte
kardiopulmonaler
Dopplersonographisch
SWK
nahezu
Nierenzyste
Linke
linkes
min
Pfortader
Involution
neue
folgenden
distal
Steatosis
entzündliche
malignitätssuspekter
linksseitig
Defekt
Nierentransplantat
Quantitative
Bekanntes
regrediente
Angiographie
Portsystem
Pneu?
Drittel
malignitätssuspekte
pathologische
weites
narbige
Beckens
zystische
Schädelkalotte
freies
Ischämie
letzten
geschlossen
verbreitert
Nebenniere
Anschließend
Ein
geringen
ausgeprägter
KM-Gabe
Zone
Unklare
Spondylodese
Übrigen
Befund/
kranial
Nebenbefundlich
vorderen
Herzsilhouette
Korrelat
Akzentuierte
Morphologisch
Kontinuierliche
Struma
##em
Vorstellung
pathologischer
##g
Stauungszeichen
Organ
begrenzt
MSCT
Saumbreite
##um
Neuer
Lockerung
Nierenzysten
Anastomose
UL
zerebralen
vorliegend
distale
unklarer
##G
G
Reizlose
inguinal
coronare
Trauma
neuen
weiterer
Erosionen
L-Thyroxin
Osteoporose
rechtsseitig
Komplikationslose
Mengen
Steilstellung
relevanter
Abgang
B.
Areale
Tibia
suspekt
Zudem
einsehbarer
zusätzlich
Anamnese/
Akquisition
Anbauten
demarkierter
Verschattung
thorakalen
Aszites
Auch
typische
Überlagerung
Teil
bitte
fs
Unter
kontrastiert
Vor
Katheter
palpabler
Prof.
Kutis
Osteochondrose
Knochendichte
wesentlichen
parietal
Dystelektase
äußere
weißen
symmetrische
Infiltrate.
ventraler
fraglich
innere
intakt
Prozesses
wir
Reaktionslose
können
erweitert
##ten
poplitea
erscheint
nun
Telefonische
Ödem
Nierentransplantates
renalis
Injektion
N
Stauung?
externen
Winkel
hepatica
TD
gute
perfundiert
Aneurysma
misst
gruppierter
Lungenparenchym
Große
signifikanten
dislozierten
Kontakt
Zwei
finden
empfohlen.
Nachsorge
p.a.
Parenchymbreite
anterior
dorsale
µg
L
Chronische
VIBE
Regrediente
Tumor
erhöhten
Stabilisierung
Erstuntersuchung
Jetzt
flächiges
Recessus
Korrelation
##fraktur
Restparenchym
Gute
##ter
so
pulmonalvenösen
Allenfalls
Quadranten
Lebersegment
##de
konfluierende
Grades
Gadovist
flächigen
Zentrale
NTX
frontalis
arteriell
möglicherweise
Neurokraniums
Lungenabschnitten
abgrenzbar.
?
intrahepatische
Zwerchfellhochstand
regelrechtem
Materialbruch
Vorhof
idem.
Unterarm
Regelrecht
Frakturspalt
Beteiligung
Organe
Intervention
Belastung
Vergleich.
Intrahepatische
guter
externa
Boden
##ml
arterieller
Knochenstruktur
Befundbesprechung
T-
Fraktur.
großer
primären
unmittelbar
besteht
kommt
messend
Oberfläche
Höhenminderung
Harnwege
morphologisch
##S
Oberbauchorgane
externe
chronischen
D
Betonung
beide
Sehr
Wiedervorstellung
Ureter
Thrombose
Radius
gestern
##se
verbleibendem
Ossäre
Coxarthrosis
Typ
extrahepatisch
Bestimmung
obere
Minderbelüftungen
coronar
familiäre
Infarkt
o
progredienter
Morbus
Score
temporal
Schleimhautschwellungen
L.
Radiojodtherapie
Diffusionsrestriktion
paraaortal
zarter
unten
##T
Residuen
Plattenosteosynthese
hinteren
##%
low-dose
Guter
Datensatzes
venöse
gegenüber
inferior
Diese
Lufteinschlüsse
Signal
Wirbelkörper
Uterus
koronar
imponierende
Weichteilmantel
relativ
degenerativer
##i
Einnahme
Transparenzminderung
ab
SD
siehe
chronische
-echogenität
unscharf
ausgeprägten
caudal
Hili
dabei
OL
peripheren
Mitabgebildete
R
Sono
Sagittale
Appendix
retroperitoneale
pancreaticus
intakte
Raumforderung.
Stent
progredient
B
/SWK
Seitenventrikel
Umfang
Querdurchmesser
transversal
SPECT
*
Infiltraten
berandete
Magen
Kleiner
cranial
Metastasierung
homogene
Belüftungsstörung
Plaques
Ösophagus
Regredienz
einsehbar.
minimal
leichte
zunehmend
Familiäre
Blase
jugulär
ableitende
cerebri
Blutung?
multiplanarer
Befundänderung
konfluierender
Weichteilemphysem
Belüftungsstörungen
##sch
verkalkte
älteren
knapp
dorsales
Konkrement
Tag
##ale
Konstant
##V
Ruhe
Drüsenparenchyms
Analyse
Lumen
##le
Unterkante
unterhalb
Pneumonie
arthritischen
Röntgen
kleinere
C
eindeutig
dar
beginnende
wegen
Konsolidierung
##ch
Herd
wieder
##on
Trachealtubus
Neurologie
distaler
Schrauben
Trachealkanüle
Nieren-
Befundvergleich
Pleuraergusses
Letzte
Spondylosteochondrosis
osteophytären
einzelnen
Corpus
während
lobuliert
Flüssigkeiten
##ation
Imeron
Gallengänge
Clavicula
Halsgefäße
Fieber
ca
kontrahiert
größere
Kurzbefund
Schlankes
sekundäre
Funktionsaufnahme
Anteilen
occipitomental
thorakale
rundliche
spitzwinklige
Processus
Rundherd
neuer
begrenzte
Diffuse
gesamte
zervikal
altersentsprechendem
Norm
umschriebene
breitbasig
arterielles
Eingriffs
##R
konfigurierte
mesenteriale
Alter
Katheters
Fragen
gegen
vertebralis
wesentlicher
Siehe
Medikation
##är
verschmälert
Sie
Minderbelüftung
streifige
Gefäßmuster
diffuse
WS
kardiopulmonale
AFC
##in
Minimale
kortikale
Darmschlingen
vermehrten
diesem
oberhalb
Multiplanare
Basis
Einlage
darüber
Hirndruckzeichen.
intrapulmonaler
##cm
Procedere
Durchblutung
Spinalkanalstenose
##ierung
Mammakarzinom
malignomsuspekter
Präoperative
Ca.
##H
Dünndarm
uns
Abdomenübersicht
kontrastierte
Knie-TEP
Hypopharynx
diskreter
erweiterte
arterielle
Sondierung
Befundmitteilung
wesentlich
polymorpher
gemessen
Oro-
hyperintense
zervikale
supra-
kardialen
passend
Aufhellung
vermehrter
u.
erweiterten
dynamisch
Hochgradige
Localizer
##ie
regredienter
Volumen
CT-Angiographie
Schrittmacher
Größenkonstante
apikalen
ältere
##L
Hilus
Segmenten
F
dass
inhomogen
imponiert
höhergradiger
Verwendung
##D
Einbringen
OA
ins
kaudalen
Folgen
vollständige
##s.
koronare
##E
Zwerchfell
global
Altersentsprechende
Übrige
Nephrektomie
iliakal
Narbe
ergänzender
Dokumentation
Trochanter
Fortgeschrittene
Einstellung
A
frisch
gelegenen
Leberlappen
Radiusfraktur
eindeutiger
##z
belüftet
Darüberhinaus
Vortag
Mäßiggradige
Lipomatöse
##k
Früherkennung
allem
profunda
reaktionslose
##ion
Basalganglien
Eingriffes
Abszess
Diffusion
hämodynamisch
Beginnende
##P
altersentsprechender
Schlaganfall
Hoden
Flussprofil
Aneurysmaanhalt
##ge
flaue
gelegene
Shaldon
kleines
Accupaque
projiziert
stark
mäßige
An
Leiste
Leberparenchym
Ablauf
Über
Angio
malignitätssuspekt
Mammakarzinombelastung
Prämedikation
erweiterter
nachrangig
OP-Clips
postoperative
Mammographische
KM-Phase
Trepanation
Schädelbasis
unauffälligem
Fibula
Stammganglien
Pleuraerguss.
Hirnstamm
größenkonstante
frei.
umschriebenen
##h
BI-RADS-Kategorie
et
Hüfte
Arthrose
lediglich
abgrenzbarer
Schädel
Pleuraergüsse.
intrahepatischen
Belüftung
Herrn
MPRAGE
CT-Voraufnahmen
##F
periprothetische
Mikroverkalkungen
homogener
Chemotherapie
hirnversorgenden
zweidimensionalen
Durchgängigkeit
Thyroxin
Hände
Minuten
Formation
Schultergelenkes
&
Verhalt
fleckige
E
Gallenblase/-wege
##I
Oberarm
Knochendichtemessung
Kopfspule
Pulmo
mäßiger
Vergleichsaufnahmen
geringgradige
stehenden
I.
dick
ICB
zunehmender
Kontur
Flußmessung
Nativ
Infiltrat.
Naso-
echofreiem
konsekutiver
andere
s.o.
Halses
Annähernd
größenprogrediente
Miterfasste
Größenprogredienz
problemlose
Kelche
Biopsie
intraabdomineller
möglich
hochauflösender
proximal
T-gewichtete
Nahezu
sitzend
eingeschränkt
Zn
gelegen
erfolgt
Flüssigkeit.
Rektum
Verlauf?
kurzfristigen
T-SE
##den
Embolisation
Externe
Ausgedehnte
Zeilen
Moderate
offen
Diagnostik
oraler
Spitzen
strukturiert
Phalangen
Hirnparenchym
Y-Aufnahmen
Defekte
CT-
innen
Orthotope
erhöhte
Tage
flau
Demarkierung
Jahr
Zunahme
Musculus
Seitenvergleich
Gonarthrose
territoriale
ausreichend
Level
Ober-
maximalen
zystischen
Leichte
höhergradig
hat
Nierenhilus
zentraler
Radiopharmaka-Applikation
Klinisch
basaler
sternförmiger
sonographischer
Anschluss
Wechsel
altersentsprechende
Kopf/Wirbelsäule
Multisegmentale
per
dann
Durchleuchtung
Drüsenparenchym
Rippen
FLASH
posterior
abdominalis
möglich.
Mittelfeld
Kieferköpfchen
Exspiration
einliegender
Rücksprache
minimale
weisen
linksbetont
aufgetretenes
Meyerding
MS
seitengleiche
einzelner
mesenterial
SUVmax
echoarme
Polabstand
Verband
Elektroden
ascendens
hormonelle
vormals
##der
Füllung
inhomogene
Aspekt
Stau
PI-RADS
eingeschränkter
abgebildet
weitestgehend
signifikanter
Progredienz
Hilusstrukturen
Schilddrüsenlappen
beim
Mittellappen
kurzen
VI
Gesichtsschädel
Pleura
Lungenabschnitte
typischer
Passage
Staging
perihilär
Mittel-
Fx?
Kopf/Hals-Angiographie
Evaluation
Aufgrund
erfassten
HCC
##sche
ausgeschlossen
kleinste
pathologisches
Portnadel
Supratentoriell
erneute
sphenoidalis
Affektion
Sinusitis
entsprechender
Portsystems
Diameter
Gelenkspalt
axialen
Gefäßveränderungen
##y
konstanter
Ulna
da
solider
##tion
Halsweichteile
Humerus
ventrale
weist
Referenz
Heute
Genese
caudalen
Ganzkörper
Retroperitoneale
Bis
##B
Weitestgehend
regredient
entzündlicher
zunächst
arthritische
wohl
ACR-Dichteindex
VIII
mindestens
Labor
Cholestase
Lymphadenopathie.
entspricht
Osteopener
Hautnaht
Destruktion
bedingte
Phalanx
Schilddrüsensonographie
Atrophie
überwiegend
vorbeschriebenen
durchgeführt
akzentuierter
Rechter
retromamillär
Zeit
subchondraler
beurteilbar.
kardiopulmonalen
Lokalisation
arthritisches
Leicht
Oberfeld
##ng
vergrößertes
vorbeschriebene
flächige
Ebenfalls
##gen
mehrerer
Hirndruckzeichen
Zahl
m
Bulbus
mm.
echonormales
##ne
Thoraxwand
zudem
tiefen
Z.n
Mittellinienverlagerung
durchgängig
beginnendes
Fettgewebe
##ige
Sequenz
Winkelerguss
Stadium
Weichteile
Altersentsprechend
spitz
laterale
Marklagergliosen
Stauungszeichen.
mm³
Manifestation
Intra-
Randwinkelerguss
CRP
anamnestisch
mammographische
multipler
Stunden
kommen
##bereich
rechtsseitigen
grob
Orthograder
hepatischen
Dyspnoe
retrograde
Prominente
Kortikalis
dichtem
triphasisch
Fx
Bandscheibenprotrusion
mesenterialen
Kollegen
Fixateur
lassen
Weiter
occipitofrontal
z.T.
Ventrikels
größte
direkt
##äre
Enge
Degeneration
thorakal
Aus
Verlagerung
SAB
i.v
Darm
konventionelle
ad
CTA
klinisch
Destruktionen
stattgehabter
Linker
kardiale
linksseitigen
vier
##lich
Breite
auffälligen
Infarkts.
Herzgröße
Einblutung
Herdbefund
Herde
proximale
Anzahl
Seitengleiche
Ramus
intrapulmonalen
lipomatöse
bitten
Fettsättigung
Digitus
Weichteilschwellung
##re
raumfordernde
Achsengerechte
Mehrspeicherung
Bypass
TK
Mikroblutungen
VII
##st
pro
Skelett
Aufhellungen
peripher
Trijodthyronin
konsekutiv
eingebrachte
Schilddrüsenlappens
eingebrachter
Coronare
Mittelbauch
##CT
##K
Blutentnahme
verbleiben
Anreicherung
innerhalb
Shunt
Post
Zusammenschau
konventionellen
inguinalen
zueinander
TEP
Bildgebung
min.
a
zystoide
Portkathetersystem
Halswirbelsäule
heutigen
regelrechten
hoch
digitale
malignomsuspekten
Spondylarthrose
subkutan
ableitenden
T.
RH
Dünndarmschlingen
CT-gesteuerte
Brachytherapie
K
sie
erbeten
aller
Alignement
Leberläsionen
Diskret
Konstanter
M
SIG
altersentsprechend
Atelektase
Adipositas
Schichtdicke
##b
ISG
einliegende
PIP
Ende
liegende
Unterkiefer
Power-Dopplersonographie
digitalen
selben
Weichteilplus
Steine
messender
Indikationsstellung
Anamnestisch
Partiell
pubis
Hinterkante
hepatische
antegrad
individuelle
Gefäße.
Schilddrüsen
Kleines
nativen
punktförmige
Thrombus
sicheren
Bauchwand
Neuroforamina
Weise
##len
Steriler
rechtskonvexe
osteoplastischer
##M
solide
Radiatio
berandet
loco
DIP
Clipmaterial
Infratentoriell
Aneurysmen
kaum
Dig
retroperitoneal
Termin
F-FDG
BET
Fokale
angrenzender
Hämangiom
Lordose
Kopf/Hals
Alte
Verdickung
marginalen
Spinalkanal
axis
Originale
Vereinzelte
Signalverhalten
Osteosynthese
Osteolysen
##ig
Vorliegen
letzte
Schilddrüsenwerte
beträgt
hypodensen
Abgrenzbarkeit
Dünn-
hochgradige
Malleolus
untersuchten
unspezifische
Arterien
Arthrosis
Konkremente
Aufklärungsbogen
pulmonal
war
Zweck
spezielle
Grund
mäßigen
##alen
Altersentsprechender
Rand
vermutlich
Ovar
daher
Pallium
Lokalisationssequenzen
Ggf.
##n.
axialer
Herdbefunde
thorakolumbalen
major
konsolidierte
multiplanaren
Füße
Gelenk
zweier
intraperitoneale
##C
v.a.
Mastoid
wahrscheinlich
reaktiv
osteophytäre
z.
iP
Fragliche
subchondrale
dislozierter
direkten
superficialis
Leberläsion
Arthritis
tumorsuspekter
bedingt
cMRT
Verbindung
fokal
Binnenstruktur
Sicht
Glandula
Ablatio
FT-Winkel
Luxation
Defektareal
kranialen
e
TVT
Splenomegalie
Herr
Facettengelenksarthrose
linkskonvexe
Mäßig
Homogene
allerdings
Spezielle
Signalalterationen
Freies
Verschattungen
ATP
unauffällig.
apical
Deckplatte
MCA
T-VIBE
Markierung
Sequentielle
Nervenwurzel
Dichte
Dilatation
dichtes
Wahlund
pectoral
Nebenmilz
Voraufnahmen.
##ell
intakt.
Capsula
Lymphknotenbesatz
Hilär
Dünnschicht-
##isch
Demonstration
Schmales
interne
##chen
thorakaler
##bildung
narbigen
ossär
sterilen
tibialis
Bandscheibenprotrusionen
Humerusfraktur
Verhaltensmaßregeln
Kontrastmittelphase
anschließend
Knochenfenster
Erfolgreiche
##resektion
##ische
annähernd
Imbibierung
Vollständige
Vorfuß
Des
degenerativ
deutlichen
Streifige
geringgradig
Gelenkspaltverschmälerung
##itis
Fragment
Signalanhebungen
Befunde
schlank
Signalsteigerung
Lungenstruktur
ossis
Gesamt
muss
retroperitonealen
Stenosierung
Initiale
orthotoper
Thorax/Abdomen
inguinale
subkapsulär
Orbita
N.
COPD
Hochaufgelöste
orale
T-HASTE
NET
P
vorangegangener
Schwächungskorrektur
Gonarthrosis
Mammographisch
coeliacus
Extremitäten
LWK/SWK
Normbereich
n
##tis
##p
EF
Schleuse
messenden
Mediastinalorgane
Schädelbasis.
Harmonische
Nasen-
Läsionen.
Regredienter
Differenzierung
Erbitte
klinischen
cerebellär
Lokalrezidiv
Knöcherne
CT-VA
Verlauf.
II.
Lungenarterienembolie
Ellenbogen
PET-Emissionsmessung
Thyreoglobulin
Hilusnah
belüftete
iliacal
Mehrzeilenspiral-CT
Größenregredienz
AIE
noduläre
##N
komplikationslosem
indirekten
Vorbefund
prominente
Sonden
mittlere
US
Multislice-Technik
signifikant
Mammasonographisch
occipital
Narbige
##U
D-GRE
Pelottierung
alle
entzündlich
intensivierten
mediastinaler
intravenöse
Husten
Schädels
Osteolyse
##ende
tastbar
Signalanhebung
Ohrnebenräume
##ierte
Fraglich
konfiguriertes
Cholestase.
behandelnden
Sonographische
chronischer
Erbitten
intraluminale
zusätzliche
Arteriosklerose
umschriebener
Bein
Pleurakuppenschwielen
Veränderungen.
Hemiparese
oral
Ante-
Z
größenkonstant
##v
Primovist
Bülau
Kolonrahmen
Dynamische
Allseits
dilatierten
reguläre
Therapiehilfen
##c
NUK
langen
UF
diffus
Dabei
folgender
geringem
Rippenfrakturen
Dorsale
Kleinhirn
zuvor
Knochendichtewert
mittig
Kyphoplastie
einschließlich
Rippenserienfraktur
minimaler
##or
vierter
Hause
unterschiedlichen
Milliliter
exemplarisch
sonographischen
miterfasste
Plaque
betonter
Hemihepatektomie
wobei
Spiegelbildung
wenig
MR-tomographisch
hochgradiger
Kellgren
überschaubaren
Konventionelle
##wand
fehlender
Jahre
Dosis
Hypodensität
Sklerose
multiplanare
Größenprogrediente
Fehlstellung
##ler
intracranielle
##f
Herzhöhlen
saphena
eindeutige
Hals/Thorax
AP
Linksseitig
Resektionshöhle
Intrapulmonal
Calcaneus
Rippenfraktur
ATA
Lappenspalt
HASTE
bekannt
KM-Enhancement
Schraube
je
##O
Tastbefund
Vermehrte
lateralis
Ältere
durchmessende
Daten
maximum
Gewebe
IMA
##Z
##rt
VP-Shunt
größenprogredient
##iert
Vergrößerte
kardiopulmonalem
paramedian
Aufhellungssaum
nachweisbar.
nativer
Distale
beschriebenen
älterer
Magens
flächig
Progress
Meteorismus
styloideus
Hals/Thorax/Abdomen/Becken
Zeitpunkten
Mamma-Ca
T*
unklare
Wirbelsäulenveränderungen
zerebrale
abdomineller
Unterlappendystelektase
eindeutigen
##ing
##tisch
KM-
Venen
erfasst
T-Wert*
descendens
##el
gesteuerte
extern
Leberzyste
Lebermetastasen
Peritrast
biphasisch
Ischämie.
postoperativ
Konkrementen
Verlaufskontrollen
##tische
Ethmoidalzellen
Insbesondere
Pol
Komprimierbarkeit
Mehrspeicherungen
Pankreaskopf
Hyperkyphose
Lage?
Mehrsklerosierung
Humeruskopf
hinteres
Thalamus
Problemlose
mittelständiger
Brust
venoes
echoarmen
kontrastierten
Pathologie
reizlose
Plexus
Fremdkörper
umgebenden
Fibroadenom
Von
metastasiertes
weite
Verlegung
ehemaligen
zwischenzeitlich
Aufhellungslinie
durchgreifende
Schmaler
Schrittmacheraggregat
Rekonstruktionen
ausgedehnte
Unveränderter
Sigma
Pulmonale
##end
Kleinhirnhemisphären
Pancreas
Nur
Druckschmerz
damit
Neuanlage
gegebenenfalls
hepatis
Atherosklerose
Postoperativ
LAE
Bauchlage
Alignment
Schmerz
Phlebolithen
##o
AL
Infekt
Köpfchen
Gyrus
media
Herz-
empfohlen
erhöhtem
maxillares
Fistel
lagen
regelmäßig
Traglinie
Wie
Flüssigkeitsverhalt
Wasser
Befundkonstanz
versorgte
verdickten
ventrales
Mittelgesichts
Wurzel
schmaler
##che
DK
PET-CT
l
Leberzirrhose
Befundwandel
MTP
freundlichen
gemäß
echoarmer
Lungengerüstveränderungen
##nde
Weiteren
Zwerchfellkuppen
dorsolateral
PSA
dd
##ar
sacrum
antegradem
Millimeter
T-Wert-Analyse
Untersuchungen
seitengleicher
erhaltener
Oberbauches
Pat
Lymphom
Grüßen
Frakturnachweis
A.e.
dargestellten
metatarsale
normweite
übrige
lokale
Spondylophyten
Fossa
Akute
Erhaltenes
Pflege
Frakturzeichen
nachweisbar
floride
Mehrzeilen-Spiral-Technik
Gefäß
SDH
Buscopan
Flaue
Zentral
##en.
Einführen
komplett
hepatischer
Laborparameter
m/s
Blut
Herzens
kollegialen
Gesichtsschädels
unwahrscheinlich
Hüftgelenke
Drainagen
Materiallage
periventrikulär
kräftige
Sonogramm
Materiallockerung
Globale
Mittelgradige
##ose
Filiae
chronisch
Lymphknoten.
Neben
Hypointensitäten
Pulmonal
erneut
Knochen
Frauen
Progredienter
Rechtskonvexe
##aufnahme
kontrastieren
beginnender
Bandscheiben
intrahepatischer
Abstand
konfigurierter
Nasenbein
gesunden
##kontrolle
atypische
jungen
T-Flash
MCP
transversale
Bruch
TACE
Koprostase
starke
Asymmetrie
Darmgasüberlagerung
Erstdiagnose
Hypertrophie
Unklarer
Flache
mediale
Beim
Caput
##nt
Myelon
Arm
Femurfraktur
ilium
Hamm
Untersuchungsbedingungen
pelvine
ACC
cranialen
##ungen
stellte
Weltgesundheitsorganisation
Vgl
Zielaufnahmen
auslaufende
AMS
Kontrastmittelaufnahme
Thrombophlebitis
spinale
randständig
Frakturnachweis.
Ergüssen
bedingten
geb.
Verschmälerung
Tuberculum
Kräftige
Spinalkanals
T-TIRM
gibt
knotig
erfolgreiche
kalkdichte
Kleinere
Melanom
##ektomie
Power-Doppler
Nächste
Stanzbiopsie
mesenterica
gelten
Nierenarterienstenose
weniger
davon
lakunäre
Hypodense
Referenzdatenbank
Frei
neuaufgetretener
##ns
harnabführenden
Leberhilus
lotrechte
WHO-Definitionen
benigne
möglicher
ICB?
Gefäßzeichnung
bipulmonale
anterioren
intracraniellen
Traumafolgen
Staging.
Lufteinschlüssen
Flüssigkeitsansammlung
angrenzende
Phasen
gleichen
Abbruch
LWK/
##förmige
Hochgradiger
##ß
Spondyloosteochondrosis
maskiert
##OP
CT-gestützte
prominenter
Konsekutiv
CT-Untersuchung
Angrenzend
Grenzwertig
THI
Nuklidanreicherung
Ischämie?
DWI/ADC
euthyreote
Mesenterial
supratentoriellen
regio
Symmetrisches
Ileum
Zystische
Gastrointestinaltrakt
Schlanke
##ert
Kniegelenks
Blutauflagerungen
dextra
erneuten
NSCLC
konturbildenden
##ia
Lymphknotenmetastasen
##ss
Signalgebung
ZVK-Anlage
kurz
Aspiration
berichtet
Fixation
Frische
Portkatheters
zarte
Linksseitenlage
##material
Abgangsstenose
Noch
##-CT
sowohl
Seite
PHILIPS
Oberbauchs
paravertebral
Berlin
Aktivität
##w
Seitenventrikels
alte
Peristaltik
tumorsuspekten
sterile
interstitielle
Metastasiertes
##ll
frontalen
Ausschluß
diffusionsgewichtete
VCS
MI
Zunächst
Liegen.
geehrter
beginnenden
Sonde
beginnend
gesteigerte
##region
post-KM
Mehrschichtspiraltechnik
entfernt
Acetabulum
einliegendem
MR-
##it
verbreitert.
Computergestützte
Aplio
traumatisch
kortikalen
Perikarderguss.
periartikuläre
Planare
VK
##and
##aler
Galeahämatom
Bandscheibenprolaps
Funktionsaufnahmen
proximaler
telefonisch
vorwiegend
Höhergradige
Sekret
Fettgewebes
Ganzkörper/Polytrauma
konfiguriert.
Skelettalter
Dynamik
FKDS
Retrolisthesis
Zahn
Szintigraphie
##X
Stress
erhöhter
messendes
endet
globale
Respiratorische
Stufenbildung
unserem
begrenzter
ICD
okzipital
##W
##n-
Lappen
Leeraufnahme
Hallux
Mehrzeilen-Spiral-CT
Schenkelhalsfraktur
Rechtsseitig
Dissektion
##bar
ng/ml
Infarkte
sichere
ausgeprägt
Arterielle
Liquorzirkulationsstörung.
Eingeschränkt
Einbringung
vorliegenden
Akzentuierter
TX-Niere
anderen
Berechnung
verkalkter
regelrecht.
LTX
kU/l
wandverdickten
Kaudal
Damit
Bemerkung
SUV
Durchgeführte
IV.
Humeruskopfes
sternförmigen
Abdeckung
##ger
imponieren
Foramen
Leistungen
intra
R.
Palpation
Oropharynx
fleckförmige
Auftreibung
anatomischen
PTA
Bilddatenanalyse
Axilläre
liegender
verdickte
pectoralis
ML
Ausbildung
erwägen.
Nervus
Offenbar
verminderte
Auswertung
o.g.
ausgedehnten
##rung
cervical
##nd
Fokus
Woche
fragliche
Erguß
verzichtet
behandelten
Stoffwechsellage
dort
kortikomedulläre
Magnetresonanztomographie
##om
III.
##s-
Infarktes.
maximale
gesteigerter
lateraler
Aufnahmenummer
Konsolidierte
##ck
CT-VU
Prüfung
subkutanen
Axilla
interquadrantär
Aufhärtungsartefakten
##ität
Symmetrischer
Ausgeprägter
Umschriebene
Flußsignal
er
Rosenberg
Linkskonvexe
größenregredient
welches
T-Wichtung
g
Deckplatten
Hemithorax
Abdominalorgane
Deutlicher
Diskreter
derzeit
Mediastromgebiet
##ren
Teilinvolution
Ergüsse?
Da
-Tesla-MRT
Herzschatten
Ödematisierung
Dislozierte
Pankreasgang
geehrte
Vergleichend
Ureters
Vorwölbung
besser
##ur
Haut
perihepatisch
Eminentia
Lokalisationsscan
##rn
Narbenverhältnisse
Hyperostosis
-Tesla
##tes
##min
Putamen
hypodenser
intraabdominell
Mediastinal
Spülung
vereinzelte
belüftetes
periradikuläre
LGZ
supratentoriell
größenregrediente
ACE
Kopf/Hals/Thorax/Abdomen/Becken
Physiologische
Fleckige
##ner
Inspiration
##id
TOF
seiten-
CT-Thorax
Prozess
inhomogener
atypischer
Problemen
periventrikulären
nahe
gezogen
BARD
Schmerztherapie
arthritischer
leichter
Kollegin
akuter
wenden
nativdiagnostisch
metastasensuspekter
Ableitende
angedeutet
Bewegungsartefakten
pa
##ma
Emphysem
hochfrontal
Heparin
CD-Winkel
Wirbelsäulenganzaufnahme
kräftigen
weiterführende
Reposition
Artefaktüberlagerung
kleinem
Schlingen
e.
basiläre
Luftüberlagerung
medialis
Danach
progredienten
##ste
Seitaufnahme
Mediastinale
operativen
MRT-Voraufnahmen
H
O
MRT-
Kolon
MR-morphologisch
psoas
hilärer
Saum
Inhomogene
glatten
projektionsradiographisch
Insuffizienz
VU.
liegenden
manuelle
tracheales
Porttasche
hyperdense
Kleinste
Karzinom
Traceranreicherung
metastasensuspekten
ausgedehnter
i
Weichteilschatten
Flüssigkeitseinlagerungen
s
familiärer
Femurkopf
Somit
Erweiterte
Leberzysten
Sterile
Übersichtsradiographie
Dezente
Femurs
Frakturspalten
waren
Granulom
Orientierend
metastasiertem
##kal
extrakraniellen
C.
betontes
Partielle
Position
postoperativen
kräftiger
verkalkten
subpleural
Inkremental-CCT
Hyperintensitäten
fachkundigen
konnektierten
Abgangsnah
tiefe
##ft
Prominenter
Minimal
aktive
Kranial
Instillation
Ektasie
cervikalen
hin
Lobus
Fixierung
PCA
Kapsel
Zeichnung
Aneurysmas
##be
Cholangien
ng/dl
ax
GK
Nun
Nativdiagnostisch
belüfteten
##an
NTx
Statische
BPH
Aufweitung
##schen
Größenkonstanz
diffusionsgewichteten
Transitionalzone
zystischer
Oberpol
abdominelles
Probe
##störung
Inkrementaltechnik
[
Arzt
Liquorzirkulationsstörung
telefonische
pleurale
osteolytische
Beinvenenthrombose
prox.
Primarius
EASY
mitabgebildete
fibrotische
Technisch
Gegenüber
Minimaler
Regelhafte
diskreten
gewinkelt
Dislokation.
NaCl
vermehrt
ebenso
Anstieg
##u
Ausprägung
lokalen
Kopfschmerzen
Pneu.
Mittellinie
femoris
Status?
Ventrale
Komponente
offenbar
hochparietal
frontoparietal
Bildakquisition
ggfs.
Schrumpfnieren
Stellung?
ADC
Mehranreicherung
##lage
Zu
angelegt
Vorhof.
Telebrix
Stents
Rezidivierende
einliegenden
periventrikuläre
aktuelle
##ös
##ra
Stunde
##ut
MT
implantierte
Sprunggelenk
Planung
Vene
Auslaufender
CCE
kleineren
intrarenalen
abdominell
DS
Rundherde.
Low
echoarm
Entfaltete
Ableitung
Orale
Katheterverlaufs
Narbenbereich
Szintigraphisch
##ve
Anzeichen
*Definition
callosum
Gallenblasenwand
partieller
mutmaßlich
Einliegende
Nierenarterien
Lebergefäße
typischen
##au
d
Narben
Mammae
demarkierte
Teils
W.
Erhöhte
aortal
Nierenbeckenkelchsystem
Befunddemonstration
Parenchymkontrastierung
trotz
Metastasen.
Atypische
supraaortalen
palpatorisch
KHK
##und
unklar
.-.
echoreiches
achsengerechte
klinischer
Ursache
magna
Knorpel
Neuroforamen
##katheter
fast
apikaler
Impression
##o-
Osteopene
peri
osteopener
kontralaterales
Unterpol
hierbei
schwer
##nz
peribronchiale
Nahtmaterial
Falle
Spiegel
Leistenhernie
Entnahme
IE
PET/CT
Mittlere
Lungenkontusion
Schmale
UV
atypisch
MPR
metacarpale
intrahepatisch
alter
-Zeilen
##he
Zyklen
Verbreiterung
##nen
mandibulae
vorderes
Verkalkte
Hypodensitäten
##stellung
Um
valgus
Puls
##ein
Derzeit
führend
Perikarderguss
Rundherden
##gefäße
Idem
Rest
Frakturzone
Leukenzephalopathie.
Scores
liegendem
Steilgestellte
##ment
fraglicher
Mandibula
##uss
##ts
Aortensklerose
Auffälligkeiten
erweitertes
Hirnarterien
submandibularis
##tt
Pleurapunktion
Segmente
##et
nimmt
initiale
OPS-
vibe
disseminierte
Omarthrose
kräftig
Gelenkfläche
Direkt
Koxarthrose
dorsobasal
veränderte
glatter
##aum
Grund-
NN
Anwendung
Starke
Verschlechterung
Lokalizer
Bildverbleib
entsprechen
Kinking
mikroangiopathischer
Schilddrüsenknoten
narbig
Schrankenstörung
echoreichem
sub-
Kieferwinkel
Begrenzung
##winkel
Gestern
##gel
Vorderhorn
Sternalzerklagen
Zirkuläre
Bandscheibenfach
VA.
Quer-
dünnschichtige
Sulcusrelief
Kyphose
akut
Schädelgrube
Untersucht
##öse
intrabdominelle
weder
intrakranieller
Syndrom
Talus
Versorgungstyp
W
S-förmige
Cholezystolithiasis
Seitengleich
CA
Zystoide
Angrenzende
##nah
Fett
Echo
Spondylarthrosis
Substitution
Speicheldrüsen
Anamnese/Frage
erosiven
längerer
Flächige
Übriges
geringes
verbliebenen
residuelle
nodosa
Hyperthyreose
Körperoberfläche
arteriosklerotische
eindeutiges
##il
insb.
Deckplattenimpression
Ab
mäßiggradige
Seldinger-Technik
Arrosion
Schilddrüsenszintigraphie
portalvenöser
neuroforaminale
zonale
Liquor
Subtraktionen
Proben
prall
Präparation
RA
T-gewichteten
fettgesättigt
##*
##ären
Ausziehungen
Serom
Arteriographie
ersten
Multislice-CT
sinistra
##zyste
E-Mail
##]
transversus
##gelenk
wäre
##Fraktur
Kelchgruppe
schilddrüsenspezifische
ihrer
Neurokranium
metastasensuspekte
folgende
cervikal
Gesamtvolumen
Nähten
Ruptur
Pleuradrainage
Ummauerung
Volumenbelastung
links-
reichend
beschriebene
AF
Betonte
Tiefendurchmesser
Bandscheibe
Saniertes
##karzinom
knotige
osteolytischer
Leukenzephalopathie
maligne
konfigurierten
Luft.
Signalabfall
Flüssigkeitssaum
Geringes
frontal.
fettgesättigte
tse
flüssigkeitsgefüllte
Normwert
retikuläre
subkutane
Beweis
vertebrales
Grundplatte
Lungenarterien-Embolie
Knöchernes
internen
vollständiger
zystisch
Implantat
##cht
geplanter
IP
locker
zementierten
Oesophagus
Hinterkanten
steriler
Malignom
Osteosynthesematerial
Prävertebraler
entfaltete
Angefertigt
Kriterien
Felsenbein
##-/
##sen
Kollateralen
##untersuchung
Kniegelenke
stehen
lag
gespült
Konsekutive
##e-
Flussgeschwindigkeit
Clips
superior/rechter
SD-Lappen
operativer
Abriss
##ktomie
AIC
Nuklidverteilung
Ossifikationen
rundlich
laterales
Pankreasschwanz
Andere
##zeichen
##nachweis
Seitbild
malignomverdächtiger
apikale
Myelons
Dose
betonten
ganz
##kt
RS
Linkes
parailiakal
flauer
Abschnitt
Larynx
Myokardszintigraphie
histologische
eingeschränkten
Pons
Schilddrüsenanteile
Lipom
Fragmente
Tarsus
Prostatakarzinoms
Liquoraufstau.
Aortenelongation
Bandscheibenvorfall
brachiocephalica
geringgradiger
##-OP
aufgetreten
Thoraxdrainagen
##ber
##am
Hüft
Lagekontrolle
Erhaltene
regelhafte
##keit
darstellbar
intrakutane
florider
Polytrauma
pneumatisiert
Außenkonturen
Antelisthesis
Zwischenzeitlich
Laminektomie
hepatisch
Dehiszenz
zervikaler
Er
Lyse
postentzündliche
Mark
Beckenachse
##pf
Tumors
regelmäßigen
##ern
Hämatoms
resorbierbarem
bildmorphologisch
befindet
Rechtes
Pedikelschrauben
Fa.
konnte
Zugangsweg
prä
RSO
##therapie
##plastik
werden.
dieses
##gewebe
Strahlen
Zervikale
##lle
Medial
problemlosem
Minderspeicherung
Harnstau.
DE
starken
Schwimmen
kontinuierlicher
jährliche
neben
Retrolisthese
Unterschenkels
Diffusionsrestriktionen
Bülaudrainage
glatte
orthograd
Duschen
Schenkel
Kontrastmittels
Schraubenosteosynthese
u.a.
Mastektomie
hyperintens
ND
Entfaltung
##artige
Prä
Sternum
Fadenmaterial
ACR
Neuroforamenstenose
Baden
##raum
Lokalisations
Dünndarms
geschützt
Hierbei
Fußskelett
intrakraniell
Versatz
##sse
Bohrlochtrepanation
##me
Schilddrüsen-
erscheinen
linksventrikulär
Cutis-
kariöse
Glatte
dargestellt
Regelmäßige
paraaortale
##sis
hochgradig
##über
Strahlentransparenz
Polypöse
Gelenkstellung
Zunehmend
fortgeschrittene
DCE
Thiamazol
Lediglich
LWS.
computergestützte
MF
Drüsenkörper
Deckplatteneinbruch
Sinterung
zirkuläre
diesen
Hand-
Bauchschmerzen
T-FLAIR
Stuhl
Fusion
osteoplastische
Zeitpunkt
Aufnahmetechnik
T-MPRAGE
##anlage
offensichtliche
Vakuumbiopsie
##ke
verbreiterte
Genu
cerebrale
Axillär
imponierender
##hen
peritoneale
chronologischen
Zusätzliche
AC
peripankreatische
p.
Herniation
##/m
Grundphalanx
NTX.
Massive
größer
SCT
vergleichbar
PZ
VCS.
unkomplizierte
atypischen
Shaldon-Katheter
Dorsal
Zement
posterioren
##darstellung
Ventral
breitbasige
mGy*cm
Nichtbenutzung
FAST
Meningeom
Adenom
Clearance
ileum
breiter
un
SWI
Mittel
Areals
##ien
ex
Sollte
interenterisch
submandibulär
Durch
einsehbare
Femurdrittel
##as
Signalqualität
Corticalis
Wiederholung
##prothese
##sion
Teilsaniertes
Sprechstunde
Zwerchfellkonturen
Facettengelenke
Nierenarterie
##age
Drüsengewebe
##defekt
ORIF
UB
Menge
umgebender
##ht
schmale
LA
Koronarsklerose
pulmonalis
Stern
schilddrüsenspezifischen
Breitbasige
max
carotides
Ligamentum
opticus
##liche
Übriger
eingebrachten
##bedingt
erhaltene
oben-außen
##betonte
##ol
mittelgradige
Eingriff
majus
Osteomyelitis
kurzer
neuaufgetretenen
Homogen
morgen
Scout
Pleuraerguß
klein
##aufnahmen
G.
Parotis
##erung
##la
##iger
Elektrode
streifig
Interhemisphärenspalt
V.a
X
SPECT-Aufnahmen
abgrenzbares
Vakuumphänomen
vereinzelt
Ca
Schilddrüsendiagnostik
##e.
Ovarien
erosive
verbreitertes
Vorrangig
geplanten
gleicher
Becken.
##tenose
dies
Lingula
Nucleus
Abweichung
Größenregrediente
Achse
p
Ileus
##at
ICB/SAB/SDH/EDH.
Gyrierung
trans
danach
Thyreoidektomie
##MRT
Projektionen
-dislokation
reaktive
Lokale
Substanz
dynamische
##io
Radiusköpfchen
erreicht
eingeblutete
b
APF
VCI
verlegte
Schwindel
##hr
paratracheal
Abfluss
nodulären
zusammen
breite
Schaft
##ben
HWS.
Sicherheit
Ausgeprägtes
Knickbildung
t
spezifischer
Untertunnelung
##ich
Hinterhorn
schmal
Entzündliche
Schilddrüsenparameter
BIRADS
Übelkeit
Frakturen.
präoperative
##her
##t.
lokal
kg
Doppler
Raumforderungen.
Flüssigkeitsgefüllte
PECA
Sklerosierungen
sag
AC-Gelenk
erhaltenem
##läsion
Seg
verteilte
diffusen
basilaris
deren
Restbrustdrüsengewebe
Gefügestörung
Ganzkörpervorrichtung
hyperintensen
diagnostischen
SKS
##ver
flüssigkeitsgefüllt
Mittels
Subluxation
Kreuzband
laut
Pyle
intraabdominellen
Greulich
Etwa
MC
Para
inklusive
Bauch
Basaler
Aktuelle
Leberarterie
Alkohol
##höhle
##befund
bezüglich
Seiten
infratentoriellen
##ae
Verletzungen
STIR
flächiger
Subcutisverhältnisse
Kallusbildung
TSE-Sequenzen
Übergangs
frontale
kontrastmittelaufnehmende
begleitender
Entzündung
Keilwirbelbildung
low
##enden
periprothetischen
Weichteil
##drainage
sei
ovaläre
Winkelergüsse
SIRT
reicht
Konsil
Le
Ambulanz
Bild-
Autonomie
gerne
Ossikel
myokardialen
Lidocain
##szintigraphie
Cerebrale
Scan
Fernübertragung
Schwere
AV
Lymphknotenstationen
D-Auswertung
Hyperintensität
Vasosklerose
##arthrose
Röntgenthorax
Befundtext
Territorialinfarkts.
##erte
Spiegelbildungen
##scher
auswärtigen
Intakte
selektiver
##des
kontinuierliche
Uptakephase
Scharf
LAD
Luftüberlagerungen
pleuraständige
bekanntes
Symptomatik
Glenoid
physiologische
Speicherung
Steigende
malignen
Pars
Regredientes
Basal
##nn
Arthrodese
Abschnitten
regredientes
röntgendichten
angehobener
Bullae
kurzstreckige
welcher
RK
Territorialinfarkt.
Fibrose
Sicherung
schlecht
Labrum
Cobb-Winkel
Osteophytäre
##ta
axillär.
Koronararterien
Sakroiliitis
Prostatakarzinom
stationäre
Peri
Suszeptibilitätsartefakte
knöchern
handelt
Lateral
Rundliche
ausgehend
maskierte
Kontusionsherd.
skoliotische
Gelenke
mmHg
##mer
Resektionsrand
Pektoralisfaszie
neurologischen
brachialis
erneuter
Reservoirs
parotis
Mundboden
signifikantes
##lung
linksseitige
aktiven
Kortikale
Bedingungen
Vgl.
Hüftkopf
##stenose
MRT-VA
Innenmeniskus
Ganzaufnahme
Topogramm
Punktionsstelle
Zurzeit
Konturen
##seitig
##ca
relevant
Lymphknotens
Architekturstörung
Herniation.
Morphologie
resorbierbaren
##ser
Psoriasis
MTP-Gelenk
sechs
demarkierenden
rechtsseitige
echoreiche
Mutter
PRT
Heterogen
ipsilateralen
PSI
altersentsprechenden
Orthotop
##nder
Arachnoidalzyste
Global
willigte
flache
Akuter
funktionelle
täglich
Mündliche
##eal
Unterlappens
Kniegelenkes
##graphie
Prellmarke
##nal
Portreservoir
Gemäß
##arterien
Sella
basal.
Verdichtungsherde
partielle
Isthmus
Afterloading
Gelenkflächen
ulnae
Lungenanteile
Randwinkelergüsse
portalvenösen
OP-
Re-
Konstantes
Herdbefundes
Aszites.
Osteophyten
##-Technik
zart
Transplantatniere
bolusförmige
Konventionell
Neurokraniums.
Fenster
retrocrural
##igen
Mittellinienverlagerung.
Explantation
##cal
fehlende
distendierten
Samenbläschen
##ent
diffuser
Stress-Szintigramm
##ungs
Dies
Serie/Image
massiv
mammographisch
dient
##tal
polypöse
##ag
##ex
luftgefüllte
freien
Elongation
##loge
Toshiba
Ganzkörperskelettdarstellung
Ruhe-Szintigramm
GK-Skelettszinti
##ulär
Jochbogen
SV
onkologischen
Stark
Befundverbleib
entsprechend.
Punktum
Lufteinschluss
Bogenovale
Substanzdefekt
Retraktionsphänomen
##-Fraktur
deutlichem
respiratorische
Seitenlappen
maximaler
MRT-Voruntersuchung
Lungenparenchyms
neurovaskulären
rechts-
sagittalen
Klammernaht
Hypo
kontinuierlich
Bi
r
schräg
Zyklus
##ät
##ngen
Fluß
begleitenden
sodass
Achsgerechte
Erkrankung
histologisch
OLT
Auto
atherosklerotische
Lockerungssaum
Organe.
OS
EPI-DWI
echoreicher
Appendizitis
Mitte
##ral
Informationen
Vergrößerung
ambulanten
reduzierte
Quantifizierung
se
Gegenseite
Morgen
Abszess?
analog
Für
rückläufige
Befundes
jodhaltigem
Brustdrüsengewebe
stehende
moderate
Scapula
##icht
##men
Gesamt-DLP
##CA
spinalen
inhomogenes
-x
antegraden
##minderung
beiderseits
Colitis
Chronischer
##ug
Änderung
perifokales
##J
jodhaltigen
Größenzunahme
Ausziehung
kutane
Reduktion
Anterolisthese
Mikronoduli
Bifurkation
Pneumonische
HzR
Kalk
Spitzenlage
Septum
##verlauf
Lungengefäße
Peripherie
ml/min/
Lymphknotenmetastase
u
Durchbauung
Malignes
Entleerung
SD-
Re
Thalami
Divertikel
Tc-m-MIBI
para
intrapulmonale
Hämatom.
teil
iliakalen
könnte
Biplanare
##Ca
##nahe
Sternalcerclagen
Weitgehende
Neuroforamens
Archiv
/-
Aorten
verläuft
Operation
Okklusion
Clip
FDG
cc
Unterfeldern
Claviculafraktur
geschlossenes
OF
##heit
Pleuraergüssen
##ine
osteosynthetischer
erscheinenden
transversum
Nitro
##ze
##förmig
rechtzeitig
cavoatrialen
##-Anlage
Zeh
Symphyse
##lappen
##lt
Leber-
dynamischer
PE
Rindenband
##rand
##ris
oberflächliche
kortikaler
Teilweise
Bulls
Störung
Sulcus
orientierenden
##gung
SAP
Eye
Region
inkl.
Vorbekannte
Akutes
Gesichtschädel
relative
##ktion
Laterales
##elle
Lungenemphysem
reduziert
Reflux
lotgerechte
Zuletzt
Formationen
lumbal
##.br
dedizierter
##ri
vereinbart
##weise
Anterolisthesis
schwach
Beginn
terminalen
Dick-
Hernie
##ken
J
zementierter
Kind
Raum
##hämatom
Mehrfragmentäre
planaren
Balken
auffällige
Gegebenenfalls
perifokalem
Bildkopien
medialer
verplumpte
frontobasal
ex.
Gy
Medulla
späte
Hämatothorax
Bildfusion
cm.
AZ
halbaxial
visuellen
kleinerer
##venen
Einblutungen
entleert
Durchleuchtungszeit
vorhanden
neuaufgetretene
Händen
paramediastinal
Gated
malignomsuspekte
lumbosakralen
##gabe
Kaliber
Kyphosierung
Erbrechen
J.
bestehende
Radio
hypointense
parenchymatöse
Erneute
Anforderung
Stenosierungen
Ausläufer
lienalis
Genese.
intra-/extrahepatische
durchgreifender
Lockerungszeichen.
dezente
Pankreatitis
Hyperdensität
http//radiologie.charite.de/pflegeleitfaden/
geplante
Lebermetastase
Schnittbildgebung
Kontrolluntersuchungen
Pleura-
normkalibrig
initial
Positronenemissionstomographie
Hüftgelenks
ionisierender
Muskel
subpleurale
Infektfokus
Funktion
Cavum
Knochenmarksignal
mGycm
Cauda
Absprache
größenprogredienter
Randbereich
##ide
Wenig
HTQ
Subclaviakatheter
##pathie
Leberteilresektion
postoperativer
bilaterale
Adaptation
Kaliberschwankungen
PPPD
k
neurologischer
angelegte
##gene
rheumatoiden
vergleichen
reaktiv.
##hl
##anteile
tra
unregelmäßig
Mittelständiges
Ebenso
Nierenpol
##li
schluckverschiebliche
##ast
Divertikulose
Oberkiefer
BE-OP
Absprengung
Saug-Spül-Drainage
MedVision
Innere
Herzschrittmacher
kleinfleckige
Zentimeter
Cutis
Ultraschall
lakunärer
Dickdarm
supratentorielle
Diabetes
Geringgradig
konventionell-radiographischen
Tibiaplateau
Konnektierung
##ärer
Hemikolektomie
##cher
positivem
interstitiellen
Aerobilie
Duodenum
Cochlea
Ergänzende
##knoten
Valsalva
anliegende
Raumes
rheumatoide
Krebsnachsorge/-behandlung
Koronare
persönlich
man
Transparenzminderungen
Direktzeichen
SM
Aortenbogen
Prothese
corticale
RF?
##di
infrarenalen
m.
relativer
##ka
##fe
Ihnen
steriles
Miktion
Entlang
Lockerungszeichen
WK
simultaner
Vorbereitung
rectus
PJ
Flächendosisprodukt
##verletzung
de
Risiko-
eingesetzt
infratentorielle
darunter
'
lobuliertes
epi
Unspezifische
umgebende
CT-gestütztes
Becken-
Als
Flussbeschleunigung
##arterie
perfundierte
Schallauslöschung
##ial
rezidivierende
prätracheal
SPECT-CT
Parenchymdefekt
eingestauchte
letzter
##technik
##ive
osteolytischen
Besserung
Darmwand
prä-
Vorbeschriebene
hyperdensen
regulär
median
GE
milchglasartige
Phänomene
steigende
Retraktion
MHz
##llen
MR-BI-RADS-Kategorie
Mamma-Doppelspule
##to
Halsgefäßen
Spina
##es.
##änderungen
Schmerzanamnese
##ci
Verplumpte
lumbale
falls
Großer
Femurschaft
zumindest
mal
starker
Manifestationen
##/S
##all
##sten
periartikulären
Bewegungssegment
GB
Wandveränderungen
Jedoch
sigmoideum
Split-Bolus
durchmessenden
##auf
OPTG
begrenzten
alten
Version
erscheinender
of
VP
Maskierte
U
geringfügig
Mediainfarkt
Gips
cervikale
Protrusion
##ums
Schilddrüsenkarzinom
Hypointensität
Größen
frontotemporal
Defektareale
##nahme
soll
Infektion
-.
miterfasst
##wirbel
Schaftbreite
Gliose
verschiedener
Intensivierte
Scout.
Teilresektion
Histologisch
prävertebraler
verminderter
Flusssignal
Residuum
Nebenwirkungen
##ko
VICRYL
Kombination
erwogen
Lotrechte
langfristigen
MW
Stand
Exstirpation
##nte
mammae
Signalintensität
ICA
Tumormarker
##tumor
symptomorientierter
kurzfristige
Raumebenen
präoperativen
##-A
bestehen
c
Unterschenkelvenen
Pedikel
setzen
Leberlappens
Risiko
temporalis
##ens
schon
unterer
akzentuierten
echoreichen
Serienangiographien
multisegmentale
Flüssigkeitsspiegel
Lungenanteilen
cerebralen
##alis
bisher
##cken
Fettgewebsimbibierung
frisches
Mamma-CA
verlaufende
Infarktfrühzeichen.
Präoperativer
intraluminalen
##blutung
supra
infradiaphragmal
scheint
##dem
atemabhängigen
##ierter
##-Katheter
Langstreckige
##so
DLS
Mehrsegmentale
abgebrochen
Befunderstellung
Überprüfung
Flusssignale
Th
Knötchen
Flussprofile
##ru
Leberpforte
##-S
aufsteigend
Kraniotomie
Abdominelle
mesenterialer
Ferguson
parallel
Ver
Lasix
##ium
Bauchdecke
Tw-
Herzverbreiterung
Artefakten
atlantoaxiale
verzögerte
Draht
knotigen
Mediastinalshift
mitabgebildet
ergab
##drittel
Parenchymechogenität
tiefer
Distorsion
Ileums
fT
Ga
Gammanagel
Nachinjektion
Schilddrüsenmedikation
organüberschreitende
Perforation
IVa
infra
Lebersteatose
##nden
Ossa
fibularis
Flash
Eigennieren
enhancende
Tiefe
Nierenparenchym
ver
spondylophytären
Druckverband
Zunehmender
vordere
Mineralisation
mittelständiges
##/A
zugunsten
einigen
US-
Frakturlinie
Flüssigkeitsretention
Verdrehte
##cus
Bildmorphologisch
Mineralisationsphase
Spondylolisthesis
bi
Harnstauung
Ansatz
gelenkgerechte
MRT-Untersuchung
##amm
System
dark
##pitze
Duschpflasters
Cortex
##volumen
T-Drainage
fatsat
Retropatellararthrose
normales
Während
Stoffwechselsteigerung
Post-OP
EKG-Registrierung
Dekompensation
verdickt
##zintigraphie
##ho
##tem
Bauchwandhernie
mehrfragmentäre
Coiling
großem
Portionierte
Pro
Flüssigkeitskollektion
##wechsel
atlantodentale
Hypothyreose
Schwerpunkt
richtungweisende
Sinterungsfraktur
verdrehter
schlanke
Monate
KM-Instillation
Hochfeld-MRT
Abgangs
Vor-CT
Drei
Aortenbogens
Ubiquitär
Retrograde
HU
Bilder
Spinalkanüle
Aggregat
Laborchemisch
dritten
PICC-Line
typisch
Hormonelle
##ster
Lebertransplantates
Kalzifikationen
Costae
intercondylaris
Torsionsskoliose
haben
erkennbare
Atemmodulierter
##ce
Hydrocephalus
Carina
##lateral
Thymus
Apex
hyper
ausgeprägtem
residuell
##-Ca
Nr.
Bronchialkarzinom
Residuelle
Entzündungszeichen
Revision
multinodosa
##ödem
Druck
##rte
hyperintenses
Ports
##uch
intracerebrale
##werte
natives
dezent
Lungenlazeration.
Intravenöse
Falx
Einliegender
##osis
##vor
Außerdem
Laborkontrolle
Ausstrahlung
cGy
Hüft-
Schichten
Dieser
Fehlhaltung
##/P
Nacht
Fibulafraktur
Adenokarzinom
IVb
zirka
RCA
Tubusspitze
Stoma
Femora
##up
Sepsis
##ö
Arthrose?
Noduli
##fall
Nervenwurzeln
ubiquitär
##veränderungen
Femurkopfes
inguinaler
##zeit
cm²
Zahnstatus
##co
Dann
L/
Mittelfuß
Hepatomegalie
Mamille
parietooccipital
Pulmonalarterien
gleich
vergleichbaren
internae
##-T
##ha
intrakavitärer
Sonstige
Nuklearmedizinischen
benignem
subchondralen
Zähne
Zugang
##fen
Artefakt
basilica
iliakale
Ileostoma
typico
Centrum
Bülau-Drainage
Reaktion
hierzu
Samenblasen
Coxa
Carotis
Muskulatur
Prolaps
Ruhezeit
internus
größenkonstanter
symmetrischer
##/-
Subtraktion
Vereinzelt
##dichte
florides
allogener
Zweitmalignom
Platte
Inter
##fi
Konsolidierungen
##un
##thorax
dafür
##ach
TcTU
subtotaler
DSA
Intrakranielle
minor
Rhizarthrose
Untersuchungstag
##cm/s
Stromgebiet
Periventrikuläre
Carpus
imponierenden
bildgebender
##ort
Einschätzung
Nierenzellkarzinom
Erosion
SRS
echofreie
##omie
##chi
Nekrose
SDS
Breitbasig
Parenchyms
##versorgung
Mäßiger
Resistance-Index
Erhöhung
LK-
Kalibersprung
verkalktes
älter
weichteildichte
Rektums
cor
unklarem
Luxation.
perifokalen
Marklagerläsionen
Mehrzeilenspiraltechnik
Verlaufsbeurteilung
Begleitend
Mastoidalzellen
Prall
##lär
nachweisbare
##rie
tauglich
zweiten
ausge
F-
Hemi
heterogen
Hirn
zeigte
physiologischer
generalisierten
Gelenks
Mammakarzinoms
Harnstau?
##gang
semiovale
Tibiaplateaus
TBC
Befundübermittlung
subphrenisch
##lis
Beckenring
##d-
Arthritische
gesichertes
##position
T-gewichteter
Periartikuläre
Hauptbronchus
Sludge
Computertechnische
größten
caudatus
vidit
CT-Voruntersuchung
Fr.
Gang
vergrößert.
progredientes
Abschließend
Herzkonfiguration
Alternativen
Diffusionswichtung
Achsabweichung
Hypophyse
Abkippung
portalen
Fersensporn
Dissektionen
Plaquebesatz
Umgebung
wenige
z
##überlagerung
##d.
unscharfe
ml/m²
Rö
raumfordernder
Oberschenkels
angedeuteter
unserer
Traumafolge
##ssen
Tel.
Rückenschmerzen
Dichtewerten
Va
BI-RADS
fehlenden
Lu
Weiterer
XG
AP-
ventrolateral
intrazerebralen
mögliches
##ele
pulmonalarterieller
Prozedere
DCIS
warme
Erguss.
L/S
Konfluierende
zweite
hinter
##ierende
Verfettung
besonders
Do
fehlendem
##va
Desweiteren
Supraspinatussehne
verstärkte
subcutan
Peritonealkarzinose
Tracheostoma
Mikrokalk
##phase
perisplenisch
Korrektur
Verschluß
abgangsnah
Media
Hüftgelenken
Wert
Ziel
##ls
atemmodulierten
nicht-
Ent
Persistierende
wirsungianus
Spondylodiszitis
Chemo
Sarkom
##tro
Lungenrundherde
zunehmenden
Ferner
Ileus?
spezifischen
parapelvine
AFP
##isierung
Wirkung
emphysematöse
Hyperperfusion
Disseminierte
subdiaphragmal
Relativ
vermehrtes
Lokalisationen
Stufe
Conus
dist.
keinen
##nung
Weichteilen
##a-
##raktur
kodierbaren
##aris
##/E
ausführlicher
Pan
Krankenkasse
FLAIR-
Laut
##igkeit
##i-
dichten
SSS
EVD
gewechselt
Kutisverdickung
Transplantat
Binnenmuster
dorsobasalen
##funktion
Subduralhämatom
##-Therapie
Ärztin
Bupivacain
Bettruhe
##ate
##l.
##diagnostik
##muskulatur
cCT
wandverdickt
##ap
##ei
schallauslöschende
s.
Gelenkerguss
Richtung
Rezidivs
Leberrand
tendenziell
Spätaufnahmen
Rückzug
zusätzlicher
statische
Groß-
-lockerung
Ad
Collum
Kurzachsendurchmesser
½
kortikal
Thorakale
##.-
Hepatitis
Infarktareal
kleinster
fünf
Grob
Bo
D-
pelvin
transversaler
strukturverändert
##fund
Augen
##sstörung
Bekannt
Wundverschluß
KM-Anreicherung
Ossifikation
Lawrence
röntgendichter
Funktions
korrekter
##reich
Atrium
statisch
heterotope
Generalisierte
radialis
plattenosteosynthetischer
Neck
verbesserte
AKE
runde
Multiples
fein
##l-
Größenkonstanter
Infarkt.
Arealen
Mediastinalverbreiterung
Lungenkreislauf
Hirnstamms
Kategorie
##änderung
Leberflusswerte
konventionell
früh
bipulmonal
##no
##mus
##bruch
periprostatischen
Retroperitoneal
Hirndruckerhöhung
Differenzierbarkeit
Seitendifferenz
Rückfragen
Röntgenaufnahmen
Aortenaneurysma
##zen
##op
restriktive
Infiltrats
Restharn
Na
##herd
##kation
Intubation
imponierend
Intima-Media-Komplex
f
##tik
Q
ICR
Ossär
Sekretretention
röntgendichte
Traumafolgen.
Kardiale
Cor
Knotens
Gehörgang
langstreckige
habe
vorbekannten
SPACE
zystoiden
Umbau
Cage
Nephrolithiasis
tibialen
Portimplantation
vierten
Basedow
arteria
anderer
##teilresektion
hilusnah
##ica
Hämatosinus
ausgeprägtes
##lu
mikroangiopathische
zementierte
externes
Einsatz
##enz
retroperitonealer
konstanten
diagnostische
Arteriosklerotische
Rücken
##rf
Jod
Ausgedehntes
Dichtewerte
Bar
residuellen
pharmakologischer
Perfusions
ASS
Haste
Kompressionsfraktur
Femurkondylen
Gerlach
##-Sequenz
##Fx
vereinzelten
Nierenloge
##tung
Ort
TSH-Wert
Caudatus
Venenlumina
AVM
infratentoriell
Strecke
Symmetrisch
aortopulmonalen
Signalsteigerungen
zerebellär
Nodulus
Grunderkrankung
auszuschließen.
Kontrollaufnahme
Mikro
Interventionsradiologie
Granulome
##del
möglichen
ange
geringgradigen
Femurköpfe
Behandlung
Knöchern
Oberlappenresektion
entfaltet
BWS/LWS
zeitgerecht
Unauffällig
Humeruskopffraktur
renalen
Pneunachweis
Schrumpfniere
femoralen
##ene
Schenkelhälsen
Bilaterale
Lagebeziehung
Hirnrinde
Marklagers
Lymphknotenvergrößerungen
##ro
Portkammer
Zug
##bild
Rundherden.
Degenerationen
akzentuiert
PEG
-oral-GI
##ula
lat.
AML
##ä
Wieder
Myelopathie
Charité
Gebauer
Verteilung
Skelettanteile
Pneumo
##ographie
Eher
##ps
vs.
Bosniak
II/III
##ischer
flacher
Nierendrittel
erfolgen
selbst
ROI
ACA
##ierten
Rindenfurchung
Hinterwand
Ausmaß
destruierende
Arterie
Kollateralbänder
##RA
USG
Hüftdysplasie
manus
aufliegendes
Schwäche
Uptake
Niereninsuffizienz
##system
##mg
lumbalen
sub
Dysplasie
Vaskularisation
dorsobasale
Oberlappens
osteopene
Abgeflachte
##ang
Rekanalisation
Rinde
Abgänge
LK-Metastasen
##LWK
pedis
Rinne
akutes
Herdes
##platte
regelhaft
Parese
ICB.
Anastomosen
##ff
abgebildete
##pe
##A-
Kurzstreckige
##nter
Gallenblasenbett
echoarmes
EKG-Elektroden
Band
Lokalrezidivs
durchgeführte
kleinsten
##tz
##verschluss
langstreckig
Alters
##gradige
##sfraktur
Meniskus
orthop
Suspekte
größeres
Nasen
De
##sa
Grobe
situ
Frontal
Regadenoson
Minderperfusion
hoher
randbildende
größen
Ergometrie
vorbekannte
Randsaum
Sinus-
Weichteilsubstrat
Inspektorisch
Erker
##rm
Z-Wert
##ker
gelöst
##bi
orientierend
absorptionskorrigierten
Abschnitte
##b.
letztmalig
gluteal
##punktion
Ärzten
Embolie.
Elongierte
Blasen
Erhebliche
##zug
Zweitkarzinom
Fax
##luss
seitlichen
gestützte
längerfristigen
Blutungen
temporopolar
Einbruch
bestehender
propria
%ig
##ab
Dosierung
Abstrom
##pol
Emphysemaspekt
Fuss
Bewegungsartefakte
Ankylose
anliegend
Strukturstörung
Dekompression
konstantes
Regelgerechte
nachgeschalteter
Fußes
##ogen
##nis
reduzierter
auftreten
Gefäßen
Pseudarthrose
Harnleiter
Kutane
Ausführliche
mikroangiopathisch
Sowohl
bspw.
Situation
AK
Reanimation
Mediastinums
Sub
##tomie
EKG
##Ver
##Stenose
##a.
PA
Geröllzysten
Meatus
##t-
ödematöse
iliacalen
Ovarialzyste
Fetthilus
Gastrointestinaltraktes
Äste
Prothesen
FA
##uf
Einverständniserklärung
##ti
##aus
PowerPICC
Jejunum
mitdargestellten
Mark-Rinden-Kontrast
spinaler
her
Brustwirbelsäule
Beratung
invasiven
Fe
Angedeutete
Zwischenwirbelräume
Rückläufige
OSG-
Lymphozele
Artefakte
Daher
asymmetrisch
Cerebellum
central
##ellung
##stand
Kontrastmittelenhancement
KM-gestützte
Fleckschatten
Fokussuche
##ea
periradikulär
Spondylosteochondrose
-MHz
perilokuläre
ARDS
##hin
LTX.
Berücksichtigung
##typische
Kleinhirnbrückenwinkel
Plantarer
Metastasierung.
E.
Rückfußachse
I.E.
parafalzin
breites
Hierzu
irregulär
Myokard
MCA-Teilinfarkt
Hysterektomie
Strahl
Ala
ließ
Auslaufende
Rötung
##tra
frontales
Bruchpforte
tibiale
Hypoplastische
##ip
Acetabulums
zentriert
neues
##uläre
Räume
fettgesättigten
Dual
Apikale
komplette
##pa
angedeutete
Hyper
Her
##VA
Bronchiektasen
Nierensteine/Abdomen-Übersicht
##struktur
Verhaltes
intraenterischen
Kopf/Thorax/Abdomen/Becken
Hepar
Innerhalb
prominenten
Mikulicz-Linie
##/V
Unschärfe
Punktförmige
vorab
auffälliger
angegebenen
Hirnparenchyms
##nk
Empfehlung
Sigmadivertikulose
##rom
Überlagerungen
ovalär
Wirbelkörperhöhenminderung
Beta
Verhaltformation
breit
Zungengrund
Hygrom
##na
massive
bilobäre
Pathologische
Late
malignem
Afterloadingtechnik
Unterschenkel-Venen
##\u
##lichen
abdominal
Signalalteration
Großes
konturierte
catheter
Spongiosa
retro
Per
corpus
Me
##are
Kortex
Metall
##kante
dilatierte
Instabilität
Spätphase
zentralvenöse
hypointens
##nie
IMK
unklaren
Scaphoid
Klinik/
Hernien
##rin
irreguläre
offene
mL
überlagerungsbedingt
DM
##ete
Unkomplizierte
##'
UK
Vi
wöchentlich
bestehenden
Nahtfixierung
FAI
dar.
Infundibulum
##rei
##usion
Ausgedehnter
Tumormanifestation
Hierunter
Venöse
##isation
KM-Aufnahme
Seropneumothorax
##tri
##ms
Ösophagusdarstellung
##-Untersuchung
Rheumatoide
Erfasste
wenn
Schleimhaut
FC
Implantationsstelle
Ha
U/l
Spondylolyse
Koaxialnadel
abgeflachte
Verdichtungsfigur
Ma
Geschehen
perivaskuläre
Fokus?
recht
Weichteilverkalkungen
##wert
Pause
Tuber
Komplikationen
Übersichtsradiographisch
Splenektomie
moderat
elongierte
perkutane
bessere
Inspirationslage
##rezidiv
multi
Erschwerte
##ions
szintigraphisch
Kopf-Angiographie
Plattenepithelkarzinom
direkter
inhomogenem
Mittelgesicht
peripherally
Pflege-Information
Thoraxaufnahme
Stentimplantation
geplant
Kopf-
Haftplatte
##ente
verzögerter
asymmetrische
Deckplattenimpressionsfraktur
weitem
erfasste
prävertebrales
inserted
Weichteilmantels
Heparinverbänden
Beine
segmentale
intraspinal
Tel.-Nr.
stärker
Kontrollen
Hypertension
perirenale
gestauchtes
Superinfektion
hirnversorgende
##stelle
Ausriss
PET-CT-Untersuchung
Liegende
vmax
erweitertem
bullöse
en
MM
Hinterkantenalignment
##phie
unspezifisch
##iv
Plus
Verschlüsse
Mehrzeilen-Spiraltechnik
##nge
##ales
OB
Grobmorphologisch
hintere
AV-Fistel
##licher
peritonealen
Knies
Antelisthese
##mann
##uß
MIBI-
Sekretverhalt
##tus
intrazerebrale
HWS-
Extubation
Hauptstamm
rundlichen
pontifizierenden
kalzifizierte
Röntgen-Thorax
Überganges
HWK/
Liegendaufnahme
medius
Paravasat
ödematös
Bestellnummer
insulär
##areal
Kieferhöhlen
StatLock
PICCE
##-M
orthogradem
extra
globalen
Syndesmophyten
##we
Makroverkalkungen
Alle
##hn
imponierendes
Cholezystitis
gewölbt
Dys
##IM
zeitgerechter
v
Skelettszintigraphie
##rk
Befundkonstante
Mediale
Angabe
##eren
post-
##son
T-FLASH
Euthyreose
Drahtmarkierung
Fundus
Ar
Angina
Subluxationsstellung
##gt
MR-Voraufnahmen
Hypertonie
Aktivitätsanreicherung
##ym
TW
Millimetern
##ruptur
Nierenfunktion
##verkalkungen
##körper
rechtsseitiger
##ade
veränderter
Darms
##can
Harnblasen
Vollständig
Osteom
##anz
I-
brusterhaltender
schmales
Alpha
demarkiertes
Konusstand
Perfusionsphase
pleuraständig
erst
atrophe
umschriebenes
##-G
Radiochemotherapie
Rheumatologie/Dispensaire
schlechter
Mann
Termin-
acusticus
achsengerechter
##ring
retrosternal
verschmälertem
Malignität
MRCP
##linie
spondylophytäre
##änge
coronale
ER
Zentrum
Terminvereinbarung
##r-
##ot
Vorderkante
Bronchitis
Supra-
##bel
cervicalen
Januar
Versuch
Endotrachealtubus
SLN
Euthyreote
Prä-OP
normgroß
mehrfacher
Beckenskelett
Schallbedingungen
Bandscheibeninterponat
dessen
Teilatelektase
inferioren
##II
Lumbale
axim
anteriores
Schultergelenke
Fingertremor
embryonaler
##itt
Aussparung
##tät
maschineller
Karzinom-suspektes
##yp
Lo
dazu
aufliegend
Signalveränderungen
##ann
Bursa
ggf
Untersuchungs
Schlag
Punktat
Mikulicz
Blutungs
BWS.
Verschlüssen
##MR
Prostatitis
##da
naß
MRT-Termin
##gramm
##-Syndrom
MCA-
Anteils
posteriores
Extraktion
hypoplastische
hiervon
Kalottenfraktur
##th
Darmgasüberlagerungen
Niedrigdosis-Computertomographie
leukencephalopathische
Clementschitsch
Nuklearmedizin
Knochenmarködem
initialen
paracardial
Unterbauch.
Neuroforamenstenosen
Subklaviakatheter
medialseitig
##druck
HE
latente
Radiopharmakon
##Technik
##ese
##one
hochgradigen
positiv
##pen
Canalis
Typische
In-
Gallengangs
abzugrenzen.
##insuffizienz
Hals-
##satz
Neues
En
Lokalisations-Sequenz
dimensioniert
Stellungsverhältnisse
Platzieren
Hierfür
Gangaufstau
ARFI
GBq
Flüssigkeits
Gastrektomie
HWS/BWS
Klavikula
##ir
Ki
KM-gestützten
Gelenkbeteiligung
venae
MCA-Infarkt
Lungensegment
##mal
belüftet.
Ta
Abgebildete
Mineralgehalt
abgerundet
##ers
##yse
generalisierte
Std.
Infektparameter
##tre
fortgeschrittenen
Neoplasie
Lymphommanifestation
sternförmige
Perikard
ge
Mastoidzellen.
Forschungszwecke
apicalen
intrarenale
harmonische
Ventrolisthesis
Zahnersatz
erhöht
Platzierung
##/C
zartwandig
technisch
sphenoidales
ärztlichen
Ergüsse.
systolische
spinosus
Methode
Liquorräume.
supraclaviculär
sicheres
##ef
Dislocatio
HTEP
Distanz
Geplante
Kontrastmittelanreicherung
Aorten-
Venae
Auffällige
Impressionsfraktur
##bo
Neuro
Xen
Fehlende
konvexe
Stoffwechsel
DJ
durchgängige
Mo
seitengetrennter
Sarkoidose
temporoparietal
Intensivierten
##mark
VK.
Außenmeniskus
##hals
Rückbildung
Li
##schatten
Durchgängige
Lungenabschnitten.
IMD
Di
-Tesla-MR
##seits
verdickter
Restbefund
Nachsinterung
Hinterkantenbeteiligung
berandeter
FX
koronale
##tu
minimal-invasive-ambulanz@charite.de
Exzision
ent
##Anlage
Retro
##verkalkung
me
Pleurakuppenschwiele
infolge
beschrieben
##tel
Verminderte
Druckbegrenzung
Frakturgefahr.
VFC
Beckenvenenthrombose
LKs
Radiusköpfchenfraktur
Lungenparenchymveränderungen
##hochstand
längliche
Begleitende
##ufnahme
Tracer
Ergussmenge
peripherer
fibrotischen
intramammären
Lungenperfusionsszintigraphie
Gliosen
cervicalen/thorakalen
ap-Projektion
kurzfristig
Hepatisch
CT-Aufnahmen
mikrochirurgische
##spalt
Primär
##ed
Konstanz
CT-Abdomen
Extra
##ekt
##mo
FG
Nierenvene
Mesenteriale
Transparenz
abgrenzbarem
Crohn
Blutspiegel
##hi
begleitende
##xi
##anteil
Wirbelkörpers
Komplette
##lo
TIRM-
Ausdruck
vorbeschrieben
vergleichbare
##-f
Marknagel
Pseudo
##zeichnung
infracarinal
fleckigen
Profil
##Re
##infiltration
linksventrikuläre
Achs-
cephalica
Ak
##Aufnahme
##si
##akt
postspezifischen
.T
Rasselgeräusche
##gs
Maß
fixierte
Verschraubung
Mikrokalzifikationen
Hippocampus
Folgeuntersuchung
Desinfektion
gehalten
Tri
##sin
stromaler
Zementierte
Leisten
Unmittelbar
Hirnvolumenminderung
lange
Früh
Bett
Strukturelle
Hämatome
Hoch
durchgehend
Tumorrezidiv
Führungsdraht
Acromion-Claviculargelenk
UA
Terminvergabe
Proximale
intraspinalen
Mammakarzinom-Belastung
Knochenstoffwechsel
prävertebralen
strukturellen
##weite
##vi
##och
pAVK
hierunter
Ausbreitung
Absenkung
Pankreaskopfes
NCC
Herzkontur
quer
halbe
##ischen
##parese
auswärtige
Volumenminderung
radiographisch
Fissura
achsgerechte
DWI-
biphasischer
Schilddrüsenparenchym
verkleinert
##ere
Körperstammes
osteo
Abhängigkeit
rundlicher
abdominalen
Cellulae
No
randständiger
bedingt.
Massae
Scheitelpunkt
Resistenz
##osteosynthese
Bipulmonale
##/a
Naht
Lakunäre
Femurkondylus
##llung
mittleres
echo
Venenkatheters
Zyto-/Histologie
##br
TTF
verdrehte
Miterfasst
Hernierung
Hypästhesie
bilateral
darstellbaren
glandulärer
##tze
Sz
Osteoblasten
Randsinus
mehrfach
Impingement
TAVI
Intra
Schlaufenbildung
Anreicherungsherde
weiteres
Fußwurzel
Unterarmfraktur
Ge
hemisphäriell
schmalen
nennenswerten
Makro
subkortikal
AvD
Vorderes
Transformation
rechtsbetonte
pelvinen
TIPSS
abge
Keilwirbel
CABG
perihiläre
Sulci
Abnahme
##ds
subtotale
massiver
Heterotope
Flussverhältnisse
Atrophe
signalreduzierte
Wandverdickungen
Ganzkörperaufnahmen
Verzögerte
Imbibierungen
dopplersonographisch
##Y
subkutanes
lokaler
Fensterung
Mischbild
residueller
Mai
Filiae?
Vorgehen
Resorption
##cho
Mu
##µg
maschinen-assistierte
##kel
Primäre
Cortexband
latus
retrokardial
##artig
Bereits
postentzündlich
pontin
umschrieben
Laterale
Paraaortal
nodulärer
http//radiologie.charite.de/pflegeleitfaden
Mastodynie
Spondyloosteochondrose
##sel
Mesenterialwurzel
Komplexe
##osa
ischämieverdächtiger
Harnwege.
pleuraler
Wohl
##tur
Pfannen
Ohne
sklerosierte
Befundbesserung
PD-
Übertritt
femoral
communicans
Körpergröße
Metatarsale
##gebiet
inter
Drainagenanlage
##sh
##reaktion
gemischt
erbitten
##los
Daumen
T-hyperintense
Fragestellung/rechtfertigende
##unktion
##entfernung
axillaris
Höhenminderungen
Belastungsherzfrequenz
schwere
Dyspnoe.
aktivierte
Massa
blande
##ST
CCD-Winkel
führende
Kiefer
computertomographischen
dargestellte
Verkehrsunfall
Prozesse
Mediastinalverlagerung
##fa
Einstrahlung
Ast
Un
##ub
klinischem
##metastase
linksbetonte
einige
Messgenauigkeit
Abdecken
Osteotomie
Linksbetontes
Diffus
tibiales
Daraufhin
FSE
gastrica
##!
##ante
Infarktdemarkierung
##tellung
Progredientes
Oberflächenspule
persistierende
Inklination
duodeni
caudati
Pariser
Implantate
##ystem
##durchmesser
Nachfolgend
Flow
Asymmetrische
##ender
##opathie
unge
Substrat
Koronar
Tumorresektion
##ob
Trans
MR-tomographische
gewölbte
Lymphknoten-
Ganzkörper-
##rd
Aneurysmata
Sa
##tin
##go
##band
Ventrikeldrainage
Bek.
/LWK
Myelographie
##tischen
rückläufig
darüberhinaus
##ildung
Unterlappen.
submaximaler
Template
Lungenteilresektion
TIA
KG
##ome
geringere
Geringfügige
##/M
viel
superior.
sagittaler
blutungssuspekten
Konvexsonde
Deviation
gewichtsadaptierten
Spinalkanalstenose.
BDA
enhancender
CC
streifigen
Volumina
##äste
linksseitiger
##trauma
atheromatöse
##-Resektion
Sekretion
offener
##zierte
Kalklast
ziehend
SPECT-Daten
##implantation
##muster
##ati
Co
rezidivierenden
Skleroseinsel
Entlastung
hinsichtlich
Te
TOF-MRA
Sternotomie
##ek
Sonographiegestützte
##lter
parakardial
Untere
Lokal
Wirksamkeit
myokardiale
Knochenmarks
Triam
##/L
Lungengerüst
kurzstreckig
Atem
##fragment
hypodenses
Umstellungsosteotomie
Diffusionsgewichtete
Dorsaler
##per
i.m
Vergrößerter
Schwiele
PICC-Line-Implantation
Gelenken
schmalem
Handgelenks
##iertes
zeitgerechte
fleckig
Rechtsdominanter
größtenteils
Zwerchfellbuckel
##läre
letztlich
konsekutiven
##defekte
at
##Katheter
Harnblasenwand
Sofern
Schall
Beschwerdepersistenz
auszuschließen
Ergusskomponente
##-E
Parenchymstruktur
##rp
zentrisch
Ödems
hypodens
Peritoneal
##zone
##größe
adjuvante
Sakroiliakalgelenke
Rettungsstelle
##onde
verbreiterter
mittlerer
gynäkologische
Bizepssehne
Verdickungen
##/min
##/I
##naht
ähnlich
enhancenden
Massiv
##form
versorgt
liquide
Corona
globaler
Hodgkin
Abgangsbereich
Wirbelsäulenspule
Haupt
antero
MR-Angiographie
heterogen-dichter
Weichteilvermehrung
TSH-
Ri
Lückengebiss
Shunts
präpektoral
Lymphadenektomie
sofern
##j
artifiziellen
Unverändertes
radiologisch
##verlust
rechtsbetont
Ovarialkarzinom
Nasenseptumdeviation
##saum
externer
Doppelniere
durchführbar
Hirnödem
cerebelläre
H-TEP
Tumorkonferenz
##knochen
Pi
Beweglichkeit
mässig
ulnaris
arthrotische
http//radiologie.charite.de/pflegeleitfaden/leitfaden\upicc\upflege.pdf
nuchal
disseminierten
SI
##Therapie
##klerose
Formalinlösung
Abszedierung
malignomverdächtigen
Unterschenkelfraktur
##rterien
##cer
Single-Photon-Emissionscomputertomographie
Ischämien
Hyperdensitäten
Flüssigkeitseinlagerung
##gie
Leistenkanal
##uma
parietale
durchmessender
##-R
kräftigem
Dignität
Thrombektomie
Plattenatelektase
intrarenaler
Brustzentrum
##-Ver
genannten
Lappengröße
Deformierung
##lumen
weitgehende
in-
Ileus.
##zi
RFA
Ganzkörperszintigraphie
Tentorium
B-
##sta
##vene
##opf
##mit
Felsenbeine
präsakral
LK-Besatz
Aplasie
##-Fx
##ogene
sonstige
##/Becken
Dorsobasale
CR
konsekutivem
##mor
##sti
gefüllter
Fingergelenke
##bauch
Wunsch
Vorbehalt
Hyperplasie
Fabella
Erste
Mund
Flüssigkeitsformation
plötzlich
and
OP-Gebiet
Bulla
Rotations
konsekutive
Riss
MD
Hautdesinfektion
Narbengewebe
##ik
Schilddrüsenhormone
##kopf
##erguss
durchgeführten
##ise
thromboseverdächtiger
##T-
Mess
Flussumkehr
postischämische
Verdickte
Beinvenen
##ellen
I-II
dringend
Marklagerveränderungen
Wa
Vorgespräch
VSM
Materialbruch.
##halten
Kautelen
Eingestauchte
Asthma
##-Be
Wirbelkörperfrakturen
Studie
##spitze
##rä
endgültigen
betroffenen
Anisomastie
erfolgten
koronaren
Sehnen
Ruhe-Myokard-SPECT-CT
Man
palmar
dichter
ADC-Map
##its
##ven
Wachstum
##umor
beteiligten
##-Sequenzen
Weichteilhämatom
Luftnot
Unterfelder
##/s
SSW
Leberparenchyms
gesteigerten
Lumbal
##rkrankung
Baastrup-Phänomen
##äsion
##eck
höhengeminderten
Transversale
naviculare
##ons
Lebervene
Weiteres
Schulter-TEP
Kontrast
grenzwertige
##sto
postprandial
akzentuiertem
Lordosierung
prominentes
umgebendem
jederzeit
Mögliche
Myelopathie.
euthyreoter
##hy
perifokale
ml/s
Anastomoseninsuffizienz
##ni
Hilfe
##bedingte
umgebend
MA
Ä
Perfusionsdefizit
kariösen
##os
AS
vierte
Spektren
parietookzipital
Vorbestehend
T-BLADE
Carotisbifurkation
Bruchsack
spricht
Starkgradige
leichten
tri
Lungenfibrose
Externes
Schema
SPECT/low-dose-CT
##nsch
##ina
reaktionsloser
Op
Selektive
##feld
Ventrikelweite
##bare
unauffälligen
Technetium-m-MIBI
Orbitawand
ML-Verlagerung
verlagert
EDV
oblongata
calcarea
Vortag.
Tbc
##suspekte
Organkonfiguration
hypervaskularisierte
hypertrophe
Magenhochzug
##zu
##chmerzen
okkulten
Messlokalisationen
Epi
schlank.
strukturelle
US-BI-RADS
PM
##ppe
##tor
Mehrzeilen
##-H
erschwerte
Osteo
Stein
Anfall
mitangeschnittenen
##ße
##narbe
Si
diskretes
Clipping
parietalen
flauen
enger
Al
Aktivitätsmaximum
##zer
##xa
frischere
Begleit
gutem
PIP-
mäßiges
##ostomie
Infusio
infratentorielles
##ak
##Sch
Astrozytom
ZNS
HB
Abfall
##gl
##fach
Rezidiv?
##rat
Organsysteme
##ono
##lin
Dichteanhebung
hinweisend
seitdem
L-
##oe
interstitieller
Zeitgerechte
##/l
##/T
##pro
verdächtig
ergänzend
atroph
D-Dimere
##rs
anschließende
sonstigen
sein
abgelehnt
Wächterlymphknoten
Vorderwand
Verfügung.
TIPS
projektionsbedingt
Erosive
thalamisch
Spule
Pulmonalarterie
parakolischen
##-Ma
visuell
adäquate
Kon
##freie
di
Punktions
Älterer
##osi
Densitometrie
Aktivitäts
Hauptbahnen
pT
Übersendung
Wirbelkörperfraktur
Segmentarterien
hypo
Tg
Nuklidmehranreicherung
Zisterne
##assoziierte
he
Aquisition
##ark
Effekt
winzige
Kochsalzlösung
interaortokaval
Lamina
Autoimmunthyreoiditis
##ys
Stress-Myokard-SPECT-CT
restlichen
nuclei
Innenohr
TAVI.
paravertebralen
Haus
ZVK-
langstreckiger
erneutes
##nst
meningeales
Filia
CMRT
##höhe
klagt
Kreatinin
##iti
intraspinale
VB
Nierenbeckenkelchsystems
Lunar
DPX
One
zerebraler
sämtlicher
Fahrradsturz
##ess
Verdrängung
##-B
MP
Pa
oberer
Orthotopes
sekundären
Chiasma
##ib
Folge
##en-
Knochenaspekt
##barkeit
Leistungszuordnung
Campus
hohe
Abszessformation
##pi
Knochenfragment
frühem
Spalt
Kongruente
##er-
was
Infarktdemarkierung.
Einbeziehung
##bau
offen.
TX-Leber
##rer
anlagebedingt
Grenzwertige
su
dilatierter
##US
Perfusionsdefizite
Beckenarterien
##infarkt
Wund
Parenchymblutung
##läsionen
Randanbauten
werten
Mehr
Femurkondyle
Körpergewicht
SP
Seitensymmetrische
##ton
##lk
mi
raumforderndes
ordnungsgemäßer
fluid
Lockerung.
Kalkplaques
Tumormanifestationen
##zell
echofreies
Hypophysen
Aufhellungssäume
##lutung
Birads-Kategorie
Verknöcherung
##mp
##komponente
facialis
Kollateralisierung
##rtige
Ödeme
Normales
problemlos
Bandscheibenfächer
##inf
Endphalanx
Ne
##ki
prominent
##tum
paraaortaler
dystelektatische
also
Beinarterien
assoziierte
Ro
sonomorphologisch
infrarenal
Unter-
Magenwand
Bick
größenprogredienten
Be
power
##ans
Rektumresektion
Ho
FF?
Drahtcerclagen
##-p
FATSAT
Pulmonalvenöse
Splitbolus
CCC
Signalinhomogenitäten
NW
Mal
protrahierte
Anhebung
rechtspektoral
hyperintenser
St.
spurium
Mitabgebildet
be
AII
##sus
Mittelhand
Unterlappensegment
Auflagerungen
Mastopathie
##gelenke
paraaortalen
getunnelten
Hypervaskularisation
Aphasie
##ara
Subchondrale
Myelom
Atherosklerotische
planar
Nebenbahnen
Geringgradiger
Familie
horizontale
Abgrenzung
unregelmäßige
injection
distendierte
disease
Gewicht
Fi
anschließender
Kortexband
Korrigierte
wandverdickte
Dekompensationszeichen
interaortocaval
cerebelli
fistulösen
Linksbetonte
Mitabgebildetes
##ignal
deutliches
Lokalrezidiv.
##parameter
##ieren
##fer
fachkundige
##Gelenk
##gefüllte
thoraco-lumbaler
subakute
Fraglicher
##formation
Abrissfraktur
##stomie
Inhomogenes
TPO
Mehrfragmentfraktur
Pneumonisches
##-P
Kar
Ba
unverändert.
Multi
Frakturfragmente
CE-Winkel
##nc
##ektion
##xo
knotiger
Entzündungs
Bestrahlung
blutig
Besprechung
perirenalen
bandförmige
Dem
##enk
Kor
Colonrahmen
wegweisenden
##syndrom
##eit
lunatum
Grundplatten
Cervix
Protrusio
unvollständig
ovalärer
diskretem
Unklares
März
Faux
nass
Relativer
Konturunterbrechung
Kurzachse
F.
Milzhilus
Abszesse
gestrigen
beidseitige
Synkope
LL
hypointensen
Hormon
Fa
Fahrrad
CT-Fremdbilder
Spätaufnahme
absolute
Vermehrter
Binnen
##fläche
Resektionsfläche
we
zirkulär
plus
osteosynthetisch
Restaging
thrombotischen
Mi
Gesicht
Milde
MAG-Clearance
##ata
##-Di
anschließenden
KM-aufnehmende
Hochrisikosituation
Einsehbare
zweifacher
planare
Längsbandes
Ex
##Untersuchung
Hüftköpfe
Druckmessung
##ßen
dadurch
verbliebene
ha
Ventilation
Flankenschmerzen
Offene
ob
Unterbrechung
Chemoembolisation
##S-
dorsolateralen
Fibroadenome
operative
flava
diesbezüglich
Neuaufgetretene
Aderhautmelanom
##Winkel
Hyperlordose
Dünndarm.
Gallenblasen
##g.
Konglomerat
subkapsuläre
Pu
##pie
Stellung.
##fo
RIs
Bilddaten
##basis
##leich
##durch
Mündung
##eri
Malignoms
##terial
##ppen
##geb
LV
##beteiligung
Vor-Operationen
Lungenunterlappen
Ventrikel.
veränderten
Peroxidase
##betont
humeri
Diskretes
Pylorus
anzahlvermehrte
Lokalrezidivs.
stattgehabte
Aa.
Hyperdense
Fehl
##yn
seitensymmetrisch
Subtotale
abgebildet.
Cages
Mikrokatheter
Mamillenschatten
Dr
Filiae.
Beckenorgane.
##/D
subtotal
Ko
##wie
Schallauslöschungen
PET-
korrelierend
Pharynx
Inkremental-CT
##teri
Malformation
cavernosus
##halt
Verletzungen.
Loco
unscharfer
Partikel
##De
septierte
Inguinal
Schicht
##ative
Zervikal
Unterkiefers
Coils
Fr
Abdominalorgane.
Dura
##bene
Subileus
maligner
Enthesiopathie
Adnexektomie
stattgehabten
Thorax/Herz
erosiver
eingebluteten
Einschmelzung
Singuläre
Inspirationstiefe
##oid
Darmwandverdickung
WK-
Abstrom.
retrosternale
Deutliches
##örung
Punctum
##einander
konstant.
Belegung
##-CA
µg/l
Signalabsenkung
Rektumkarzinom
und/oder
Wiederaufbau
Thoraxapertur
Pankreaskorpus
Intraabdominell
Befall
prominentem
PV
Beck
regredienten
jugular
randständigem
dorsalem
Hr.
PKW
Hepato
##eb
sagittalis
Sondenspitze
Blasenkatheter
HCC-
Krea
Bloodpool
plantarer
Post-KM
Dünndarmschlinge
##ali
vermehrtem
Mehrzeilen-CT
Thoraxabschnitten
Hemisphäre
Flanke
##örmige
Größenkonstantes
inhomogenen
Blutdruck
ethmoidalis
Kortikalisunterbrechung
Anfertigen
##ersatz
niedrig
do
angrenzendem
periostale
tumor
Progredient
Polyurethan
KMT
##platten
Thoraxskelett
Ballon
hepato
posttraumatische
Brustwand
##fs
sternocleidomastoideus
VSC
##äh
##iss
Dickdarmschlingen
Ampulläres
Volumen-CT
Handskelett
Bohrlochresiduen
Resektions
Beckenschaufel
Hämo
##agen
##-In
##ly
##luxation
Progress?
CCM
Tra
Nasopharynx
UL-
seitengetrennten
Tibiakopffraktur
##val
Nasenbeinfraktur
Architektur
Schilddrüsensonogramm
##Implantation
##chs
intrakranielles
betontem
Trotz
##ld
##chmerz
Hochstand
Befundänderung.
##tent
ACVB
Knochenzyste
Hub
Bronchial
subdurale
Zentrilobuläres
So
aktueller
LJ
Restaktivität
parailiacal
Becken/Bein
##eten
U.
##ini
Mittelohr
parajugulär
mechanischen
caroticus
beidseitig
osteoblastische
Beckenringfraktur
##herde
PICA
Ausge
poly
##m.
sa
level
Aortenbifurkation
Drahtzerklagen
##mi
progredientem
##tter
##-Winkel
##hernie
dorsalis
ausgedehntes
Beidseitige
##tein
Ger
Epiphysenfugen
wandständige
##verlagerung
Re.
Hochfeld
Lungenmetastasen
##cc
Maxilla
BSP
CISS
##gabel
##typischen
subclaviae
erste
Bohrloch
Radiojodtest
Flüsse
typisches
Weichteildefekt
##verdickung
Meningen
Anti
VFS
D-TOF
##dorsal
Mittellappens
Lokalisationsscans
CT-Ganzköper
##ok
Linksventrikulär
Epicondylus
##phal
perihepatischer
aneurysmatische
SCHILDDRÜSENSONOGRAPHIE
Telefonnummer
##otische
Bogengänge
Ventil
Fibrotische
Coil
Irenat
##unter
##dial
radial
##sierte
Übersichtsradiographien
entfalteten
Zwischen
SHT
postspezifische
Spitzenprojektion
TVT?
Handwurzel
signalabgesenkte
mechanische
Hämatom?
##zunahme
##tan
fronto
Ausläufern
##les
##ile
Herzen
Bronchien
##messung
ergometrischer
EPI
Luftband
Alignement.
##kalkung
##Sp
single-Lumen
klar
Gehstrecke
aufgetriebene
Auge
##tom
##nom
erhöhtes
Ganzkörper-FDG-PET-CT-Untersuchung
Bogenabgangsovale
abgekapselter
Verhalte
abgekapselte
ähnliche
lineare
Altersnorm
##orn
Höhen
Interventionsbereitschaft
##Segment
Implants
Aortensklerose.
Lungenarterienembolie.
BP
Form/Lage
##vermehrung
hypoechogene
länger
##ör
adultes
Neuroblastom
Erstellung
Institut
##falls
breitbasiger
Amputation
inneres
Prominentes
Ödem.
gestaucht
beispielsweise
Magenkurvatur
Degenerativ
Kopfschmerz
Total
##gu
Immun
DIP-
zieht
nächste
erweitert.
Flair
ECMO
##/p
##/F
##als
Ösophagusresektion
traumatische
Computertomographisch
##atz
zartwandige
uteri
präbulbär
##ad
Reklination
##üsse
##törung
Lumbalpunktion
Bilddokumentation
Aufnahmeposition
CBF
AMI
Sch
Rechtsseitige
Parameter
la
hochwahrscheinlich
Iliakalgefäße
##s/
verändert
extrem
ACG
Körper
Interlobium
##kalk
singuläre
Osteotomiespalt
linksbetontes
##vo
Verlaufs
Tuberositas
rückläufiger
stenosierende
regelmäßige
intraorbitalen
Substanzdefekte
Relative
Deck-
Teile
Passagestörung
##ili
Nagel
Fremdaufnahmen
ME
fettige
##Tx
##-D
ethmoidales
narbiger
mind.
##sal
##pan
##tive
Knochendichtewerte
kommende
Aortenklappe
stereotaktischen
hyperperfundierte
gewichtete
WS-
außerhalb
Tu
Bronchiektasien
NI
Miterfasstes
##uck
gewichteten
erbitte
##cu
mammographischen
SH-Schwellung
disloziert
##-F
immer
abdominale
##pp
##kat
Zartwandige
##ul
##tig
##rh
Nerven
LTx
Hochdruck
Korrelat?
entsprechendes
MCP-Gelenk
hinreichend
Serum
Knochen-
Beinachse
Lakune
##zysten
Prostatektomie
farbkodierte
Nadel
Klein
FT
versorgter
##last
eingenommen
Pharmakon
Mastoids
Portanlage
Gallenwegsystems
Lateralisierung
Erscheinen
Verglichen
präzentral
knöchernes
TH
PACE
schmerzhafte
perfundiert.
Sentinel
Initial
##halb
##ai
##achse
Weichteilverkalkung
Mamma-
Luftgefüllte
Kariöse
Pleuraschwiele
Multislice
Foramina
paraaxiale
Flusskontrolle
##gment
Aufhellungslinien
##bs
erforderlichen
Minderkontrastierungen
##tte
Narbenhernie
seröse
##nger
ovale
Unterlappenteilatelektase
##Kontrolle
##kontur
##eus
RF.
##-Aufnahme
##Syndrom
Tibiafraktur
Stent-
##tand
Rest-
##use
##kanal
##ct
Laboratoriumsmedizin
##länge
##do
kräftiges
angegebene
Rindenmarkdifferenzierung
Pathobiochemie
Schilddrüsen-Hypophysen-Hypothalamus-Achse
ST
Innen
##ase
Prostatakarzinom-suspekter
L-L
post-OP
Berandung
lokalisierte
##trophie
unerwünschte
Engen
##nteil
KM-enhancende
Februar
##projektion
benachbarter
Äußere
Infarktareale
##schmerz
##orische
##iale
##egment
reaktiver
intermittierende
ziehende
ausführliche
Spacer
Mamma-Präparateradiographie
Auslenkung
ischämische
Halbwertszeit
##ER
##ry
konkrementenfrei
Normalgroßes
Karotis
filiforme
Harn
Ausräumung
tastbare
µg/d
offenen
##m-
Inhalt
##ant
##adi
Unterfeld.
##ute
##etzung
Scheitelwirbel
Einblutung.
ta
dynamischen
Ileo
##RT
##eter
##breite
Fortsetzung
##ondyl
##art
minimalen
Druckgefühl
Dicke
##saufnahme
##nti
##noduläre
endokrine
##phänomen
OP-Klips
TCTU
Sigmaresektion
Manubrium
erkennbar
brachiocephalicus
Biliom
geführt
Hygrome
Konventionell-radiographisch
Maximale
Pankreasparenchym
##veränderung
vd
Pe
Gefäßs
Handwurzelknochen
##ink
Weichgewebe
verplumpt
##inter
kon
Psoriasisarthritis
bilobär
Lymphangiosis
Emphysematöse
Platten
Aussackung
Querschnitt
NVK
##kompression
berandeten
Mitabgebildeter
He
##ression
radikaler
Ober
Gebiss
##nat
vorbestehend
ischämischen
Sigmadivertikulitis
Pouch
##ble
##rg
posttraumatisch
gefangener
transtentorielle
diensthabenden
Kardiomegalie
##ord
##male
Glioblastom
gezielte
klare
zusätzlichen
intraabdominal
##erten
konsolidierter
##üllung
supraklavikulär
Befund.
Zusatzbefunde
ESK
Postoperativer
auffällig
Knochens
dezenter
alters
Urin
Lumboischialgie
Einmündung
isp
##du
retrocardial
##intense
Parodontitis
Knie-
Normalisierung
##perfusion
füllt
Sämtliche
Stelle
ausgedehntem
Flüssigkeitseinlagerungen.
Durchmesser.
##truktur
##sweise
Wange
##Thorax
ZVKs
suprakarinal
steht
April
Abschwächungskorrektur
##bin
Min
##lon
-bruch
##bt
retrocruralen
Tumorkontrolle
Befundprogredienz
##M-
größenkonstantes
Verkalkter
SPECT/CT
gewonnen
Traumafolge.
Ch
Tx-Niere
vorbestehenden
Sigmas
Ausdünnung
Darmschlinge
Verkalkungsstruktur
Kurz
##e/
##k-
PAVK
Hiatushernie
fortgeführt
VMS
abgrenzen
##basal
pneumatisierte
komplizierte
##öser
##äu
##que
##nlage
##kon
regredient.
inf
Po
spontane
komprimiert
subhepatisch
Hirnvolumenminderung.
DJ-Schiene
seiner
Akzentuierung
##-e
##otomie
fortgeschrittener
##ü
femorale
##int
fett
vitaler
Nase
##kapsel
Chronisch
##SS
lokales
##rale
Medialisierung
korrespondierend
digitaler
Restriktion
##plasie
##atose
verbracht
##IS
##ges
##signal
##schwellung
Vertebralis
Gicht
echogene
CO
Knotige
dilatiert
Femurhals
Abszesses
##us-
##logisch
Nuklidspeicherung
Zuweiser
##wä
vorher
Hals/Thorax/Abdomen
Werte
RV
Aufhärtungsartefakte
##tzen
##bogige
##äres
temporale
Abdomen-
AICD
##blut
langer
Hämangiome
Endlosdrainage
Beatmung
Anpralltrauma
farbdopplersonographisch
scaphoideum
##mittel
indirekte
Kopf/Thorax
w
distales
##cor
##ktur
subkortikale
pleuralen
Peritoneum
MIP
Bas
Anal
##ständig
horizontalen
Wirbelkörperhöhenminderungen
Voralarm
US-BI-RADS-Kategorie
##erf
##ösophageale
hämodynamische
auslaufend
dissection
BZ
##/B
Tibiakopf
Septen
SA
Inhomogen
lytische
Appendektomie
##ül
##darm
Duplikate
Dia
##lus
incrementales
##quenz
Sehne
Pankreascorpus
Frischer
##sonde
anteriorer
Rechtsherzbelastung
##eta
Fragments
intracraniell
dose
##endes
Pfanne
normalem
Weichteilgewebe
Trümmerfraktur
##oc
##biopsie
Ganz
##/d
Nierenbeckens
##ür
Ohr
epidurale
Flussprofils
F-Schleuse
##F-
lo
##oden
Präparateradiographie
perikardialer
gravierende
Tumoranteile
Ce
##sonographie
Weichgewebsvermehrung
errechneten
LK-Metastase
August
##sbe
##ist
subcutanen
Fehllage
OL-Resektion
Leukencephalopathie
Leberfiliae
##-Gabe
##grund
##dense
Hi
##eich
MRT-Kontrolle
Lungen-
Verkalkungsfigur
Sheldon
##rothese
##ow
##kin
geringfügige
echovermehrtes
neuro
Olecranon
Farbdoppler
Diskus
strangförmige
HSL
Altersgerechte
##TA
leberarterielle
Konnektion
##sp
Jeweils
Arteriae
##bein
Verstärkte
BSV
##tale
Verhärtung
Mehranreicherungen
Cobb
multisegmentaler
gemischte
foraminale
Gerät
reichende
EOS
##uer
vergleich
Kieferhöhle
##met
falciforme
Auffällig
##-C
##bestimmung
Ange
##punkt
Plazieren
außerdem
Lungenrundherd
Hygromsaum
##tä
Gelenksspaltverschmälerung
##neu
negativ
Schallverstärkung
Bezüglich
konturbildender
kompletter
Supinationstrauma
Pleuraempyem
minder
Schultergürtel
##/U
subcutane
Kompartiment
Intima-Media-Dicke
Z.A.
Reiz
parakolisch
##sd
Unterschenkelarterien
Klavikulafraktur
Cerumen
vermindert
Möglichkeit
Diamox
entzündliches
##mie
##V-
##erende
subdurales
Verdichtungsstruktur
pN
##typ
##ommen
##lagerung
##erkrankung
mikrobiologische
schwache
Zunge
parietal.
Pedikelschraube
##-ge
zentrilobuläres
Exostose
##V.
Hauptstämme
Cast
wirkt
oberflächlichen
erscheinende
Mar
##ebene
spinosi
rascher
Wirbelkörperersatz
Zystennieren
sämtlichen
Normwerte
perifokaler
Confluens
##inal
##eo
Dixon
ga
Verhalt?
Oberbauchorgane.
gemessene
erheblich
Glenohumeralgelenk
rechtem
beidseitiger
Pleuraschwielen
Linksseitige
Indikationsprüfung
##äm
##rge
perilienal
Längsdurchmesser
Lungenflügel
DIP-Gelenk
##ittel
##versuch
ne
Vermutlich
##lie
Zufallsbefund
Hypoplasie
Zirrhose
Stress-Myokard-SPECT
DJ-Katheter
##eite
Osteodestruktionen
Kalotten
CUP
##nekrose
##ino
vergrössert
##depot
Nanokolloids
Kaliberunregelmäßigkeiten
Drüsen
##typisch
medullaris
Subkutane
Leukos
End
##weg
##gefühl
Spiegeln
sch
Und
##dia
Avulsionsfraktur
brustwandnah
Ulcus
Spiralfraktur
Deckung
stoffwechselaktive
##/CT
Hemithyreoidektomie
PLIF
Lebensjahr
Mutmaßlich
Splenomegalie.
Globus
Condylus
##thrombose
##ständige
Dystelektasen.
##blase
territorialer
medianen
Bronchopneumonie
lakunären
pleural
Pyelonephritis
##og
##lose
To
Thromben
##seitige
kavernösen
Einleitung
Altersmaß
radiata
La
umliegenden
TRAK
Juli
intraperitonealer
Schilddrüsenloge
caudale
Zi
Größenprogredienter
##ins
reizlos
Mehrbelegung
##Be
signal
kranio
bihiläre
Demenz
Bisher
##kg
##isierte
##atelektase
gelenkbezogene
##zellen
thrombotische
Intervertebralraum
Großzehengrundgelenk
NTX-
Serien
Hiläre
Bandscheibenfaches
Retinakula
Anzahlvermehrte
##kelett
randsklerosierte
##ies
##Ga
mehrfachen
Mittelphalanx
##chnitt
ar
a.e
mTc-markierten
sk
Aortendissektion
metalldichte
Laborwerte
##ui
randständige
Sitzen
Polabstabd
Glenoids
##rsch
Listhese
invasive
##lar
vergrößertem
mäßiggradiger
vera
##mmer
##ipp
Harnblasenkatheter
Größere
##sbedingt
intramammärer
choledochus
restriktiven
Unterbauchschmerzen
Polypoide
TOF-Angiographie
Hilusregion
SL-
Beines
Wirbelkörpern
Lakunärer
##²
November
BLADE
##gesch
mehrsegmentale
##herapie
Eingebrachte
Weder
Lungena
verändertes
Lungenveränderungen
Becken/
##avi
zunehmendes
Muko
histologischen
##ventral
mittelständig.
extra-
Spondylose
##olumen
sekundärer
Blockwirbelbildung
Deg.
du
Hochgradig
pneumatisiert.
VIII.
Koller-Pouch
##nten
koronal
al
##MBq
zentro
##verschmälerung
##icher
blutige
Ku
Schluckakt
EKG-
Aktivierte
Ventro
Monroi
Arthralgien
Fissur
Infarkt?
T-hyperintensen
Laparotomie
##ln
sollten
Schenkelhalses
Rectum
Fre
sterni
hämorrhagische
Schulterspezialaufnahme
Beckenkamm
##Sonographie
##lation
retrospektiv
Ersatz
Mediateilinfarkt
Korrespondierend
##kus
##atöse
glenoidale
erschienen
##Ma
Tibiaschaft
SVT
Radiojodspeichertest
##res
grosse
Ph
Gehörknöchelchenkette
##tischer
Trochlea
Sequenzielle
Meso
Gelenkspaltes
##arm
verlagerte
Subcutis
##tr
Hydrierung
cerebraler
Reaktive
Abszeß
##igung
rechtskonvexer
Herzvergrößerung
suboptimaler
##ust
Ber
Arcus
##kulär
demarkiert
Lymphommanifestationen
##eu
gleichzeitig
Rippenbogen
Diagnose/Fragestellung
kontrastmittelaufnehmenden
Chondropathie
##sig
ZWR
occipitale
Gastro
##palt
Schulterluxation
therapieassoziierte
Verschlusses
versus
mu
malignomtypischer
korrespondierender
##umbau
##uli
Einzel
Vorbefunde
Textur
parietotemporal
konsolidierende
outlet
befundbezogen
Tumorsubstrat
versorgten
erhebliche
Subacromialraum
Aufzweigung
radialseitig
Visuell
##uti
seröser
U/ml
Tendinosis
Stenose.
höflich
Weber
RE
##physe
größenregredienter
LUAE
##-Katheters
##rre
##egel
Quer
##Im
##wi
isolierte
##kale
##iel
Retrospektive
##zt
BS
##schenkel
gewertet
Obere
##chte
dünnschichtigen
Schaftfraktur
##perforation
##nitt
radiodense
mikrobiologischen
apiko
Radioembolisation
Dichteminderung
the
Ste
Querfraktur
abschließend
Test
Stenosen.
inlet
##stische
paravertebrale
LAE?
osteoporotische
multifokale
Ossärer
Wirkungen
Knochenmark
##/Sch
Portkatheter
Nierenparameter
##Gy
herdförmige
Befundverschlechterung
##haltige
sonografische
Parkinson
Lumeneinengung
Irreguläre
VSL
Abdominal
##operation
##hte
Alignment.
pi
iliacae
gesch
Vaskulitis
älteres
zahlreiche
Hautfalte
flash
Anbetracht
Tc-m-
Pneumektomie
Nierentransplantation
Thorax-
Gefäßdarstellung
verschlossen
mittelgradig
Kalzinose
##EN
##gefäß
rostral
Tubuslage
Klassifikation
BAA
##LA
Angulus
##ple
##oli
Ruhe-Myokard-SPECT
##IR
##schmerzen
##q
##nch
##im
##alt
Bauchorgane
##-V
Spinalkanalstenosen
##förmiger
weicher
manifeste
Radiologie
keilförmige
kaudale
Bursitis
##kuläre
dichte
Block
Befunddiskussion
nennenswerte
Schmorl'sche
Resektionsdefekt
##-I
Betracht
##edi
##-Ab
##zystische
ra
intern
erhaltenes
Marklagerhypodensitäten
Konturunregelmäßigkeit
Jahres
BWS-
##hren
periprothetischer
[I]FP-CIT-Aufnahme
Lymphknotenmetastasen.
Periphere
PIP-Gelenk
Intervall
/.
##lb
##eitig
##aren
einliegendes
Embryonaler
##logische
Wandung
cervicale
PR
##fäß
lehnt
Seitdem
RI-Werte
Knochenfragmente
##ielle
normalen
Milchglas
rund
nachweisbaren
Skapula
##tat
##logie
Milzpol
##echo
suspektes
mikroangiopathischen
##/O
##lität
perirenal
TE
Polyp
Thrombosierung
Längsbandverkalkung
Kreislauf
T-w
Aneurysmasack
##CC
##lia
Wirbelsäulen
##-o
##tige
RIVA
Du
##SI
Trepanationsdefekt
Pigtail
Perfusionsstörung
##por
##agerung
Hirnvenenthrombose
##sit
##ssi
eng
##fekt
Urothelkarzinom
##kte
Pulmonaler
Lungenoberlappen
Bolus
##fett
Antibiose
##nf
nekrotische
CP
##-Kontrolle
Sonomorphologisch
Distal
Schleimhautfaltenrelief
##ran
Evaluierung
tumoröse
bipulmonalen
Speicherflächen
moderater
domo
Vergrößerungsaufnahme
laborchemisch
Infarktes
Vier
Femorotibial-
Facettengelenks
##yste
##gio
intrapulmonal
Fall
Bronchus
Schiene
Daumensattelgelenk
##zele
##Infiltrat
##pulmonale
##ichte
Bauchaortenaneurysma
Carotiden
Abend
##/Ver
trachealen
flüssigkeits
aufgebrauchtem
Orbitabodenfraktur
Brustkrebs
unsere
Bes
größenkonstanten
##-Gelenk
##frontal
aufgetrieben
Symptome
##SE
gestaute
Postprandial
##equenz
befindliche
ausführlich
Kräftiger
Anästhesie
##meter
Schwangerschaft
Hydrozephalus
##-Drainage
##iden
kardialer
Unterlappenatelektase
Stationsarzt
Kleinhirns
##nan
Duodenums
Beins
##belegung
dignitätsunklare
Kalottenfraktur.
Cholezystektomie
Abflussaufnahme
Teilen
Stichinzision
Handgelenkes
Aktivitätsausbreitung
##ill
grobschollige
##gr
a.e.
TA
##nha
##anreicherung
Nativ-CT
stereotaktische
geblähte
NPH
weiche
arteriosklerotischen
anteilig
Rückenmuskulatur
Liegend
Aryknorpel
##eg
sklerotische
Sonografie
Rö-Thorax
##iom
temporalen
residuelles
Resttumor
Remissionskontrolle
Beckengefäße
##amt
Verhalts
##ösen
Zeit-Aktivitäts-Kurven
##pel
##metastasen
Poly
Plastik
Spiral
Abflachung
##ziert
ehemals
Darmgas
Nähe
Kardio
Mikro-
kraniozervikalen
intraartikuläre
Arterieller
##qua
mehrfragmentärer
RR
Einzelner
##iß
Herz.
Wachstums
TEP-
##-L
##'s
MCP-Gelenke
Entsprechende
Achsen
gedacht
ektatische
Supervision
SD-Knoten
Sp
##-l
Korpus
Flüssigkeitsansammlungen
##lyse
randständigen
Gen
##teile
begleitendem
Gegenphase-Sequenz
##hende
DIP-Gelenke
##spiegel
osteoplastischen
abgerundete
Nebennierenraumforderung
##gh
Bauchaorta
proximalis
Restpneu
Resektionsgebiet
Lockerungssäume
zirkulärer
Befunddynamik
##lager
##atrophie
##able
Notfallindikation
Aortenklappenersatz
##/sub
postoperatives
##-SPECT
koronararterieller
umgehend
Sero
Platten-
Miterfasster
Köpfchens
Kaum
Hashimoto-Thyreoiditis
prinzipiell
cT
Fragmentes
##zephal
##pha
##kul
Koronararteriensklerose
Rück
polypoide
intensivmedizinischen
##-Rezidiv
##oide
##nadel
uterina
Spi
Abdomensonographie
##vic
lipomatös
Lymph
HIV
Gra
LITT-Ambulanz
##-a
##ette
stehend
schwerer
Vorhaben
sin
Seropneu
Nierensequenzszintigraphie
Fistelgang
Apoplex
##bung
glenohumeralen
Schilddrüsenkarzinoms
##tl
##-k
##-Re
##erhöhung
##ec
mamillennah
Kompaktainsel
Endglied
semi
LW
kompensatorisch
op
Mesencephalon
Kardia
Je
##cin
mesencephal
aufs
akutem
Lebermetastasierung
Eintritt
##chw
nächsten
Hohe
Bronchopneumogramm
##n/
ventrikulären
frontaler
##schraube
Feinnadelpunktion
Apikal
##ehen
teilverkalkte
Tabelle
##Sequenzen
##rest
konsolidierten
##ite
Myokards
acetabuli
ALL
##-K
Resterguss
##ba
LK.
Funktionsanteil
##yl
OP-Clip
##grenze
Fieber.
##reite
positiven
ac
##sst
stärkste
sichtbare
Pectus
Erneut
B-Bild
##era
II-III
mellitus
Spondylophytenbildung
Füßen
##B-
pu
LK-Stationen
submental
PET-CT-Befund
Nierenfunktionsszintigraphie
Überblähung
arthrotischen
Verbliebene
##od
mitral
Schultergelenks
##sf
##llu
bilateralen
Kniegelenken
subkapitale
nodulär
ger
Ovarial
##ses
##ndi
##mma
Osteosyntheseplatte
##ung.
##tten
kalten
Nierena
maskiertes
Sofortmaßnahmen
Dünnschichtige
-.x
##urz
##ala
##medial
##Pro
Ruhephase
subarachnoidale
Umgebungsreaktion
Ru
Ligamenta
##ruch
subcortical
monophasisch
Netz
MKE
Faszie
##RI
##pho
##oca
Y-
Dialyse
##rter
Divertikulitis
Sanierter
Aortale
##schnitt
##eis
##ane
##merzen
Ganzkörper-PET
##-Sp
kalte
gastroduodenalis
Meningeosis
K.
Bolusförmige
##Sequenz
projizieren
Arrosionen
evtl.
##oss
Kontrastmittel-
##ja
Versch
thrombotischer
spezifische
pertrochantärer
Obstruktion
Monokelhämatom
seitlicher
Rundherdes
Tumorrest
Pleuritis
Bili
##po
##ier
cortical
Zehen
Herzachse
Einsch
frühen
Hirndrucks
Akroosteolysen
kardio
Röntgenbild
Li.
LVEF
Hüftkopfes
abnehmende
PICC-Implantation
sup
ischiadicum
intensiv
Bezug
NPP
Flexur
##ph
papillärem
Diffusionsstörung
##In
radio
##/b
VII/VIII
Syndesmose
Pertrochantäre
carcinomatosa
leichtgradige
##zonen
##uell
##ild
ligamentäre
Definition
##wer
Familienanamnese
Doppel
Monat
Granulomen
Infiltrates
Sekundäre
Post-
OK
Herden
Ang
einfache
Schräg
polymorphen
ante
Sonografisch
OPMG
Dichteindex
anhaltende
Kiefergelenk
monophasischen
langem
VIE
Atelektasen
lokalisiert
Prothesenschaft
dorsalseitig
deshalb
Vom
solitäre
Aussage
Adeno
pelviner
Knochenmetastasen
Dekompensation.
##oll
primärer
Zwerchfelle
##kum
Wohlbefinden
Enhancements
##man
radiodensen
gutes
Zystektomie
Epiglottis
Carbostesin
to
kontralateralen
epileptischer
My
einge
Retention
##-Ein
mediolateral
fokales
sonografisch
Verbringung
Vorbestehende
wachsende
postentzündlichen
or
Tante
##ep
destruierenden
anti
retrograder
o.
gesamt
Subtraktions-
##tions
verkleinerte
regelhafter
messen
altes
##rän
fibro
Abszess.
##-An
echofreien
aufgelockerte
Oktober
Gesamte
##bett
thorakales
Tw/FLAIR
Groß
##ösung
##ic
##atische
Kontrastmittelaussparung
##Ab
verstrichener
Hydronephrose
GFR
Drüse
hyperechogene
Tc-m-DPD
Nebennierenadenom
schlankes
Schläge
konstantem
inguinal.
##unt
##ssch
pulposus
##Th
Akut
Thyronajod
papillären
Tunnelung
Noduläre
os
Liquoraufstau
##mel
##fü
milde
Mucus
##eil
relevantes
Zeilen-Spiral-CT
PACS
##jektion
##haut
gestaut
MRT-VU
Fein
##C-
##injektion
dennoch
Größte
##dung
Systems
PIC-Line
Maschinelle
Fibro
##ahn
Tropfen
Fortführung
linkskonvexer
Inkrementale
Ganglion
differentialdiagnostisch
Winkelverkürzung
Tages-Protokoll
##ato
##laterale
Juni
Infektion/Abszeß
ERCP
##gra
prophylaktischer
pontifizierende
VKB
Tx-
Hin
##pla
Flussgeschwindigkeiten
Druckgradient
Ben
##ac
mo
Lymphadenitis
Supra
Koronar-
Blutungsquelle
##uptur
##G-
##abs
Koronale
##-Stenose
Zwischenwirbelraum
Restgewebe
Prostatahyperplasie
Papilla
Voll
Fokal
Ergusses
Dezember
Kontusion
##osition
nachfolgend
Durchgehendes
Körperhöhlen
Intervertebral
Dünnschicht
##urchmesser
supraaortal
Vergleichende
steilgestellte
Segmentgrenze
gewonnene
anzahlvermehrt
Verbandsmaterial
##nische
sulcale
Postop.
Infarkten
Flüssigkeitsverhalte
##Ä
Parenchymlippe
Nasenhaupthöhle
Ac
zweimaliger
Präoperativ
##/h
##pfe
parasagittale
Den
Ante
##cke
Nuklid
##/Re
##ßt
rarefizierte
angedeutetem
Unterlappenresektion
##WS
##RF
Demineralisation
ausreichende
##kla
##ch-
Auss
##stumpf
mitgegeben
bilateraler
Kollateral
scharfe
Punktion/Therapie
##vas
FDG-avide
##köpfchen
##angiographie
kurzstreckiger
Empyem
##ero
Zielläsion
Breites
##lz
Seitensymmetrisch
Positionierung
Knochenläsionen
##enen
LWS-
Hb-Kontrolle
##Bild
mg/dl
communes/internae
##lp
mittelständigem
Klinik?
Bildmaterials
##kro
seitensymmetrische
deformierte
Mittig
Magenblase
##ichtung
darstellen
Befundkonstanz.
Gelenk-
frühe
Wegen
Segmenten.
Infiltrationen
Dauer
##gener
ansteigende
Stenose?
NN-
Befundprogress
##ulation
##rauma
##els
##bra
breitem
##oper
subakuten
hyperintensem
Wirbel
Pericarderguss
DIXON
Ring-
Lot
##ystische
paranasalen
CD
semiquantitative
Zentraler
Kolo
##KM
Gefäßstrecken
CF
##wa
kurze
erniedrigte
entnommen
Nephroblastom
Hause.
Nierenversagen
##ulmonale
suffizient
Sediment
Anfang
Listhesis
##bul
##AT
gelingt
Beschaffenheit
Ret
##ria
##hs
##dingt
korrespondierende
Markraum
gescatterte
bestätigt
Venographie
Plasmozytom
erforderlich
aortale
Gewebes
femoro
Zusammenhang
Peritonitis
Schilddrüsenhormon
V/VI
Iliakal
Hinterkantenalignement
Deformität
##hö
##bus
Sinusrhythmus
Ve
Rö-
##al-
entleerte
##Co
##cale
terminale
länglich
Vergrößertes
ossäres
Orbito-Meteal-Linie
##Becken
akzessorische
##post
##ball
Stärkste
Standarddosis
Pathologien
##Arterie
##tio
##temporal
Nabel
HP
unverändertes
mikronoduläre
Prä-OP.
damals
PSU
##pat
diesbezüglichen
Restliche
##Me
Enukleation
##Drainage
##/para
übersichtsradiographisch
Unscharf
Atemgeräusch
##haltung
mittelgradiger
Weichgewebs
Halbwertzeit
##lan
wegweisende
##wei
höhengeminderter
dritte
Solitäre
Gewichtsverlust
Radiotherapie
##lä
Liquorräumen
lokoregionäre
externae
ano
Recovery
##Ba
Herzfrequenzanstieg
##g-
Sakral
aufnehmende
regredientem
flüssige
Kollateralphänomen
Einengungen
BS-
posttherapeutische
beg
Tendenziell
Intaktes
##kopie
##erter
punktuelle
le
VI/VII
##um-
kollabierte
Zwerchfellkuppe
Kalkdichte
Becken-Bein
##gradig
konfluierend
DVA
##LD
##umen
abgesetzt
##ain
Gelenkes
fl
Temporal
##ano
Zentralregion
##sches
OL-
##oa
ml/kg
gesicherten
echoreduziert
Knochendeckel
Fahrradergometrie
##lum
Einziehung
##ön
##sat
##eur
K-Draht
Mitral
Hinterkopf
Gefäßa
##xel
Cu
Ankylosierung
Parkinson-Syndrom
Nebennierenmetastase
Mehrverfettung
zusätzliches
##/R
unveränderten
##port
##order
##nu
ischämischer
Knieschmerzen
Gelenkspalts
##hung
sign
Metacarpale
Crus
morphologisches
Seitenventrikelhinterhorn
##su
##lastische
präoperativ
i.v.-
endo
##dose
Schwester
leider
##wurzel
Älter
sakral
Orbitaboden
Ra
##lem
mäßiggradig
mediane
KV
Leckage
I.e.
Einsehbarkeit
##suspekten
atypisches
##situation
Sin
KM-Applikationen
##Ka
##set
kompensierte
Zökum
Lungenlappen
##ick
Pankreaslinksresektion
Echoarme
Atenolol
unten-außen
##zeichen.
##ylo
##ron
##omen
Vigilanzminderung
##mme
##fluss
versch
myokardiales
restliche
irregulärer
inferolateral
Ovars
Temporallappen
Kurzfristige
##dom
extraaxiale
Blutdruckanstieg
##grafie
Stanz
COPD.
##Verschluss
##nre
##leber
malignes
##urch
##haft
vorderer
##ou
Belastungs
##idal
inspektorisch
bzw
anterolateral
unkomplizierten
größenprogredientes
##ttel
samt
intraabdominale
umgeschlagen
VI.
Diaphragma
##mt
sigmoideus
Taubheit
KM-anreichernde
##onen
thoracolumbalen
Kleinhirnhemisphäre
##nar
##ckel
hochdruckkompartibel
Lufteinschlüsse.
Fast
lymphonodale
extrakraniell
Tumor?
##lig
subcorticalen
heterogen-dichtes
fettreiche
Schambeinastes
##idu
Ubiquitäre
PowerPort
Fettläppchen
verbliebener
diskoligamentäre
Schwarte
Messung
##y-
##vis
##tation
Sakrum
##-h
sta
speziellen
infrarenales
##efund
situ.
intermittierend
Beckenorgane
##ore
##phy
Kontroll
zeitgleich
Vor-
##sonographisch
##peicherung
Triggerung
Pankreasschwanzes
##ationen
liquiden
##lte
Tc-m-MIBI-Injektion
Lungenödem
##sehne
striatokapsulär
fleckförmiger
Oberbauchschmerzen
gluteus
##ras
##ee
Brust-
##verteilung
trabekuläre
Projektion.
Knochenödem
Ggf
osteodiskoligamentäre
Xylonest
Taubheitsgefühl
Kontusionsblutung
röntgendichtes
hypertropher
At
cortikale
Anschnitt
gelegener
as
Ov
lage
VBC
Retropatellar
##-c
##oph
thoracalis
NHL
LC
Dickdarms
Umstellung
Psoas
Raffung
Stereotaktische
##ket
##erfusion
Vasospasmen
Sk
Konkrements
persistierender
##ole
##anteilen
Vers
AC-Gelenksarthrose
/-wege
##xt
##the
zeigten
Gleason
##manifestation
Mundbodens
ISG-Arthrose
##gehend
osteopenem
fixiert
Bl
##sie
praktisch
Varusfehlstellung
Relevanz
Epiphyse
##Di
##-De
##ezi
intraperitoneal
Rei
Lebersegmenten
##telektase
##nahen
##esch
Acetabulumdach
##fra
##bei
konsolidiert
gefangene
sinnvoll
aufsitzendes
##nfarkt
##gest
Omarthrosis
##rah
##erg
mediales
VD
Hodens
proteinreiche
narbig-
cardiale
Siphon
Rechtsbetonte
wenigen
vorzugsweise
##teil
Schild-
Doppelkopf-SPECT
##-Sch
##ty
##nce
Y
Tastbefundes
Pleurakarzinose
Parenchyma
MR-PSA-Dichte
##intens
neuroforaminalen
Sche
hypermetabole
hi
sp
perihepatische
infiltrative
##-typische
Territorialinfarkt
Ap
##uh
##adenom
verschmälerter
Doppelbilder
Datentransfer
##schluss
##lockerung
##iges
pertrochantäre
Tw-hyperintense
kontrastmittelanreichernde
Or
Fx.
##itäts
postaktinische
initialer
feinste
Kontusions
Abschluss
zurzeit
direkte
GB-
##Vor
lat
dixon
##endo
Tcm-
##-MRT
##sarkom
einliegend
Felsenbeins
Kalkaneus
Ausgeprägt
##-re
zerebelläre
Defekten
##verdächtige
durchsetzt
Lymphome
##jugulär
Shuntverlauf
Qu
LP
Kolektomie
Segmentes
Malignitäts
##wunde
M-
##tti
frontoparietalen
Extern
##oberfläche
##inge
##frei
Strahlengang
##nze
##inie
##ehr
Polyarthrosis
Komplex
##ue
##gi
gelegentliche
##stu
subkapsulären
Schilddrüsens
Fil
Ay
orthograder
Micro
Perfusions-
##mpf
Mitangeschnittene
Mediastinalstrukturen
Halbjährige
##oxi
##dis
führt
Weichteilödem
Pen
symptomatische
Brachytherapie-Katheter
##lli
muskuläre
Thrombusmaterial
KM-Injektion
Hardcopies
Femurschaftfraktur
VII.
Leberwerte
##kop
punktförmigen
SSL
Inkarzeration
Hochdruck-Kontrastmittelinjektion
T-Haste
Acetabula
##je
intraabdominell.
Mikroblutung
Deckplattenfraktur
primäre
##tfernung
##Op
Dysarthrie
##Abdomen
erwägen
September
Hirnbasisarterien
Flankenschmerz
##ass
infektiöse
OSG-Arthrose
HD
##parietal
vorge
Winzige
Spondylitis
##nose
##fla
##cker
indirekter
VS
CCE.
##kter
messend.
ans
CT-Punktion
Tablette
Nachblutung
Äquivalent
Perikard-
T-MRT
##ener
bifrontal
##-se
triphasische
fällt
Kinder
Fettlamelle
Darunter
Axial
##seite
##normal
subklavikulär
Endoleak
medikamentöser
kalkdichten
Volumetrie
Thoraxschmerzen
abges
Ps
quantitativen
abzugrenzen
Inhalation
Humerusschaft
##pneumonie
##füllung
##est
##ardi
unterschiedlicher
heterogene
erfolgter
Ob
Milzgröße
Messungen
Ablationsareal
Iridium--Quelle
##lor
st
optici
fi
Einzeit-Hochdosis-Bestrahlung
##Stent
##prä
##luß
anreichernde
Stuhlgang
Nuklear-OP
Gas
Fu
OP.
verbleibende
mg/
Defektzone
##FS
##ämie
##nteile
Gegen
##ret
verdächtige
ur
##audal
adjuvanter
Wirbelkörperhöhen
Milz.
##usl
##plastische
Bestrahlungsplanungs-Workstation
leber
Gesamt-
Gelenkspalten
##if
degenerierte
Bewegung
##lag
##fistel
durchflossen
Telemedizinische
Nativuntersuchung
Erweiterter
##zie
##gn
Minderbelegung
zentralvenösen
subduralen
Längs
##isches
si
Dickdarmanteile
Skelettsystems
Bronchoskopie
diffuses
aufge
Wirbelgleiten
Gradientenechosequenz
Endo
##-N
##tho
##nus
##diagnose
bildmorphologische
Schulter-
Kno
Interhemisphärenspalt.
Frakturlinien
EC
##hle
echoreich
Thyreo
##/H
##scan
##ling
Kontrastmittel-Enhancement
##aneurysma
thyreostatische
Schallschatten
tastbaren
durale
Sinterungsfrakturen
gerichtete
aussen
Darmabschnitte
##itz
Zustandes
Pfortaderast
PET/CT-Untersuchung
LAE.
##MP
##esen
tibial
oben-innen
hyperdenser
Ganzkörper-Skelettszintigraphie
Fleckförmige
Angiomyolipom
Ana
zerebellären
te
frischeren
abgekapselten
Wandverkalkungen
##reiche
Myom
subjektiven
Herzfrequenz
##til
CTV
##-Me
##fnahme
Splenium
Pes
Korrelierend
##urs
temporal.
ehemalige
Schrankenstörungen
Ovarial-Ca
Mediastinalemphysem
##ON
##fisch
bo
##tete
anhand
Regel
Metastasensuspekte
segmentalen
periinterventionelle
Tag.
Pfannendach
Bohrkanäle
Arthrographie
Antikoagulation
##Ge
##ept
Suspekter
Leuko
vaskuläre
Normkalibriger
Kopfbereich
##isiert
TB
Erbetene
##mehr
unspezifischen
Retrokardialraum
Myo
##ations
suffiziente
geringerer
Epilepsie
Normvariante
##abe
apexnah
Spinal
Mamillen
##ock
medialbetonte
derbe
Hinterhörnern
malignomsuspekt
Vorder-
##D-
Spinale
Broviac-Katheter
##enge
verkalkt
Minder
ratios
funktionell
Reizung
##eale
Transaminasen
##VU
##entnahme
grobe
fe
Fisteln
##recht
unspezifischer
Remission
Hämato
Falls
Deckplatteneinbrüche
##lm
##infektion
postischämischer
Interponat
PowerLoc
##aval
Jejunums
Harnstaus
Cholangitis
##eno
Koloskopie
##CI
meningeale
halb
Reduktionsplastik
##komp
auss
Inch
##ziehen
##ologie
##ack
V.cava
Square
Normalbefund
Pounds
ap-Aufnahme
Glenoidrand
Fernmetastasen
##än
j
Bypasses
##Na
bedingter
Tumornephrektomie
Tuberkulose
Inguinale
##ction
Wunde
MPa
Lage.
KV.
##fie
verstärkter
Perfusionsszintigraphie
##E-
Vordere
Pilz
Begleiterguss
Achillessehne
intracerebralen
Stellungskontrolle
Schädelkalotte.
Cava
##in-
periartikulär
medianer
Kontra
ACG-Arthrose
##chtung
##beschwerden
Wundverschluss
Rh
Osteosarkom
##etzt
normwertige
benachbarten
##OT
##bro
Sh
Rhizarthrosis
GBM
zeit
Variante
regressiv
ESV
Pädiatrisch
Met
##renal
urologische
retrograd
BA
St
rand
Plaquebildung
Anasarka.
##kli
##chlinge
ö
zentralem
##differenz
verzögert
Anhaltende
##örper
##nes
Wandanteile
Sacrum
Power
Parenchymdefekte
Floridität
übers
opposed
DTPA-Clearance
parva
Signalenhancement
Einge
##rum
##r.
##lab
malignitätsverdächtiger
Tumore
Parenchymatöse
Traumateam
Kontrastmitteleinbringung
##tag
##ngio
coronal
PT
ergaenzende
Pneuspalt
CT-schwächungskorrigierte
##IV
Fremd-Anamnese
##störungen
Kopfplatzwunde
##/cm
RG
Materials
Gefäßverschluss
Allerdings
##BW
##-t
breitbasigen
Harnblase.
##La
imponierend.
cuneiforme
Weichteilverdichtung
Sprunggelenke
ges
Verkalktes
Venöser
Tritt
##kti
Thyreoidale
Kontinuität
##sver
periapikalen
abgelaufenen
Ni
dorsal.
Kribbelparästhesien
formal
Tumora
Gelenkkapsel
Szintigramm
COPD-Zeichen
##ga
zuführenden
Reduzierte
Facettengelenk
Dank
##ller
Suboptimale
HG
Bau
##negative
SAB.
Grundglied
##ceps
##af
Herdbefunde.
##rma
##echt
Tracera
Osteophyt
##sektion
systemische
infizierte
Kleinwuchs
Ins
Cisplatin
Tmax
Nucl.
##Fi
##aph
Stroke
##culär
ventro
selbigen
PSMA
##enkung
präkarinal
hepatis.
Stenting
Begleitperson
AC-Gelenke
##räume
Stauchung
Radionuklid
##rb
ubiquitäre
selektive
KM-Abfluss
##idea
##dier
beurteilen
PTCD
##-Score
##lenk
Infraspinatussehne
Bds
tibiae
##sstenose
repräsentativ
ausführlichen
Herz-Thorax-Quotient
Azetabulum
Ablation
##kor
Panatrophie
##-Lymphom
CT-A
Akzessorische
##h-
##die
totaler
Atlas
##MI
Stammganglienblutung
Pfortaderthrombose
PAO
Nabelhernie
Lymphabfluss
Diarrhoe
Dark
zB
pulmonalarteriellen
fronto-parietal
gefäß
auto
Virchow-Klinikum
##mul
triphasischen
Seitenventrikelvorderhorn
Hirnversorgende
##ks
zentrales
verstrichene
signalarme
obstruktive
bislang
Str.
##derung
schlechte
Cranial
transmurale
end
##tn
##hol
##MA
##flow
##edu
##att
##zol
##glich
überlagert
Zusammenfassung
ergänzenden
Nachbarschaft
Moderat
##Se
ischii
DHS
##rhöhung
Einstauchung
##har
geschlossene
Kavernen
caudatus/Referenzregion
Metastase.
##w-
##dic
Kontinuitätsunterbrechung
Ke
T-S
Spiraltechnik
Eltern
volume
intraartikulären
US-BIRADS
##strom
##niere
Putamen/Referenzregion
##ände
Hypertrophe
##GE
extrahepatischer
Car
##chung
Ansicht
##ischämie
temporomesial
V-Segment
Malignitätssuspekte
##-Szintigraphie
##ostal
best
baso
Protrusionen
Calcitonin
##eld
##dend
retroc
Unscharfe
Nierenparenchyms
Abge
##/G
##atisch
##ypische
beginnendem
VH
##riss
##ema
##cks
artifiziell
Vor-MRT
Restinfiltrat
Konfluenz
Az
##stra
##p-
##ichen
##fehlstellung
pectoris
dünn
T-Drainagendarstellung
Konfluens
Röntgenaufnahme
Nebenhoden
##bogen
Rezessus
##rium
osteoligamentäre
massiven
Tremor
Leukozyten
Gestauchtes
##bis
kontrolliert
##za
##yt
##let
##eum
ilii
Hirndruck
##Ho
peria
Schilddrüsen-Medikation
Ju
Hypertensive
Anamnese/Fragestellung
##itische
##SWK
neoadjuvanter
bronchi
Thyreoiditis
##ii
i.v.-Kontrastmittel-Gabe
Dignitätsunklare
##lam
rezidiv
##oo
verlegt
stabil
Ulna-
Schilddrüsenszintigramm
Hemilaminektomie
##atur
gröberen
durchmessendes
Meta
ma
Fetthiluszeichen
atem
Schub
##onente
Maligne
HA
Altes
##uni
##synthese
##ionen
##iche
LCX
Durchleuchtungstechnik
Ampulle
##rose
TN
Medialbetonte
Lungeninhalationsszintigraphie
##Resektion
ho
Telemetrische
Klappen
Interventions
##effekt
kraniale
Kompressions
Herdläsion
##chaft
Cholecystektomie
##enti
##ausschluss
zurückgezogen
CT-Durchleuchtungstechnik
Au
##ech
wo
Ventrikeleinbruch
zer
T/FLAIR
Saumbreite.
reichlich
Sekunde
Leberraumforderung
Folgetag
##chirurgische
anteriore
Verfahren
##kle
med.
Grenze
Embolisat
planarer
##bri
unregelmäßiger
konnektierter
MS-
##tiv
##grafisch
Strahlenexposition
Kr
##spezifische
##orisch
vertebrales.
nu
Markierungsclips
Gefäßkalk
##aft
dünne
Ums
OMT
##'schen
##stoma
##gan
disseminiert
geführter
Subclavia
Durchgängig
##zogene
Röntgendichte
Beinlänge
Abgleich
con
Matthys-Katheter
Clivus
Aufhellungszone
##sc
Wirbelkörperhämangiom
lokoregionäres
kontrastiertes
##sph
##operative
ste
Liquorsystem
##urie
Distension
##-assoziierte
rheumatoider
fluss
Synovitis
Bechterew
##fx
##anti
Invagination
quantitative
StarVIBE
Schlechte
Kenntnis
C-
##äl
periostalen
lateralseitig
chirurgischer
Restharnbestimmung
Brustkrebserkrankungen
##teo
Tc-m-Pertechnetat
NA
Hemicolektomie
Abs
##rti
##inder
heterogenes
Fort
/Beurteilung
##arr
grauen
abgangsnahe
Konturirregularität
begleitend
Schambeinast
HK
##alem
multisegmentalen
intermedia
##yg
##-W
##ück
##theter
##rüsen
zi
fraglichem
Thorakal
Mittellinien
##sub
Bewegungseinschränkung
##TX
##oi
fraglichen
Subakromialraum
STARVIBE
Kommunikation
Cholezystitis.
##berg
Myome
##/Mittel
##ors
Stauungs
Anamnese/Klinik
##-Phase
T-GRE-DE
Peribronchitis
##denom
feinfleckige
einschmelzende
##isti
spezifisches
flach
com
nod
ESIN
tubuläre
renale
betrug
ACM
##stent
##sma
Zementaustritt
Schock
Radiusköpfchens
Drainageanlage
Cine-True-FISP-Funktionsuntersuchung
Blutentnahmen
##usi
einsehbarem
Verdichtungsareal
Tractus
Scheitel
KS
gek
gastro
Routine
Endoprothese
Zahnextraktion
Flow-void
FLASH-D-Sequenz
##sn
Kleinfleckige
frustraner
Vorwölbungen
##stau
##arzt
eingebrachtes
Zerebrale
Meningitis
Deckplattenimpressionen
CT-Thorax/Abdomen
##PA
Polypen
Plötzliche
##chter
aortalem
Weit
Radiojod
mäßiggradigen
Periinterventionelle
Hepatosplenomegalie
Ti
Perihiläre
##kan
Medikamente
##rha
##oren
##lic
##aktion
Voruntersuchung.
Gesamtclearance
Ernährungssonde
##PSMA
Lungenartienembolie
höhengemindert
Screening
Leber.
##KG
##kl
therapeutische
feine
beidseitigen
Parenchymver
Insel
Ggfs.
##aste
abgekippte
Tränen
Kontrastmitteldynamik
ovalären
nervi
Konst
##eration
Nuklidanflutung.
zahlreichen
intraluminal
Dieses
bzgl.
Jo
##-Aufnahmen
We
Jochbein
##förmigen
##bes
Lungenspitzen
Fetteinlagerungen
Kniegelenkserguss
Bipulmonal
##siche
##ierend
spontan
occipitalis
Gefäßband
Fehlbildung
letztere
Zahnwurzel
EVAR
##rekt
supradiaphragmal
filiform
##Man
wesentliches
kalzifizierten
T/T
##-Ka
##ull
Sondenlage
Colonflexur
##reduktion
##abszess
septische
PFN
Fixierte
Chondro
ADC-
##lst
##nagel
inkremental
Seitenast
Nephro
Colons
Calcium
##urale
##eh
Übersichts
Ventrikelsystems
Ventraler
postop
optimaler
chron
Großzehe
##anal
Wirbelkörperhöhenminderung.
Myositis
##dar
konturbildende
Stenosen?
Media-
MammaCa
gestauchte
betont.
Minderbelüftungen.
##?.
##ix
##gal
Gefäßnervenstraße
Afterloading-Therapie
cuboideum
Ka
postinterventionelle
##weis
##nale
Coecum
##ffen
Zahns
Sand
Mehrsklerosierungen
##reste
na
Fla
Erreichen
rechtsventrikuläre
dys
art
Vakuumsaugbiopsie
Med
Kontusionsherde
anteroseptal
##ube
gröbere
Verplumpung
Teila
Bemerkungen
##egmente
transiente
differenziertes
##lichkeit
##abel
perikardiale
##Er
Weichteilformation
Sy
Umgebend
##rne
##artiger
Spondylo
Gelenkpfanne
ACI-Stenose
##/n
##parenchym
Steil
Altersentsprechendes
##ilia
##arterielle
kommend
Sedierung
Karzinoms
Belüftungssituation
##-b
##swinkel
##mehrung
##ez
superioren
Unregelmäßige
##sions
früher
Zwerchfellkuppeln
%.
##verhältnisse
telefonischer
Portalvene
Mantel
Hashimoto
infiltriert
Osteonekrose
Mediane
Koagel
Dentes
CIA
MIBI
überragen
Papier
Keilbeinhöhle
Tracermehranreicherung
Bro
##over
echoleere
Klinischer
Intraoperative
##oni
##alz
jetzigen
heran
gruppierten
Tub
Rezidiv-
Gefäßverschlüssen
Beckenachsen
##ET
Pleuraverdickung
Kavernom
HNO-
Fenistil
niedrige
kongruente
IN
Außen-
tingierte
bronchiale
Supratentorielles
Lückengebiß
Arme
##thyreo
starkgradige
##konkrement
no
Turbo-JeCT
OSG-TEP
Auflockerung
COOK
##TR
##ett
Pleurale
Austritt
###
##ngs
verk
Pleurabegleitschatten
Normgerechte
Cisterna
umgebendes
Leberherde
##ritis
iliopsoas
##fische
kraniokaudal
LS
postradiogene
plötzliche
geschwollene
##interponat
tumorsuspekte
leukenzephalopathische
chronisch-entzündliche
Zungenrand
Schilddrüsenvolumen
Standardabweichungen
BWS-Veränderungen
##segment
spikulierte
Kontrastierungsphase
DTI
Autoimmunthyreopathie
##koll
Mantelpneumothorax
Cholangio-Pancreaticographie
Anatomische
##RS
##llar
s-förmige
RCT
##I-
##schu
bra
Thorako
##An
ansteigend
varum
postischämisch
Shaldon-Anlage
IP-Gelenk
communes
TWIST
##sierung
sekundär
knotiges
hep
betreffend
##mitte
chronisches
Scha
Schilddrüsenrest
Pharynx.
##rterie
PN
##nderung
Infarkte.
Analgesie
Hypoplastischer
##san
##mäß
##intensität
kortikomedullärer
iv
dekompensierte
Verschw
KM-Sonographie
##grade
Überdachung
zurück
artefaktbedingt
Duokopfprothese
CI
##ros
##ache
craniale
TX-
##areale
stehender
porta
multifokalen
linkem
cm³
Schilddrüsenläsionen
Oberbauch.
##unfall
##sklerose
äußerst
Zwerchfells
vorhandene
unmittelbarer
benignen
##übersicht
##dichtung
werten.
Großmutter
Befund-Kategorie
Aktivitätsanstieg
##H-
##sturz
##dicke
Ölzyste
späten
Spontan
Ausscheidung
##R-
geführte
##zintigrafie
##pping
Tonsillenloge
Aufhellungs
Abdomensonogramm
Materialentfernung
Gefäßstatus
##rz
##reg
bilobären
##Szintigraphie
##Lo
##arme
##annte
weichen
Hydrozele
##jährige
ÖGD
prox
iso
generalisierter
abgelaufene
Knorpels
tubulären
Virchow
Sti
laterobasal
Betonter
peripankreatisch
Minderung
H.
Paukenhöhle
Bildqualität
##tk
##lauf
äußeres
Plötzlich
##organ
nachgeschalteten
erhalten
Pac
Niere.
echoärmere
Protokoll
Entscheidung
##iner
##ege
Ösophaguskarzinom
##nto
Kaverne
Atrophes
##-ver
protrahiertem
basolateral
Zahlreiche
Aspirationspneumonie
MTX
Infra
Cr
Bed
anatomische
Zervixkarzinom
Thoraxschmerz
SS
##/N
##x-
##ign
Möglicherweise
##vergleich
submandibuläre
Sternums
Primovist-
Klips
I--FP-CIT
##TSE
##mas
##AL
##/der
##rc
par
destruierte
alt
##rko
##mäßig
##llo
##gänge
##fte
Seitenanteils
ADP
##ähte
Vermis
##mun
KM-affine
##artigen
##tie
hierdurch
einsetzende
##A.
##stel
zervikothorakalen
dreier
##Shunt
##ota
##hypo
Bakerzyste
laborchemische
Schild
##usch
hyperdenses
distalem
Satelliten
##tzt
minimalinvasive
Tür
##fusion
interest
ampulläres
Emissionsmessung
distribution
Taillierung
Recist
neuroforaminaler
Zentralvenöse
DPD
persistierenden
##Te
##rel
näher
Unfall
Seitenfunktionsanteile
Bildern
##ual
##konst
regions
PSA-
Klärung
orthotope
Obstipation
##ura
Niveau
vorerst
kontrastmittel
konturiertes
darin
Intensität
Hüftgelenkes
Atherom
DVR
##nach
portalvenös
Spondylodesematerial
##c-
venöses
Wiederauffüllung
RGs
Dichtes
aufgelockert
Skrotum
Leberläsionen.
Distaler
##letzung
Streifendystelektase
absolut
FLAIR-Sequenz
##duktion
VUR
##dent
Wi
Entzündungszeichen.
##rige
wiederum
Umschlag
Osteophytenbildung
##erst
##epi
kam
Beginnendes
##uspekte
vollständigen
sichtbar
parasternal
inzwischen
breiten
Konturunregelmäßigkeiten
sitzender
i.v.-Kontrastmittelgabe
Gelenkveränderungen
##rde
Übergang.
Epiphysenfuge
Besatz
##illen
##hal
kavernöse
ausgewählte
Positive
Aortal
##schl
paraventrikulär
neuroendokrine
anzahl
##/retro
##esi
ringförmige
ri
Strukturstörungen
Steißbein
##angio
inversionspräparierte
BC
##sor
SC
##ndu
Strahls
Multisegmental
Ellbogen
##vul
##rst
Suszeptibilitätsartefakten
##lge
##forme
##eut
##dens
##ail
radiologische
lückenlosen
K-Drähte
coronoideus
akzentuiertes
Pankreas-
STA-MCA
Restpankreas
Lipiodol
Gi
Flüssigkeitssignal
Ant
##gangs
retropatellar
i.v.-Applikation
au
SCLC
Interlobärspalt
Hämatoms.
Defizit
positive
gefüllten
bulbär
BE
##anstieg
echoarmem
Freitag
##yper
##lärung
##konfiguration
ausreichender
Becken/Hüfte
##aria
prae
gegebenfalls
beibehalten
Glukosemetabolismus
##höhlen
##echte
ödematisierte
g/m²
Pfannenerker
##IE
##ram
kariöser
frage
Skeletts
Pneumothoraxnachweis.
##dn
int
Stable
punktionswürdiger
Vorhofs
Rückenmark
Pleuraständige
AC-
##uro
##rende
schmalkalibrige
lobulierte
##ünd
hypervaskularisierten
##-Pro
##esti
Retikuläre
Präparat
Prostata-Ca
Lymphknotenkonglomerat
Jodid
DISH
Coronarsklerose
##sale
suprakondyläre
Prellung
Passagehindernis
Mon
MCP-
Lakunen
Karotisbifurkation
##boden
##verdächtigen
Klappenersatz
##Bereich
opposed-phase
dürfte
Vorgehens
Konkrementnachweis.
Gallen
##-Z
##onographie
hohen
Talusrolle
##ortal
##korrektur
Unterrand
Herniationszeichen.
Flau
##artefakte
überlagerungsfrei
perimamillär
Glukose
Beschwerde
infiltratverdächtiger
grenzwertiger
Fußball
Ausw
sphenoidale
Bildübertragung
##üft
##ku
vorliegender
Wade
Studien
##Tumor
intramurale
Retrospondylophyten
RT
Tracers
Lipase
flaues
Synovial
##rad
##avide
Weichteils
Wandverdickte
pg/ml
dorso
Reg
KopfMR
Kammer
CT-Anmeldung
##granulom
##dach
schmächtige
poststenotische
physiologisch
Disko
##-Aus
##yo
##katheters
Weichteilkomponente
Orbitadach
Nebenschilddrüsenszintigraphie
##sser
co
##ästhesie
##uier
seinem
Blick
ventralseitig
Rinden
Lumens
okkludiert
latenter
Linksherzverbreiterung
##erb
sondern
residuale
kontrahierte
Leichtgradige
Auffüllung
ECMO-Kanüle
##SPECT
##itu
pallidus
ovaler
##ränder
Schon
Go
##rrh
zwar
mitt
Jodspeicherung
CVK
CTX
Adnexe
##Ima
##dy
##dri
perip
medio
Tc-m-Mag
Krampfanfall
##tub
intervertebrale
Kalzium
##tau
unbe
avide
Werten
ausgeschwungene
Vorderhörner
Oberlappensegment
Filialisierung
Bilateral
Aortenklappen
##zylinder
##ud
bu
Erguß?
##konstante
rei
einmal
Unterbauchs
##roph
##gte
Duralsack
Bandscheibenersatz
Allgemein
##aterial
Hyperkyphosierung
AG
##-in
##quis
hypointenses
Aorto
##yndrom
##ition
randständiges
mmol/l
mittel
luftgefüllten
Wil
Histologie
##zs
##dio
perfundierten
Ring
ACA-
##zo
##tatus
##sre
unruhigem
geeigneten
Restliches
##lavikulär
##iste
Sus
Stanzzylindern
##nachweis.
intrakardialer
Primärtumor
Hartmann
##ephal
Tibia-
Tenosynovitis
Regelhafter
Platz
Parenchymveränderungen
Milzläsion
Ach
##spa
##on-
Posteriorstromgebiet
Intermittierende
##risch
broncho
##ilt
##-de
parakoronar
folgt
azygos
Fra
Bri
##änder
##tet
##test
luftgefüllter
ergeben
Nebenmilzen
Lympho
Handgelenke
Terminale
Hypodensitäten.
Ansprechen
##appen
##alter
ä
subfalzine
harmonisch
Nebenbefund
Meß
milchglasartigen
low-dose-CT
haste
Zo
Ergussbildung
##zin
popliteal
lymphatische
Übersichtsangiographie
periportales
maxillär
gestellte
diagnostisch
Anfärbung
subakuter
Zielregion
Sanierung
Orthograde
##oto
##algie
langstreckigen
##-TEP
##buläre
perifokal
Untersuchungtechnik
Symphysis
##tero
##line
sklerosierende
hypertensive
DIP-Gelenken
##eitet
##över
Vol
Segmentebene.
Einklemmung
##DG
##ruktur
##nö
vielen
ml/min
Lungenapex
Hypertonus
##szone
infrakarinal
Thorakaler
Perihepatisch
Perfusionswerte
Dargestellte
##suspekter
gr
##ober
myomatosus
Unterlappenarterie
SerieMR
Kalkbesatz
Hb
##xie
##mens
##eni
erschwert
Schilddrüsen-Diagnostik
PICA-
##/Z
##aut
##Übergang
prolabierten
Symmetrie
Sakroiliakalgelenk
Gallesystem
/BWK
##Du
##hase
sternal
punkt
Mitbeteiligung
##ius
##fil
##assoziiert
RDS
Iliacal
Dringender
DI
##catio
seitliche
Schm
Schleim
längster
##gre
prät
Weichteilver
Prop
Eva
Coil-Embolisation
submaximale
##asti
frühes
anterius
Tracerverteilung
Opticus
Leberresektion
KA
##deviation
nasale
Milzloge
Bildkopie
##pti
##gelenks
gefüllt.
Beschwerdesymptomatik
punctum
abdominell.
##/K
##peritoneale
Herzkatheter
später
Manuelle
FDG-
hochgradigem
benigner
Tracheal
Fl
##rittel
Img
Gefäßabbrüche
##ameter
Ovarialzysten
incl.
abszesssuspekten
MRT-Erstuntersuchung
Auswärtige
-L
##ski
Ödematöse
Streifig
##egion
Dyst
DW
##ärztliche
bezogen
##/o
##of
##gesteuerte
spi
kalk
Pla
randbildenden
Vergrößert
Signalabsenkungen
Prot
Galle
##Sta
##best
peritoneal
%ige
gefäßbedingt
Not
Bone
Altersnormwert
##LG
##rdi
tibiofibularis
hil
vorheriger
reichend.
Verlegte
##chst
turbulenter
aufweist
Zell
Pleuraspalt
PEG-Sonde
Autoimmun
kl
##ildet
ka
gegeben
dichteangehobene
atlanto-
akzessorischen
Elektrodenspitzen
Koller-
Auswurf
##-O
Ösophagusvarizen
atemverschieblich
CAM-
##sup
Reaktiv
##teilung
wei
humero
Zervix
Insult
Flussmessung
Filtrationsrate
##Leber
Zweit
NF
pellucidum
Lk
val
uncinatus
Ur
Plattendystelektase
Lebersegmente
IS
##dysplasie
Par
Dens-Fraktur
##side
zunehmendem
begrenztes
Randenhancement
Meningiom
Aquädukt
##uri
##-Werte
Interstitielle
Hinterhorns
Avulsion
Asp
##lf
##zung
##idi
zuzuordnen
Langstreckiger
##ping
malignitätsverdächtigen
VKB-
Malignomsuspekte
Gynäkomastie
vorbestehende
Ulnar
Lokalisationsaufnahmen
##tlich
transversalen
paratrachealer
Unmittelbare
##vaskuläre
##degeneration
##begrenzung
gestürzt
epileptogenen
epigastrische
blut
##kun
systolisch
blutungs
##öl
##rierte
intraoperative
Läsion.
##inderung
fibröse
Verteilungsmuster
Ellenbogens
Aortenwurzel
##nktion
gedeckte
##sequenzen
intensive
eingeschmolzene
abgeschwächtes
Charakter
##-Ra
##kanten
##iz
##ildgebung
##este
erg
Unterfeldes
Schenkelhälse
Koronarien
Hei
##leitung
Nativtechnik
ADC-Mapping
PSC
med
absoluter
##NS
##abgang
subl
intermodal
Steatose
Chiari
Anreicherungen
unver
Oberlappen.
DLBCL
##uung
##erweiterung
Spin
Direkte
Dermatom
##hyper
##bu
##artefakt
##alk
µm
postzentral
Blutungsanteile
##rit
##erk
##dosis
Lymphknotenvergrößerung
Gallenblasenhydrops
##ularis
##uen
##organe
##krankung
ursprünglich
abführenden
Mikrogramm
##cula
atherosklerotischen
##/de
##mbolisation
definitive
Striatum
Organtypische
##T.
ventromedial
neurologische
lei
genaue
LV-
##ühl
##tebral
##pri
##ox
insuffizienter
Halsbereich
Gel
Formgebung
Übersicht
ventrolateralen
bekannt.
alternativ
acetabuläre
Lungenkarzinom
##chts
falsch
Zwerchfellhernie
Pulmonalgefäße
Periapikale
Hepatische
##-Segment
postinterventionell
dünnschichtiger
SAB/
Mono
Gastrografin
##fix
normoreflexive
Sondenspitzen
Schwi
Liegender
Genant
##skelett
##real
##rainage
##hä
¾
##rea
Striatum/Referenzregion
Postinterventionell
Halswirbelsäule.
##ologische
##impression
normoreflexiv
Mitralklappen
Einschränkung
##inger
##gleich
traumatischer
ihrem
Transiente
Prednisolon
##azi
steil
##zentral
postero
assoziierten
Signalminderung
Mini
ISI
Girdlestone
##usk
##iet
minimalem
metastatische
cu
Spondylophytose
Aktivitätsverteilung
##-Implantation
Rückgang
##rthrose
messbar
MG
Lebertransplantation
Hämosiderin
Mark-
##sstörungen
##chle
interna.
Varusstellung
Ly
Dorso
eingriffsrelevanter
differenzialdiagnostisch
S.e.
##ika
etwaige
endend
Hüftschmerzen
Dissektionsmembran
##uda
##mar
elektive
postcentralis
Sinterungen
Konkrementes
harmonischer
Schichtführung
OP-Planung
Notfall
Liquorkissen
sämtliche
aufgebrauchte
Zwerchfellstand
Muskeln
Dosisreduktion
vereinzelter
Organ-
Erfassung
subka
Tre
Intervertebralfach
Destruktionen.
##fung
##az
aufgelockerter
Palpatorisch
Nu
Hyperp
##flu
##ansatz
Schulterschmerzen
Pollänge
Kolonkontrasteinlauf
##arat
fronto-
echonormale
abszessverdächtigen
UL-Dystelektase
Subkapitale
Pseudozyste
##orti
##hrung
kollabiert
SR-
Daumensattelgelenke
##äg
##trukturen
##ital
##bet
ähnlicher
koronarer
Unterlappendystelektasen
Nodus
Myokardinfarkt
D.D.
##bahn
durchsetzte
blind
Bilirubin
Baseline
##äng
##strang
##ede
kaliberstarke
hängender
Kost
##flächig
##WK
##tehende
##ossene
##meta
##hypertrophie
MS-CT.
Fern
komplexer
ausgehende
Regelhaftes
MTP-Gelenke
##chsel
Femurschaftes
Entrundung
##-Spi
##implantate
vorliegende
befundkonstante
Schwe
Fabella.
Bildung
Bandscheibenvorwölbung
##odi
ven
Transf
Sekunden
Bogen
Aufge
##knorpel
Achs
Ablations
##Par
##top
ileo
enge
aorto
B-NHL
##chri
übergreifend
metastasenverdächtigen
ieL
hy
Unregelmäßigkeit
Neo
Klinikum
pneumonischem
Beckenwand
keinem
Zunehmendes
intraforaminal
Trakt
Narbig-
wellig
Männer
Mikroangiopathische
MR-VU
##HWK
##tot
ragt
kontralateral
FLD
Adrenalin
##-Aneurysma
##basale
hä
aktiver
Erweitertes
Can
jährlicher
Milzparenchym
##Ü
##treten
for
Verziehung
Anker
##-Na
langjährige
disloziertes
Schilddrüsenlogen
Partialruptur
##nin
perirenales
Foci
Dichteanhebungen
Blockung
##tf
rechtslateral
##-ne
##kar
nicht-dislozierte
intravesikale
cranio
bet
Restperfusion
Infarktfrühzeichen
IR
Adrenalektomie
##tern
Papillen
Coilembolisation
##EC
##szi
##rück
##rete
subkortikalen
hyperdens
hochaufgelöste
Leberperfusion
Infiltrates.
##richt
##lige
##eilresektion
coronaren
stereotaktischer
manuell
infraclaviculär
epiduralen
Spinalkanal-
AV-
##unschärfe
regionale
Metastasenresektion
rektaler
palmare
darstellt
##xe
kommenden
Zweidimensionale
Therapiee
Rad
##steigerung
##chaden
Mesenterium
Karies
Hu
parenchymale
konnektiertem
untypisch
Substratplus
Milzinfarkt
Lemke
Hüftkopfnekrose
Aorta.
##/c
##np
##mäßige
perfundierter
Tr
Kürzung
##Mi
##get
Öffnung
befinden
Weich
Polyarthrose
Mikrokatheters
##schwäche
##atus
Port-Katheter
Geb
Foley
##lös
on
frühestens
Unver
MR-Fremdbilder
Kragenschnittnarbe
Index
FNH
Augenmuskeln
##rektale
##qu
Luftsichel
Fal
Bauch-
TER
##phr
##chli
fassbare
TIPS-
Hintergrund
Blutzuckers
##inlage
präp
postspezifischer
Wo
Fä
##oti
##ektasie
peri-
liquorisointense
intrathorakale
belastungsinduzierte
a.p.-Aufnahme
##enst
##egen
gra
Zeitraum
TOF-
Femoro
Blande
##stein
##links
Keil
normalgroße
gliotische
##mon
##ctu
keiner
Verdichtungsherd
M-Segment
Kreislauf.
##/peri
standardisierten
Sitz
Herddosis
Fistelbildung
behandelte
Heterogene
Flussprofilen
verlorene
Uterusmyom
Osteosynthesematerials
Gliederung
##rag
##kre
nachweis
mutmaßliche
gescatterter
Bef
##viert
eingeengte
dicht
Treppensturz
Sekretretentionen
cerebral
Thrombo
Beratungsgespräches
##AS
##rus
Überschlucken
Zugänge
verlegter
Rec
Diskontinuität
##szinti
punktförmiger
arteriovenöse
Postoperatives
Kalzifikation
Ganzkörper-CT
nasi
UL.
Ser
Ga-PSMA
Easyflow
##uchte
##leb
##eral
korrelierbar
Ul
Territorialinfarktes.
Anulus
##geminderte
Schichtaufnahmen
##une
##pta
Bewegungsapparat
Br
##-U
##lumbal
##bildende
##iere
kontrastiert.
intestinale
flächenhaft
Tomosynthese
Geh
Abschlussplatten
##ndes
##ernie
parotidea
ml/m
geht
chirurgische
VIC
Untersuchungszeitpunkt
Mittelwert
Erst
Blutanteile
##zeitige
infrarenale
Wurzelspitzengranulom
Stent-Implantation
##etrie
konturbildend
aboral
Wurzeln
Ntx
##baren
##arstellung
geschwollen
Mediastinum.
Befundskizze
##residuen
verlaufenden
super
Bronchial-Ca
Abd
##eif
l/min
WS-Veränderungen
##dg
zeitlichen
Vorderhorns
Val
Stichkanal
Fitting
##oval
gerade
Rektale
Lig
Ellbogengelenk
##tral
##nver
##lap
##eder
parenchymatöser
##angs
##rani
##ragment
##arese
autochthonen
##szeichen
##qui
##hend
##gü
##gefüllt
temporo
dringender
Verkürzung
Aufl
##SD
##wellung
##orm
##ranial
überragt
subcorticale
eventuell
ROL
##g/
vorbekannter
##ED
##tru
##rech
…
Ösophagus-
posteriore
Wahrscheinlichkeit
Kolons
##lec
hängend
Terminen
Normalkalibrige
##rot
##nne
symmetrischen
mesial
gesicherte
Okklusionen
Gewichtszunahme
Fissurenzeichnung
Cl
CT-P
längs
flüssigkeitsgefüllten
Weiterführende
Stammskeletts.
Inguinalhernie
Furosemid
Frakturspalte
Basilaris
hypoplastisch
derselben
atlantodentaler
Knick
Früherkennung/Nachsorge
Absolute
##B.
##atik
mut
Diaphyse
##retikuläre
dist
Duodenal
AICD-Aggregat
##struktion
Untersuchungsbe
Tele
Schenkels
Orbitabodens
##etabul
Parenchym-
NNH/Felsenbein
Hilusfettzeichen
##-Läsion
reduziertem
Frontallappen
##OS
kraniales
intraparenchymatös
atheromatösen
##hie
##fli
##bor
Nuklidbelegung
Mastitis
LMCA
Fazialisparese
##³
Stoffwechselsteigerungen
##osteo
##lip
angiographische
MLO
Gleich
stationären
T-VIBE-FS
Sowie
Inkremental
I.W.
##le-
Duplex
Anus
erh
ISG-
Hep
Entsprechend
##ibe
Follikuläres
##mato
##belastung
orotracheales
intraossäre
erkennen
Spondylolisthese
Moya-Moya
Befunder
##astung
Temperatur
Neuritis
Einriss
AZ-Verschlechterung
##erti
neo
hypertrophierte
Zeilen-
T-T
Messwerte
##lini
##din
##iver
kalter
abgegrenzte
mastopathische
Hil
Balkens
##/t
y
spe
Marknagelung
Femurkopfnekrose
##Teil
##Karzinom
##syn
##ora
Wiener
Radiosynoviorthese
Normalkollektiv
Caudal
AB
##renale
##osti
VHF
HWI
##ance
volar
ADC-Absenkung
##-Kategorie
##vergrößerung
##hyperintense
subcapitale
Kiefergelenke
IX
Coronar
##&
##dä
externus
belastungsinduzierten
Sklerosierungs
Lagerung
Herzinsuffizienz
Darmwände
##lc
##ipi
triquetrum
darstellbare
##-suspekte
verl
schwartige
nachweisbarer
Leberkapsel
Labyrinth
Enge.
##isk
lymphogene
langsam
Bard
##ange
zystoider
gab
vaskulären
Pankreaskarzinom
Ostium
Fragmenten
##nl
suba
sol
Kontrolluntersuchung
Frühgeborenes
##Ein
##mn
##eti
##auss
hypointenser
biphasisches
Waden
Schli
MR-tomographischen
##inde
zentral-venösen
erheblicher
differenziert
VCS/
Restleber
Lumbago
CTx
##/in
##medikation
##auch
verlaufend
norm
infraklavikulär
Multislice-Spiral-CT
Magen-
Konsolidierung.
Komplett
Adeno-Ca
##ACE
##hafte
Venensystem
Papilläres
Herzrand
EB
##ktiv
traumatischen
gen
##medi
juxta
hatte
besprochen
ausreichenden
##/Me
##ymph
##ssig
##han
juxtakortikal
RM
Lungenspitze
##ration
angehobene
aktivierten
Unterarms
Gaseinschlüsse
Atlasbogen
##-Kon
##ulären
##nick
vor-
Pfannendacherker
Periventrikulär
Pericarderguss.
Normaler
Blutauflagerung
fleckförmigen
Kontrollangiographie
##Dis
##äs
##erin
##divertikel
multisegmental
gekammerte
Chronisches
##termin
##apsel
positives
Vater
Symptomen
Schnittbilddiagnostik
Sagittal
PCA-
##reb
Fettgewebs
Blutbild
##uchung
##ift
##einlage
zirkulären
sequenzieller
epileptischen
RCX
Fleckig
##omp
tur
rostralen
fa
Subkutanes
Rein
Gyrierungsstörung
##induzierte
Überwiegend
ulnarseitig
gekammerter
begonnen
Wedel
Quartett
Komplikationsloser
Dopamintransporter-Dichte
Absetzen
Abfluß
sichtbaren
Spondylophyt
Reorientierung
verschiedenen
doppelte
corticalen
TSH-Suppression
KM-Aussparung
##usb
##lati
##bszess
retroaurikulär
PD/T
Marklagerödem
Hirndrucks.
paraösophageal
Windungen
Armes
##fenster
präaortal
Ros
pleuraständigen
echofrei
Rechtsseitiger
Komprimierung
Dipidolor
Bel
vornehmlich
testis
periapikale
ak
TIRM-Signalsteigerung
Anbau
##-Tra
##dickung
eingeengt
behandelnde
Dilatierte
Articulatio
##zieren
##hys
spinal
ku
intravenös
Subscapularis-
Hä
HWS-Veränderungen
bip
Zusammenfassend
Ursprung
Mastoidektomie
Astes
Abknickung
##kot
##ging
unvollständige
Postentzündliche
Kontaktaufnahme
Kolonflexur
IIa
Ergänzend
##äß
##sstellung
##lve
subc
obliqu
Hemihypästhesie
metatarsalia
lateral.
##aa
vorbekannt
tastet
präs
osteophytärer
fortschreitende
##thro
delayed
assoziierter
Atemabhängige
##nse
beschrieben.
Teilsanierter
Conchae
Adduktoren
##rische
TPO-Autoantikörper
Res
Myokardiale
Längsausdehnung
Ödemzone
Zofran
Ventile
Blutpool
##führen
puls
Neurocraniums
Kurvatur
Dopamintransporter-Szintigraphie
##¿
##ansch
##wege
Grösse
##ah
verd
postischämischen
mehrfache
Mikroangiopathie
ML-
##-Er
unvollständiger
Modic
Mayerding
##Gr
##lit
##isse
magnum
Metaphyse
resp
konnektierte
Plumpe
##prall
##hepatisch
Mittellinienstrukturen
Keilförmige
##tab
##apikal
proximales
akzessorischer
Imeron-
Gründliche
Einführung
EKG-getriggerte
vestibulocochlearis
Metalldichte
Fo
Apikaler
##rog
##applikation
quantitatives
Situs
Liquors
perisplenische
musste
lokoregionären
Zusatz
Tc-m
Pf
Luft-
Kalzifikate
B-Bild-Sonographie
##/Unter
##zogen
##sth
subinsulär
respiratorischer
paraösophagealer
Nephrostoma
Einzelniere
wandverdickter
Darmischämie
##parat
##jo
retroa
eitrige
arthro
Tumornachsorge
Miniplattenosteosynthese
##nb
##ana
atemmodulierter
-s
##deformität
schmerz
Unge
Rechtsherzbelastung.
Projektions
Nadelspitze
Concha
##III
##nsversal
Tachykardie
Eigen
BRCA
A-Segment
##pra
##ngi
##kk
fibrozystische
Signalverhältnis
Reste
PI
##protokoll
##gur
atrophierte
al.
Shunt-
Montag
mittelgradigen
fehl
Schmerzsymptomatik
Parapelvine
Mamma-Karzinom
##hro
harnableitenden
DaTSCAN
##RG
##AC
paro
beurteilt
Zwischenzeitliche
Wirbelkörpersinterung
Spondylarthrose.
Spe
Nebenschilddrüsen
HCC-suspekte
##sko
##rakt
einiger
##essi
HF
##Ober
##uk
seiten
marginale
diagnostizierte
computertomographisch
Nekrosen
##ssend
##ena
Venenwinkel
Infiltrat/
Hemikraniektomie
##inkel
##eitige
Drüsenmitte
##unde
##sge
##dd
##bschnitte
postentzündlicher
mCi
KMMR
Indi
Facetten
Exazerbation
Doppler-
##hem
##com
##abla
kurzstreckigen
intakten
Em
allergische
Stri
Seitenventrikels.
Opposed-Phase
##Do
##Aneurysma
##spe
jugulärer
Verkalkungsstrukturen
Befunden
piriformis
Tendinitis
Teil-
TG-Wiederfindung
Sono-
Prä-
NS
Grundplattenimpression
zervikalen/thorakalen
entwickelt
##mpe
##markierung
##Schwellung
##tativ
sti
hauptsächlich
ausger
Osteodestruktion
Drüsenkörperinvolution
##Her
##weit
##verändert
##ua
##retention
##onder
##ktasie
Unterkieferfraktur
Traceraufnahme
Portal
Kra
CT-Voraufnahme
Arterien.
##rau
mediastinal.
Unregelmäßigkeiten
Latente
Fallenberg
FK
Claudicatio
##ventrikuläre
##befall
temporobasal
rechtshepatisch
mesorektalen
gewünscht
fest
depressive
basisnah
Low-Dose-Technik
Jod-
Eigenniere
Anatomie
##Bi
##ereich
##bio
T-SE-FS
Paras
##irbel
kraniolateral
hochdruckkompatibel
halben
Fetts
pontine
p.i.
nekrotischen
keinerlei
WK-Höhenminderungen
Traceruptake
Nahrungs
transp
Aufklärungsbeleg
##oß
progredient.
Vorder
SA-Raum
##CE
##patient
##hel
insbesonders
cardialen
Ja
##obene
##asis
Älteres
Sekretions-
Harnwegen
Glu
Gipsanlage
##rekonstruktion
intraparenchymale
bullösen
ZNS-Erkrankung
Thorakotomie
Schleifenbildung
Hüftpfanne
##IA
##entier
oberflächlich
meta
Sequester
Plat
LI
Hieraus
Gaumen
Cerebri
##öhe
##omin
##elo
überw
notwendig
hyperthyreote
Entlassung
##ard
##aden
Ö
Schröder
##lti
##ahme
sh
intrac
höchstgradige
NZK
entfernte
darstellbar.
KM-Fahne
##tend
##hlt
##det
selektiven
punktförmig
Triphasisch
Planungsaufnahmen
ulnar
triphasisches
Weichteilsaum
##tens
Verbandmaterial
##Le
##zust
##gestützte
radialen
Spül
Bi-Rads
##säule
##ifi
vorhanden.
prävertebrale
eingebracht
Tumorinfiltration
Mikronodulus
Lazeration
Infarktareale.
scheinbar
Sprunggelenks
Gelenksstellung
##Sono
##richtung
##positive
Vorderkanten
Platzwunde
regelmäßiger
komprimierbar
elongiert
Komplettierung
##/k
##ppung
##koli
##bsch
Enthesiopathien
##Projektion
verschiebliche
kol
##rze
Lungenunterfeld
Körperoberflächenspule
Infiltrats.
BRASSTMBrain
##dl
dorsokaudal
Zweite
Bu
##rap
##onale
wahrscheinlich.
Stei
##sä
##sy
##bit
verfolgen
metaphysäre
Ausgeschwungene
##tm
##altet
Schrägfraktur
Kostenübernahmeerklärung
##'sche
##toma
##maß
µg/Tag
vormaligen
umgeknickt
bes
Segmentebene
##wu
##sw
##nic
kom
atrial
angeschnitten
Baur
##olo
systemischer
höhengeminderte
funktionelles
Wirbelkörperfraktur.
Pankreas.
Mark-Rinden-Differenzierung
##inhalt
##chem
thorakoabdominellen
cN
TR
Doppel-J-Katheter
##erv
##enes
rheumatische
motorische
disseminierter
angelegter
Spondylarthrosen
HKB
##ktr
##genen
gelenk
##pre
kr
Urolithiasis
##Ha
##vorder
##rsal
##leural
parap
Schwankschwindel
Sc
Mortalität
MR-VA
Implant
Aufklärungs
##trakt
##rka
##enie
##einbr
##barer
sklerosiert
ml.
interenterische
Vorbefunden
Schi
Lange
##FA
##aktivität
schwierige
benachbart
Hamartom
retrograden
idiopathische
MB
Descendostoma
Binnenecho
##/Abdomen
##-Übergang
subpleuralen
regressive
granulomatöse
Pilzpneumonie
PICC-System
umgeschlagener
messendem
Schmerzhafte
Bereich.
##TER
##Kn
##statische
mg/kg
Wurzelreste
Vergleichsaufnahme
Bewegungsartefakten.
##ypho
##ensi
PP
Gyri
Gelenkkörper
Alveolarkammatrophie
##olle
PC
Kraniektomie
verwaschene
Tc-m-uptake
Konsekutiver
Degen
transjugulär
Verkleinerte
##SA
##ori
##mes
sche
gel
Spa
Parenchymzyste
Oropharynxkarzinom
HT
verbliebenem
angrenzendes
Leberhämangiom
Körperstamm
##Angiographie
##gerung
vertebrale
anamnestische
Massiver
##lat
korre
intramuskuläre
Spitzengeschwindigkeit
Sal
Narbig
C/
##chm
transpedikulärer
marginalis
bek
Knorpeldefekt
Intram
Frakturzonen
##CH
##ule
##rden
geb
##EP
Tumord
Kopf/
Glas
##reihe
verringerte
infektiös
Ruhigstellung
Mitbetrachtung
##dierte
Akzentuiertes
mil
FDG-A
Episode
##thal
##lob
verschattete
Vollbild
Diffuses
##Tag
malignom
entsprechendem
Histo
##Stromgebiet
##-sch
Wundheilungsstörung
Versorgungsgebiet
Harnleiters
saniertes
epikardiale
##/f
##-te
##suchung
abs
##rac
##passage
##nkt
KH
##speicherung
Punktionsnadel
Hilusstruktur
Ans
##zenti
##scha
po
Urethra
Hypoperfusion
Fetti
Beckenskeletts
##/re
##äss
##skopie
überblähte
stuhlgefüllte
Zystenkonglomerat
##rke
##chn
##ax
subarachnoidal
pterygopalatina
geschl
Sichel
Fremdbilder
##ssp
##cularis
Sellink
Gesichts
Einheit
Arthrotische
##/post
WHO
Schr
Orientierende
Cardia
##-me
befund
Perirenale
##Ne
##eine
portosystemische
infra-
sitzende
reg
pelottiert
großflächige
ehestens
Vors
S\uUS
Orbitae
Magnevist
Erhöhtes
##lastung
parao
gebl
emphysematische
Vergleichsaufnahmen.
Thorax/
SL
Metallartefakte
##rol
##gli
Subc
Lungenbe
Hilusfett
-Zeilen-MS-CT
##nsat
rektosigmoidalen
##grad
leere
Angedeutet
##-Stent
##zyst
##omal
##längs
##ifizier
kalzifizierende
angeschnittenen
Tx
Posterior
IVR
aufliegende
##ux
##plus
##dex
##ablation
versp
rot
##typischer
platziert
TLIF
##ollen
##nkung
##eichen
##dese
ki
dysplastische
##onal
regel
fraktionierter
Semiquantitative
Amnesie
##sso
##pu
##net
Metallartefakten
Gefäßverkalkungen
Flußbeschleunigung
zerebral
rektale
Miktions
Hemip
##telle
##neigung
##itig
##gin
##beurteilung
verf
SM-
Repo
HR
Blutab
##örmig
fem
##ntri
überschreitenden
rekto
eingedickte
Zyste.
##app
kleinknotige
Zungen
##IC
##sna
##rio
##ngu
##lten
##kondyl
##ierender
##gegen
##ffekt
Progression
Kopf/Hals/Thorax
Höhle
Ausnahme
##erh
Keros
##Uptake
Pneumonie.
Nacken
Fehlen
Dreigefäßversorgung
##amputation
verstärkt
positiver
chronischem
Wirbelkörpera
TZ
Gefäß-
tirm
kardiales
Sinusvenenthrombose
Analkanal
##dra
Verkalkungsfiguren
##ziehung
mehrfragmentären
Streifig-
Harnleiterschiene
Enthesiopathische
Briden
Bandscheibenextrusion
##pneu
##enf
ferner
Wetz
Schleimhautfältelung
Cholecystitis
Basilariskopf
##fibrose
##alar
eiweißreiche
Flußprofile
Antikörper
##Si
##übergang
##linien
##lagerungen
lokalisierten
TEA
Größenregredienter
##ure
##sartefakt
Überbrückung
organtypisch
Varizen
Bildgebende
##tere
##schicht
Äußerer
Verla
Kontusionsblutungen
##vität
gest
ber
Imp
iliacus
groß.
Ze
Interlob
Glandulae
durchmisst
Adultes
##ela
zweiter
nie
ZF
##RE
thorako
distendierter
ZVK-Lage
Verl
Tracheotomie
Immunsuppression
Bekanntermaßen
D-Gradientenechosequenzen
ko
##-Wert
##omi
##ita
##hor
Schrauben-Stab-System
Caudafasern
Abszessformation.
verdichtete
Pansinusitis
##nfall
Restriktionen
##Raum
##gri
Drucksonde
##IN
##rem
CH
##thie
uni
supracondyläre
dünnschichtig
chirurgischen
Reizfreie
Hypokinesie
Gefüllte
Dezent
##tanz
##ateral
##arp
triangularis
erw
##tea
##gende
##enal
vorliegen.
Schaftdrittel
LKS
Hochdruckinjektion
Hirnanschnitte.
Engstellung
##-lateral
paraaxial
bestehendem
Verb
Men
Hohl
Embol
pectorales
osteochondrale
Pneum
Pau
Lebermetastasen.
Flüssigkeitsretentionen
Drittels
##fu
Rests
Omentum
Bedarf
##fragmente
kühle
halt
Frustrane
##Perfusion
##-Befund
##rten
##lant
langfristig
korreliert
erkennt
Milzvene
Hirninfarkt
Einige
##relevante
Mark-Rinden
Humerusschaftfraktur
##kös
##kontrast
##ior
##iliaca
##här
medialisiert
heutige
Körper-Phased-Array
Femurkopfkerne
##Rezidiv
##arte
potentiell
RTx
Konvexität
##uche
##chwellung
hypert
Hälfte
##terien
plan
##ntral
Speicherdefekte
STA
Röntgendichtes
Linksbetont
##frakturen
##ement
EA
##rotation
occ
heranreichend
Subakuter
Ili
##Voraufnahmen
##sku
Subtraktionsaufnahmen
Rippenserienfrakturen
Nierenr
##psie
##eiten
ze
Valgus
Hierauf
Ganzkörper-Szintigraphie
Emphysemaspekt.
Einklemmung.
##tar
##bia
##arietal
morphologische
a.p.
TRUFI
Postspezifische
Akromion
##slo
##seitigen
plattenosteosynthetisch
parenchymalen
KM-E
Embo
##keiten
komplexe
frühere
erstmals
Normgroße
Fragliches
-Zeiler
##webe
mittventrikulär
kutan
Speicher
MRT.
Lä
Luxationsfraktur
-k
##verdächtig
##orp
kardiovaskuläre
Osteosyntheseschrauben
Betontes
##strukturen
##rzel
##rtig
##ologisch
##-Rezeptor
##culi
##bindung
##arenchym
pharmakologische
Schilddrüsenläsion
Neuro-
KM-Dynamik
##gelenken
kraniozervikaler
dis
Schmerze
Mehrzeilen-
##udal
##radiologisch
##kard
ana
Verf
Reichlich
NAK
Dar
Aufs
##Wi
##Schilddrüsensonographie
##-Tumor
##-St
prävesikal
Kabel
Hueftgelenk
FF
##rid
##ellär
parasagittal
kaudaler
flächenhaften
Speicherfläche
##implantat
plumpe
gesteigertem
bifida
T-F
Mechanische
Max.
Fibrom
##sstelle
##hne
putride
lu
bein
Lungengerüstveränderungen.
Kolondivertikulose
##mf
betroffen
Narbenverlauf
NAST
##chicht
operativ
invasives
ableitbar
Visus
Sehnenansatzverkalkungen
Intern
##ieg
##bd
pleomorpher
Microkatheter
Liposarkom
Gefäßan
FE
Cortison
COPD-
technischen
retrok
rechtsfrontale
Geringfügig
vorbeschriebener
MRT-Befund
Ganzkörper/Poytrauma
##clip
##axial
supraorbital
Temporalhorn
Ergebnisse
BWK/LWK
##acht
subcutaner
nachgewiesene
bifrontale
Tan
Ovaläre
Discus
Aktivitätsdepots
##reck
valga
signalangehoben
mikro
interp
echofreier
Randständig
NAS
Intrakraniell
-Phasenskelettszintigraphie
##fort
##abhängig
Vd.
##Evaluation
##anden
nüchtern
Vagina
Inhalations
Dysphagie
vaskulär
partiellen
minimales
kü
Ulnafraktur
Fernmetastasierung
ursächlich
tre
Schrauben-
##kalkungen
gesichertem
##ochen
##igert
vertikale
Bohner
##peri
##kanüle
##ismus
##imi
Syn
Magenkarzinom
Ansatzverkalkung
##riff
##reduziert
##hyse
zuge
osteochondrotische
Spondylophytäre
OC
Nasenseptum
Daneben
##/Hals
##äch
##omographie
pleuranah
Lungengerüstveränderung
Gewichtsabnahme
Frischere
Douglas
Cho
##osus
##lio
Schmerzsyndrom
PSMA-avide
LCE
Io
##-g
##auer
wegweisender
maschinenassistierte
Tar
Mittelgesichtsfraktur
##isi
wa
periaortal
anst
Teilinfarkt
Speicherdefekt
Minderverfettung
Materialdislokation
mehrmalige
linksventrikulären
Einweisung
##fluß
ausgefüllt
PO
Kopf-Hals-
##…
unten-innen
Suppression
Mil
##idose
verbleibenden
Radiojodtestes
##spekt
##hasisch
##chtig
subsegmentale
rekanalisierte
feste
ersichtlich
endende
Acetabulumfraktur
##pflichtige
##noe
##ace
supraspinatus
isoechogene
fibrotischer
Hirn-
##HI
##/cor
Überlagerungs
mediolateraler
MR-B
##-Te
##uns
##rik
##nken
spät
rasche
genetische
dislo
costodiaphragmaticus
Schlinge
Resektionsareal
##Pa
##Image
##versch
##nein
##lse
zweimal
längsoval
Verbesserte
Stirn
Quellbildern.
Ple
Gefäßabbruch
Bru
##schrauben
wandständigen
kal
intracranieller
Mammo-
GG
Foki
Enchondrom
##aka
VKU
Stellen
Gefühl
Fragl.
Exkretionsphase
##sack
##profil
##abstand
szintigraphische
ihr
Lam
Kla
Bülaudrainagen
##stri
glo
frakturierten
abgehenden
Bisherige
stabilitätsgefährdende
retroma
##/Pa
##-na
vertiefter
leer
aktuellste
Schein
Fibroadenomen
##sep
##rec
##ost
##olu
bildgebend
Gr
##-v
##rchmesser
##ient
thorakolumbaler
subt
paracaval
Verlust
Umschriebener
Recessusstenose
Acromion
seither
kalkdichter
fibrosus
ampullär
Antiemese
weiten
signalabgesenktes
fleckiger
Unruhe
T-Signal
PIP-Gelenke
Nierens
Frontobasis
##ssung
##nr
##ahr
ol
metastasiert
interdisziplinären
endoskopische
aufgeweitete
Vereinbarungsgemäß
Status.
Mutation
h.
geformte
Uncovertebralarthrose
Primovistspeicherdefekt
Dialysekatheters
##rnie
supraklavikuläre
erkrankt
Portographie
##Ex
scha
hinterer
SpA
LAVA
GK-
Diffusions
Cochleaimplantat
Anmeldung
##symptomatik
moderaten
Verkippung
Baastrup
##unregelmäßigkeiten
##oka
##mantel
Sinusitis.
Ergussflüssigkeit
Atrophie.
##-PET/CT
suprasellär
intramedulläre
Verbesserung
Sel
LWK-
vorgesch
septal
regressiven
##-fl
##gewebes
unklares
intercostal
Vaginal
Larynxkarzinom
Absch
##sab
##md
##cheide
fehlen
Radi
Pallacos
FRFSE
Bullöse
##zia
##guss
##cha
##aspekt
dystelektatisch
Wandver
Nierenfkt.-Szinti.mit
Hypophysenadenom
Cranielle
##ya
##ila
prästenotische
endovaskuläre
apikolateral
Uro
PDw
Leere
##üllt
##ximale
##toxische
##pr
intraorbitale
Osteolytische
MRT-morphologisch
Fokus.
##zept
##steo
##bek
sämtlich
supraclavikulär
organisierte
kap
Schwan
Pha
Katheterlage
Gefäßverschlüsse
##sul
präc
diskutiert
Wandunregelmäßigkeiten
Säu
Subpleurale
Luftansammlung
##ungsbedingt
rechtfertigenden
größenregredientes
anges
Tc-m-MAA
KM-Ab
##HWS
##En
##skopisch
##lak
##king
##ami
mono
TD-
Penis
Morison-Pouch
FDG-Positivität
Erguss/
##-d
##streifige
##icke
##hnlich
subareolär
schraubenosteosynthetischer
scharfer
okk
Trisektorektomie
##P-
##uckel
##plastie
vaskularisierte
kommender
femoro-
Basisfraktur
Achsenskelett
##K-
##suche
##jun
flüssigkeitsgefüllter
dilatiertem
Perfusionsmessung
##bst
Gal
##-Karzinom
##weiterung
##oms
##ntin
##loc
statt
rep
hinausgehende
Rezidiv.
Nierenvenen
##ye
##thorakale
##sl
intraluminaler
Rezept
Oberarzt
##nwe
##mat
##lüsse
##einlagerung
maximalem
flow
dia
Vorgeschichte
Misch
Messungenauigkeit
Duodenalsonde
Denecke
##ierenden
anzu
Patellaluxation
Infl
Corticale
CT-morphologische
Anämie
##tert
T-GRE
Sternoclaviculargelenk
Kolloid
Hirnatrophie
##nsu
##ichtete
multifokaler
denkbar
cord
biventrikulär
abl
Umgebende
Systemische
Ganzkörper-Spiral-CT
Suprasternal
Pseudospondylolisthesis
##PT
##flächen
glomerulären
aufgehobener
Wirbelsäule.
Tc-m-Technegas
Spektrum
Pulmonalis
Fragmentadaptation
##schri
##plant
struktureller
schnelle
opticum
erl
##Gelenke
##/Se
##metabol
##artung
Radiusschaft
##zy
wünscht
Vereinbar
LWS-S
Klatskin
#
##mb
ei
Umgehungskreisläufe
Iso
Fibulaköpfchen
Double-J
Allergie
##-ma
##zuf
##iose
##chl
parahilär
corporis
antegrader
Pfortaderäste
Nativ.
Kreuzbandes
##Signal
##ähr
frustrane
Peritonealkarzinose.
Intrap
mTc-Mercaptoazetyltriglyzin
##-ra
seitens
Schnittverletzung
Embolie
Begutachtung
##epiphyse
posterolateral
Periostreaktion
NSTEMI
Hämoptysen
##stamm
##rophie
überschrittener
wandständiger
akrale
Con
Cla
Bohrkanal
##pac
##oh
verdrängt
temporäre
Magnet
Gelegentliche
##trom
##sar
##ntes
##chel
prävertebral
Prominenz
##sb
##gne
V/VIII
Infiltraten.
##verhalt
##pli
##nhancement
kontrastierter
Punktionsmaterial
Mä
##ämme
##radige
kompletten
ektope
Stehende
Sensibilitätsstörung
Hochdosis
Fibroadenoms
##RP
besseren
Verkalkungen.
Tangierung
Kontrastmittelaussparungen
Kle
Bildrand
##pfl
schr
cerebellär.
Tw/PD
Sof
Regionen
Hautfalten
Dekompensierte
Cholezystolithiasis.
##wind
##rontal
##nreicherung
##find
signalreiche
palpablen
Zystenbildung
Weichteilüberlagerung
Vergrößerungstechnik
Mammographieaufnahme
Flüssigkeitskollektionen
##/Co
##kta
##iar
##culäre
retinierte
Vertebroplastie
Schul
Rotatorenmanschette
Klopfschmerz
##Va
##riert
##ektiert
komprimierte
geste
auslaufendem
TSE-
##rural
##nod
##grediente
Ätiologie
reichen
Spr
Hypodenses
Felsenbeins.
Diverse
##elt
wirkende
synoviale
reaktiven
hypothyreote
Verbreitertes
Leiter
Eu
CM
##inn
##dt
präkardial
pathologischem
##ßer
##prellung
##eru
offensichtlich
latero-
Sprung
Shaldonkatheter
Außenrotation
Aortenektasie
Streck
Pedunculus
Osteopenie.
Krankenhaus
Gangunsicherheit
Chipkarte
##spule
##rektal
##ileus
##bre
kyphotische
kaudo
epidural
Medulloblastom
##mass
##krement
##fleckige
##emo
LABOR
##ged
##angi
Szintigraphischer
P.a.
Hausarzt
Biopsietisch
##Aufnahmen
##änger
zugänglichen
systolischer
exp
Doppelkontur
##occipital
##nü
Mastoiditis
Kolonrahmens
verlaufender
paramediastinale
ante-
Verk
Uni
Stase
Epikondylus
Carotiss
##-VA
##schaft
##bge
parafalcin
ist.
Zerklagen
Vari
Schwer
Papille
Clavikula
Anprall
##zwischen
##gion
Zwerchfellkontur
Kri
##zien
paras
längeren
denkbar.
cr
Wandauflagerungen
Verdichtungsfiguren
Schluck
Schilddrüsenlaborparameter
Antibiotika
##skontrolle
##ichts
Ölzysten
unaufällige
capitatum
Suppressions
Schnitt
OSG.
Cave
Beispiel
##uation
##nochen
##l/
##geni
##eie
stenosierenden
kranialer
Seh
Modalitäten
##NH
##öße
##verb
sonstiger
okzipitale
abdominis
Daumengrundgelenk
##-PET
##schw
##pse
##ima
##hme
brachiales
Weber-B-Fraktur
Septumdeviation
Kalks
DES
##MS
##rahlung
##ophag
kapselüberschreitende
Skoliose.
Chirurgie
Bereichen
##blasige
##azeration
entzündlich-rheumatischen
bel
angegeben
Uvula
Periprothetische
hochgezogenen
externum
Technische
Laufende
Adjuvante
##rungen
##iegen
pleomorphe
nachweisen
ischämi
Erstvorstellung
##status
##nige
##n-S
##f.
darauf
Muster
##äume
##opti
##neumonie
##laps
##fan
zustand
Ultraschall-gesteuerte
Lungenarterien
##usscheidung
##ther
##rechte
Intrahepatisch
IIb
##kap
postentzündlich.
br
abgeklebter
Thalamusinfarkt
Fontanelle
AT
##Mu
##via
##setzt
lin
Osteitis
IVa/
##BWK
##umb
##smi
##eber
##chten
Wirbelbogen
Knochenk
Herzspitze
subk
eingesch
Vorhofkatheter
Infrarenales
##ES
##-betonte
latent
infiltratverdächtigen
enhancement
deutlichere
Deso
cerebellären
bio
##nke
##immung
zeitgleichem
Stabil
##sierende
##rö
##ect
weich
ru
intraventrikuläre
Mas
Hydrocele
Herdsetzungen
FDG-aviden
##stru
colli
Tamoxifen
Sigmoid
Portexplantation
Leberk
CAM
##Pol
##Antikörper
##figur
##bez
hypoechogenen
Wichtung
Humeruskopfhochstand
Größenprogress
retrokrurale
Segmentresektion
MRT-Aufnahmen
##ibi
##hron
pel
kombinierte
Femoralis
##kra
##ehne
RP
Niedrig
II-V
Gelenkknorpel
Döllinger
Blutleiter
AC-Gelenks
##-w
##-Str
##rme
##mpo
##loser
##fahrer
##anomalie
voll
Widerstandsindices
KM-aufnehmenden
Ektatische
##Studie
##zintigramm
##oskopische
##homogen
atemabhängige
Totalverschattung
Len
Dort
##-s
##liert
Teilkörperaufnahmen
Pumpfunktion
OP-Material
Gefäßversorgung
-T-MRT
##-Phänomen
##mpl
##eli
schwacher
Proximaler
Fissuren
Befundverbesserung
##vidität
femorotibialen
fehlendes
bestand
Intracranielle
##phasisch
bruise
ani
Walter
Skelettm
Pleurearguss
Herzrasen
Einstrom
Blut-
##St
##Br
##-Kl
##ope
##ktu
lt.
abgeh
Schilddrüsengewebe
Nephrogramm
Gangerweiterung
Gallengang
##v-
##tit
##höhung
gelegentlich
Titanium
Nierenläsion
Fußs
Bestätigung
Bandscheibenprothese
##stes
##okzipital
metastasierten
UE
##ogisch
##arin
fib
Oberbaucha
Kompressionsfrakturen
##kaudal
va
stenosiert
Lymphödem
Gefäßverschlusses
##utz
##ruck
##bla
##artefakten
ödematisiert
unterschieden
retropatellaren
oval
horizontalis
CT-Befund
-LA
##ktivität
Retrosternale
##okal
##derm
##asale
##achweis
articularis
Mammas
Frakturstellung
Durchsetzung
Densfraktur
##x.
##hinterwand
transarterielle
Weichteildichte
Low-dose-CT
Drehschwindel
##rig
Überwärmung
Zahnf
Wurzelspitzen
Bronchialwände
##sbereich
##ozele
markiert
Beu
##unden
##is-
##irk
##hilär
streifiger
stabile
Wei
Pontifizierende
Niehues
Maßgabe
Abganges
##nchi
wertende
ventrikulär
PCA-Teilinfarkt
Implantats
Anschließende
Ano
Wiederfindung
Gallenblasenkonkremente
##ucht
##ind
##ikation
car
Teilverlegte
Rea
Normo
Fußgänger
Cerclagen
##tis.
schall
multif
infrahilär
echogemischt
Tumorkernschatten
Infektwerte
Bypass-OP
##nh
##cortin
##arti
histopathologischem
DTPA
##en/
##ekti
##bos
##bb
##anie
ballonierte
Rektumstumpf
Mag
Kolonkarzinom
Fx-
Darme
##ress
sy
paralytische
Tc--m
Segmentarterie
Schwielen
Knochenmarksödem
Bandscheibeninterponate
##-ka
##umfang
##rso
##ppchen
präoperativer
bl
Kyphotische
Intensiv
Erw
##Vene
##alo
unverändertem
systemischen
kn
hirn
ausgedünnte
Gerota-Faszie
Beckenfraktur
##erge
##eln
##aktiv
strukturierte
hypoxischen
dorsomedial
##pin
##haupt
##enhancende
hypodensem
ce
Meniskopathie
m-Tc-Nanokolloid
##ersch
zarten
schattengebende
atrophiert
Zwischenwirbelraumes
MDS
Knöchel
Erysipel
m-Tc-
##uff
##hnig
##aro
metastasensuspekt
FDG-Uptake
Arbeit
##Sin
##ypo
##ulierte
##renz
##elte
##ches
umfassend
rechtshemisphärisch
Sternoklavikulargelenke
Müdigkeit
Femoral
Auftreten
Atemnot
##nä
mA
Su
Kreatininwert
##rü
##laviculär
##kardiale
##haus
valgum
porto
Indirekte
##sverh
##schwerden
##cephali
##bschnitt
abgeflacht
TIR
Reperfusion
Morrison-
##-li
##verzögerung
##sekret
##lls
Kardiopulmonale
IPMN
Hüft-TEP-
Ballonkatheter
##pule
worden
strähnige
il
hohem
einsch
Oligo
Masse
##ndung
##lust
##isierter
##carcinom
##arbe
zirrhotische
zentrilobuläre
bre
Wash-
Verdichtungslinie
Spiral-
Residual
perirenaler
Web
Rückfluss
Regeneratknoten
Pleurodese
Gesamt-DFP
Beckenvenen
##rsi
##rate
##enförmige
verstrichen
septiert
fetthaltige
Vorfüße
##pül
T-MEDIC
Sprachstörung
Rheuma
MRT-Verlaufskontrolle
Bogenschlussstörung
Blutungsresiduen
##LE
##ziel
##arth
Osteolysen.
Kanüle
GRE-Sequenzen
Dazu
##-En
##ulus
##motori
##eth
##biet
wellige
vertieftem
verkippte
besserer
Rückenlagerung
Periton
Fistelung
##Po
##zervikale
streng-seitliche
Zellen
TIRM-Sequenz
Sehstörung
##wski
##una
##oz
##kose
##indung
##car
vereinbar.
kyphotischer
Mat
FDG-PET
Aktive
ACI-
##plantation
##kri
##izi
transformierte
Stammzelltransplantation
Paraaortale
Nachresektion
NPL
Morison-
##/g
##-Bild
##aumforderung
osteolytisch
korrespondierenden
Zuggurtung
Prävertebrale
Marcumar
##nephr
hierfür
Wendeln
Mitreaktion
Heberdenarthrose
##-Bypass
##mph
notwendige
Langstreckig
Kontrastmittelanreicherungen
Hirna
Enddiastolisches
Durchleuchtungs
Aufstauung
##morphologisch
##lipom
##lg
##bn
##apikale
beginn
##sag
##eller
##bal
verschoben
ph
ergometrische
PET-Hirn
Entzündungsparameter
##-J
##öger
vaso
infero
Yttrium-
Mehrs
HW
##äsionen
##ona
##messen
retroperitoneales
konventionell-radiographisch
SD-Lappens
Jochbeinfraktur
Infektfokus.
Eisen
Breitbasiger
##ndy
##erapie
Überweisung
prätracheale
imprimiert
Stauungskomponente
RK-Fremdbilder
Portkapsel
OMC
##tibial
##systems
##kav
##hot
i.e.
STEMI
##ular
kapsel
Vulva
metastasen
jod
ext.
Subakute
Gefäßabschnitte
Chron.
##EI
##transplantation
##fuß
rhythmisch
genaueren
Typischer
Thorax-Voruntersuchung
Knochena
GRE
Event
Defi
##sophag
hämorrhagischer
gezielten
Verstrichene
SLE
FT-
##rese
##reichen
perio
Subphrenisch
Ok
LJ.
Kallus
DL
Broncho
Allo
##markierte
##kung
zentralbetonte
pulmonales
Tumorko
Segment.
Fettgewebsinvolution
Chondrosis
##ysto
##pon
##iehung
superinfizierte
Sac
PRRT
Gl
##stellt
##rguss
UL-Resektion
Serienangiographie
##HO
##öt
##ritt
##relief
##is.
##hirn
Überst
asymmetrischer
altem
Drainage.
##Ko
##sehen
enthesiopathische
computergestuetzte
ausschließ
abdominaler
Volumenbelastung.
Ventrikulo
Colonrahmens
##essen
##ertes
##ektive
reizloser
neuem
men
gering-
beatmet
Retroflexion
PET/MRT
Endsystolisches
##ücken
##umf
##nur
mäßigem
Retrobulbär
Bio
##acr
ps
kapselüberschreitendes
i.v.-Gabe
Kompressionsdicke
Gliom
Auswurffraktion
Ösophagus.
wiederholte
Olisthesis
Kol
Auswahl
##racheal
##his
##dissektion
gruppierte
Reilly
##Au
##-Par
##üd
##aci
postoperativem
laterodorsal
hypop
ausgeschwungener
Ruheschmerz
Fallneigung
DHC-Stent
Anmerkungen
##sklerosier
##nsi
##iten
laborchemischen
evidente
dystelektatischen
Flu
Abständen
##TS
##Ödem
##onie
##nderte
##itär
##itution
##entzündliche
##entr
pleuranahe
kutanen
Sicherheitsdistanz
Processi
Migräne
Leberherd
Flußprofil
##üle
##venöse
##fanne
##enze
weiterführend
ventrobasal
kraniokaudalen
herabgesetzte
bef
Schrittmacherimplantation
Pal
Infarkts
spätstatische
fester
Unkovertebralarthrose
Oberkante
Oberfeldern
Motorrad
Marknagelosteosynthese
Kn
HNO
Gefäßlumens
Gefäßabbruches
##ngesch
##myo
##my
##ehnen
PSA-Wert
Mittelg
Dis
##zei
##ontur
perforierte
hyperperfundierten
groben
fleckig-
eingestellte
QD
Hauptstammverschlüssen
Halo
Bauchdecken
##stal
##liac
##iertem
##gend
##bie
inverser
intraaxiale
Minderkontrastierung
Knorpelschaden
Bö
Brücken
##cle
durchbaut
Zirku
Weichteila
Pankreast
MDP
Indikations
##nor
##dehiszenz
##amina
##affektion
Stolpersturz
##SDH
##mmt
segmentaler
Schrittmachersystem
Passagere
Lebers
Hämangiomen
Gelenksspalt
Alternativ
##reu
##kuli
##hil
karpale
aortalen
FNP
Det
interkostal
Substitutionstherapie
Mediabifurkation
Enteritis
Ei
##-Status
##orma
hochs
gestellt
dezidierte
Schmorl
Han
Dichteminderungen
##LT
##breiterung
Wer
Osteoplastische
##nm
##bar.
übriges
Trophische
Node
Listhese?
##wend
##tera
##ordnet
##ntal
##erl
bil
Tracer-
Pr
##Mo
##epatische
##cel
##ari
gleichmäßig
Zart
Tesla-MRT
Marklagern
Liquordiapedese
Häma
For
Einverständnis
##rbe
##iziert
##enha
ratio
malignitäts
low-profile
ged
Voraufnahme.
Shunte
Ausrichtung
##DD
##ührende
##trolle
wandverdicktes
[bei
Zeitgerechter
Seg.
Mehrzeilen-Spiral-
Low-
Ferse
Bereiche
##äche
##zytom
pos
körper
Parak
##vit
stationär
ausladende
Sehbahn
längerstreckige
extrakranielle
cum
PL
Gemischt
FOLFIRI
##disc
vs
frontotemporale
dentale
cl
PCP
Milzläsionen
Lupus
Einb
Abstütz
##vers
##ulo
herni
CHI
Bewegungsa
##itäten
postp
Septierung
Retrosp
Proximal
Eigenanamnestisch
##BG
##täts
##rippe
konvex
knochen
Ziehen
Perip
##trans
##anu
erstmalige
atemmodulierte
Turb
Pleurop
Muskela
Koronarsklerose.
Hinterhörner
Tabelle.
##FSE
##verdacht
##usa
##iell
##ellte
##dig
periz
gelenknahe
Proze
Kal
##uktur
##sicht
##out
##ops
##falte
##bulbär
##alam
vergrösserte
Sekretspiegel
Mäßiges
Lungenanteilen.
Gefäßsklerose
Extr
##ontine
##iso
Pin
Ostiomeatale
Haller
malig
Subk
Kontrastmittelre
##ola
##kh
wechselnde
vergröberte
Ventilationsszintigraphie
Venenkatheter
Satellitenherde
Restdrüsenparenchym
Loge
##/dis
invasiv
allo
Pneumatosis
Nierenunterpol
Klinik/Fragestellung
##Biopsie
knöchernem
errechnet
bew
Zysten.
Basalganglien.
Auslöschungsartefakte
##SC
##ementierte
##ear
trapezium
sternale
Superselektive
Hirns
##klus
##geräusch
##ccipital
peritr
meningealen
Temporalhörner
Oberkiefers
Kronen
Furosemid-Belastung
##ril
##mals
thro
prot
mammär
durchbaute
WK-Höhenminderung
LK?
CT-S
Beinschwellung
Adenosin
ANV
##vel
##orten
##kalzi
##dislokation
zeitnahe
palliative
disloziertem
Nierengefäße
Lappens
Knochenmetabolismus
Frakturspaltes
Alveolar
##Pr
##kutan
embolische
Störungen
##CL
##strahl
talo
schlanker
regionalen
epilepti
Umbauten
Trac
Signalauslöschungen
Roll
Mindestens
GK-Skelettszintigraphie
Fernmetastasen.
Anamnese/rechtfertigende
##rande
umspülte
Weichteilphase
Ventilations-
Exkretion
Bandscheibenherniation
##emm
Überwachung
doppelläufige
Konservativ
Einse
Begleitreaktion
##Über
##v.
##siti
ergänzendes
Frontale
Angio-
AICA
##zeitig
##raniale
verti
gef
anf
Subjektiv
Pneumatisierung
Länger
IL
Antrum
##-Co
##änz
##utane
##gestellt
terminales
pulmonalvenöser
kraniokaudaler
frFSE
Koller
##szeichen.
##hepatische
##bol
segmental
mesenteriales
intraforaminale
Pneuanteil
Mediastinalkonfiguration
MRT-V
Lymphknotenkonglomerate
##tp
spin
hemisphärielle
gesto
Aufhebung
TI
##ubi
##menta
##igt
##ffer
triphasischem
dark-fluid
Verlängerung
Varik
Abst
##Q
##Befund
##stanz
##pä
##lisch
täglichen
subpleuraler
Tc-m-Mikrosphären
Segments
Patch
Orbitopathie
Harntrakt
Abdomens.
##/Ma
##/LWK
##rtebral
##lea
##gina
ton
kontrast
beschr
Thoraxhälfte
Schal
Rarefizierung
Radio-
Kleinhirntonsillen
##-n
##latt
zügige
FDG-PET/CT
##Wert
##piegel
##ndo
##enhancement
kontrastmittelaffine
Thyreoglobulin-AK
Röttgen
##He
##ssage
pat
Pfortaderastes
Arthr
##lau
vora
sprechen
Schlecht
Rege
Re-R
##fac
pleur
ima
demarkierende
Sättigung
##penie
##hancement
mittel-
Subcutane
NET-
KM-CT
DWI-EPI
##genes
##ffne
älterem
¼
thorakoabdominell
periareolär
Schla
Röntgenstrahlen
Magen-Ca
Che
##schein
##inden
sequen
septierten
schmerzbedingt
posterius
Signalver
Gefäßin
Epiphysen
##glu
rein
hypervaskularisierter
a.p.-
SDS*
Ir
Hierdurch
Durchfall
Abgrenzbare
##sein
##pathische
plantar
metrisch
gelegenes
Wandverkalkung
Marklager.
LWK/SWK.
##Gefäß
##xiale
vitale
schlechtere
hirneigene
Restd
Akt
##rang
##nei
Paranasale
Materialbruchs
Ischämien.
FOLFOX
CT.
##Zeichen
Zyklusabhängige
Distendierte
Bildm
##tumpf
##fur
Seitenventrikel.
Mel
##Score
##nga
##klärung
umgeschlagene
perim
laparoskopischer
acetabulär
Rhabdomyosarkom
PSA-Anstieg
Milzzyste
Anfälle
##IL
##kine
gl
gene
distalis
Querfortsatz
GCS
FT-Gelenk
##Ö
##mediane
##irn
##arzinom
low-
langsame
kombinierter
##dächtige
##bili
ti
kong
interventionsbedürftigen
chronisch-
##/Infiltrat
##ngene
##auff
vorbe
streifig-
maxillaris.
diverse
Spezi
Medikamenten
Luftblase
Echoreiche
##RV
##äd
##yk
##leer
parav
intraspinales
hämato
Ovarektomie
Gleit
Befundd
##mod
##ids
strahl
pleuraständiger
deformans.
buccal
Sigmakarzinom
PSV
Gefäßwand
##/Ge
##-Po
##-Anstieg
##zumab
##relat
##kaval
semiquantitativ
differenter
Zuordnung
Harnwegsinfekt
##-Zeichen
##raub
##planung
##lid
##itiert
zirrhotisch
territorealen
postoperativ.
plump
normwertig
fal
##chäd
sonographisch-gesteuerte
occipito
ansteigender
Stap
PICA-endende
##Zirrhose
##ysten
##iod
präpontinen
costa
aufsitzende
angefertigte
CE
##verk
##uz
##onst
##dyl
deszendens
Perorale
Obturatum
Girdlestone-Situation
Fettgewebssaum
Atemartefakten
Ag
##Art
##sla
##när
##haryngeal
##cr
vorhandenen
sensomotorische
rezidivierender
eh
Schleimhautpolster
Gebiet
##mpression
##cos
solitären
ausgegangen
ass
Thorax-Verlaufskontrolle
Lungenf
Leistenbandes
Hautklammernaht
Erf
Benigne
##nkrea
pankreaticus
heißen
##öh
##zirkulär
mittleren/
mg/d
früharterielle
entzündungs
benachbarte
Vd
Standard-
##hunt
##ave
umsch
Viszerokranium
Normalgroße
Linksseitiger
Lebera
Fel
Duodenaldivertikel
##pt
##kopische
##fäl
vorgezogene
reizlosen
perigastral
hypoechogener
cervicaler
Thyreostase
Nuklidretention
MCP-Gelenken
Knochenaspekt.
Klipping
El
##L-
##wicht
möglichst
d.h.
Radikul
PSMA-
Hygromsäume
Hinter
##vertebral
##ikar
linkshepatisch
indirektes
cm/s.
##askul
protrahiertes
Valleculae
Uretero
OG
Kompressionsatelektase
Größena
##misch
##bezogene
systolischen
solitärer
eventuelle
abgehend
Verhalten
TX
Luftbläschen
Koronarstent
Kniegelenkspalt
##/pro
##zeh
##pic
##hmen
##chenkel
rotatorische
osteodestruktive
Ren
Knochenstoffwechselsteigerung
Bandscheibenvorfälle
##läche
##behandlung
strukturiertes
Bra
##Linie
##Kont
##zw
##ometrische
Stich
Kalibersprünge
##/ve
##ußer
präpa
nas
makro
Weg
##Pertechnetat
##volut
##schie
##gehalt
Wirbelbögen
Vernarbung
Verminderung
##wandige
##sszintigraphie
##ssa
##osto
##lock
##eben
verlangsamte
hiesigen
Rippe.
Gutes
Endokarditis
Elgeti
Distorsionstrauma
Ausb
##/De
##ärt
##sak
##iliakale
retrocrurale
Radiocarpalgelenk
Nierenclearance
LV-E
Implantaten
Fischwirbelbildung
Ath
##ske
##indlich
##eim
##bula
##arkom
nasalis
dent
Sport
Multifokale
MR-A
Heberden-
Aortenkalzinose
##Schleuse
##-Infarkt
##üng
##uft
##hyperplasie
verteilten
lokoregionär
Seitenventrikeln
MC-
Fem
Demarkation
Bandscheibenfächern
##nati
##kol
vorausge
ung
Verd
Tibial
Por
NEIN
##mera
##atum
Verdichtungsformation
Mita
##wärts
##igmoid
##gige
rezeptor
Verzicht
Schilddrüsenautonomie
Rückläufiger
Peribronchiale
Magenentleerung
Humero
Bulbär
##tim
##ju
REF
Otitis
Cervical
Azetabulumfraktur
##Infarkt
klarem
grün
Untersch
Kollagenose
Kin
Bestrahlungs
Becken-Bein-
##sill
##gier
orbitale
mid
glattwandig
Vorlage
Resp
Gefäßpunktion
Gefäßmalformation
CT-Kopf
##Knoten
##stens
##phar
zweifach
pl
intragastral
i.v.-KM-Gabe
Marklagerl
##lex
T-Hyperintensitäten
Surfactant
Beuge
Aszites?
Abblassung
##-Sta
##van
##rnd
##prozess
kombinierten
Tumorbe
Papillom
Lungenfenster
Leberarterien
Col
BÜ
BWK-
AL-Technik
subdural
nachgewiesen
lumbaler
ausgehändigte
##gland
##enin
verbleibt
supracarinal
sonographisches
angedeuteten
Strahlentherapie
Risikoabklärung
Gesc
Gefäßes
Anasarka
##opli
##ichtige
Ösophagojejunostomie
fla
cM
Tumorl
##verdichtung
##hetisch
th
streng
rel
rechtsthorakal
prä-OP
isointense
intrathorakal
Verbreiterte
Lunge.
Gallenblasenkonkrement
Biphasische
##Pe
ulzerier
grober
getr
durchb
Gehirns
##Nachweis
##/Be
##nau
##destruktion
##anhebung
bas
Herzerkrankung
Gelenkerkrankung
##-typischen
##-kon
Tonsillen
Somatostatin-Rezeptor-
Intervertebralräume
Größenre
DIAGNOST
##tic
##sätze
##ev
welliger
portalvenöse
kV
disc
Leberanteile
Einwilligungserklärung
##FR
##tikel
##orme
##leite
##akti
intraka
imp
abgesprengte
Wegener
TX-Pankreas
Innenmeniskushinterhorn
Hinteres
Fol
Entero
##ogra
##funktions
wiederholt
massivem
frischerer
Zwerchfellschenkel
Gesamtd
Abla
##wo
##ref
##psi
##figuration
##ald
subareolärer
WK-Fraktur
Lis
Ihrer
Hypertransparenz
Ganzkörpers
Befund/Zusammenfassende
Aitken
Abdominale
##serie
##graphisch
fistulierende
Thoraxwandemphysem
Linkskon
Fettgewebsnekrose
##rse
unpaaren
dens
Patellafraktur
Hormonrefraktäres
Elektrodenspitze
##-ca
##lotti
##ften
##fne
heterogener
fra
Durchs
ventro-
py
perine
angepasst
Wen
Infusion
Dünnschichtrekonstruktion
Derzeitige
Cross-
##PECT
##iläre
##illi
##heumat
viszerale
hämorrhagischen
ev
ausgedehnt
Nebenbefunde
Nachw
Lokalbefund
Gesamtausdehnung
Capitulum
##prolaps
##nommen
##infekt
Vorsorge
Pleurar
Huang
Donornephrektomie
##OM
##-st
##rzt
##max
##kV
getroffen
Röntgenkontrolle
Parenchymschädigung
Offset
Gegenphase
Abt
##titi
##bl
volumen
intaktes
einzusehen
alkoholischer
TUR-
Suprac
Nebenschilddrüsenadenom
Metallklips
Knotenstruma
Hiatus
##Rin
##rdiale
##cla
##besatz
fand
Weichteil-
Ovarial-CA
Hal
Bogenwurzel
Bewusstseins
##nbe
##horn
##ffe
großlumige
ausschließlich
Kranio
Cobra
Binnenstrukturen
Beingefäße
##oba
J.G
Interphalangealgelenk
ES
##nda
##mati
##chf
wes
bioptisch
Hydro
##Spiral-CT
##überschreitende
##vante
##perativ
##biert
verteilt
ungewöhnlich
Phlegmone
Normalbereich
##EA
##äuf
##tomogra
##residuum
##par
##omet
interlob
Stufenförmige
Pfortader-
Fremdkörpers
Erstaufnahme
Empfohlen
CC-Abstand
Amp
##O-
##sosteo
##kardial
gutartigem
destruktive
Rechts-
Myelo
Mehrfach
M.G
Blutungen.
##esser
##atale
signalreich
conditional
alveoläre
Tumormasse
Bewusstlosigkeit
Alveolarkamm
-S
##Block
##roll
##eig
##chirurgie
transf
korrekte
intrap
hepaticus
Stehthorax
Neuroforaminale
Hormonsubstitution
##mine
##iter
##gestellte
##exstirpation
pulmo
parafalzine
Präp
Endometrium
DBS
##/In
##Ösophag
gewi
Pleuraschwarte
##zinose
##störung.
##orge
##etra
##enb
erklär
atelektatische
PCA-Infarkt
Hüften
Anamnese?
Alterstypische
##umin
##rach
##gna
##glenoidal
mitgegeben.
VE
Thiel
Segmentale
SO
OSG-Fraktur
##sges
##fal
##bierung
verkürzt
unterschiedlich
Tumor-
Pilon
Beckenboden
##rechts
##dh
höher
dreibändiges
Stellschraube
Sens
##üs
##tsch
##nspi
equina
Weber-
Retentions
Radiopharmakon-Applikation
Nephro-
MCA-Stromgebiet
##xial
##rop
##mput
##merz
elongierter
NEC
MTP-
Keilbeinflügel
Kaliberreduktion
KM-S
Cholesteatom
A.vertebralis
##-Vor
##stante
##gebung
##frontale
umge
monophasische
costo
Wunddrainage
Epiphysiolys
##oste
##noten
##lei
kons
Organl
Linea
Krampfa
Kostenübernahme-Erklärung
Hüfts
Duktektasien
##Arthrose
##rkeit
##onar
Überf
peritonealer
fü
abgeklebte
SIG-
Phlebographie
##Applikation
##zende
zweizeitiger
periportale
kra
i.v.-Injektion
geeignete
epidurales
High-
Geburt
Facettengelenken
BPD
##VH
##unters
##rver
##gän
schwierig
orbito-meatal
inkomplette
Schriftlicher
Intima
As
##Adenom
##/Thorax
##erative
##ander
zementfreier
sero
präsakrale
pan
hypoplastischer
TG
Sta
Occlusion
HCV
Arthrosonographische
##orr
##leus
##inst
verstärkten
suprap
gliotischer
acetabulären
Vo
Ultraschallgestützte
Softplaque
Implantateinlage
Iliakalarterien
Freier
Drainagenspitze
CEUS
Brei
Bildserie
Atmung
##us.
##ode
##natale
##mung
##log
eingelagerten
Transit
The
Linksherz
Epidural
##mmung
paramedianen
dezenten
biliodigestiven
aufsitzend
abgerundeten
Retinierter
Ilium
Gefäßwandverkalkungen
Abdominell
##Plastik
##nitten
##inen
##chosequenz
##char
schräge
Schwanz
Niereng
-a
##tös
##tragende
retropatellare
medulläre
Wellig
Tc-
Parenchymein
Lipo
Ileitis
AH
##reicht
##formi
supratentorielles
eingele
Zufl
Wurzelrest
Thieme
Lympha
##ndel
vacuo
renaler
Schilddrüsenlabor
Opti
Nie
Bandscheiben-
Aufzeichnung
##Angio
##arinal
aktivierter
VCS/rechter
Ras
##anke
##amid
meist
fetale
apikal.
Om
Medic
Gabel
Funktionsstudie
Anschlussdegeneration
##reicher
##ossäre
intraartikulärer
Tro
Prostata-
Mamillenabstand
Kaliberschwa
Fach
Brustschmerzen
##sier
##ellation
##blutungen
Rachen
Oberer
LWS/
CRC
##dos
glenohumerale
dicke
auswärts
adipöse
Vorhofflimmern
TT
Sitzbein
Lipotalon
Granulationsgewebe
Deckplattensinterung
##szintigrafie
##phische
##onto
vi
thorakolumbale
kleinnoduläre
gal
dopplersonographische
Vas
Patellas
Einschmelzungen
Astrozytoms
AR
##ulmonal
thorakal.
beurteilbarer
Schmerzkorrelat
Myokarditis
Ligament
##TI
##stü
##geben
engem
Zielregionen
Vorm
Umverteilung
Trachealbifurkation
Kräftig
Gefäßstr
Demgegenüber
Blutzucker
BMD
##Spalt
##Aus
##spondylo
Ödem?
perive
Wu
Drainagematerial
##/Te
##-Imp
##üns
##röße
##lücke
typico.
Stamm
Proliferation
Mark-Rindengrenze
Kelchsystem
Dopamintransportern
Digit
DO
##ire
transparent
sofort
perfundiertes
pararektale
Uns
Strombahn
SIG-Arthrose
Knochensp
Dring
##ugh
##pop
##mphysem
##c.
Parenchymbrücke
Niedrigdosis
Liegt
Hinblick
Exp
Brustd
AD
##ydr
##lymphknoten
##caval
stärkere
pen
hyperplastische
T-hypointense
T-FSE
Syrin
Seitenb
Schleimhautverdickung
Pulmonalvenen
Ergänzung
CT-D
Art.
##our
##ndete
kar
Magenh
zwingend
nah
aufgest
Zwerchfellbuckelung
Strahlensch
Stammskelett
Operative
Indurationen
Ganga
Frakturfragment
##-mi
aufgehobene
aufgefunden
Somatostatinrezeptor
Radioiodtherapie
Laboruntersuchungen
Intrao
Drainageeinlage
teila
sensible
nachge
Zystisch
Suszeptibilität
Myokardischämie
Mitt
Komplizierte
In--
Gesunden
Auges
Anamnese/Klinik/Fragestellung
##weisen
##lun
##chr
trigeminus
supprimiert
subkapitaler
portale
pausiert
Tonsilla
Ton
Rechtsseitenlage
RH.
Oben
Konkremente.
II-IV
Are
##yer
##ulier
##tiel
##schm
##klappen
##gische
##gastrostomie
umgeben
singulärer
selten
gedeckt
RECIST
Operationen
Nierenarterienabg
Gelenksspaltweite
Dialysekatheter
##zerklage
##rra
##ausd
singulären
lakunare
inters
Zügige
Wandausdünnungen
V.femoralis
Rhizgelenk
Ischämiefrühzeichen.
Fremdmaterials
Deformierte
Außenk
Ausschaltung
Anastomosenregion
##.G
##chatten
gelenks
entfernt.
ansatznah
Symp
Lokalisationsdiagnostik
Broviac
Axis
##elin
UA-
Super
Steinbrocker
Lebervers
LV-EDV
Herzrhythmusstörungen
Clavikulafraktur
##GT
##-Ne
##-Manifestation
##ulter
überzeugender
kürzlich
gesi
Scholz
Rotation
Kreuzbänder
Dopamintransporter
Chol
##ösophag
##indi
##einst
ggü.
Low-dose
##rweise
##olge
##kom
Überg
radiale
intrame
circu
app
Tracheo
##sem
##sakral
##mina
##liegende
##ister
##höhenminderung
Knochendefekt
Fibrosestränge
Bildbefund
##CO
##ventrikulär
##pplikation
##esis
##erlich
##aute
entrundete
Hüftprothese
Cholecystolithiasis
##-ti
##schwe
##orie
##ontusion
##imp
##bh
sterno
assoziiert
Wiberg
Schmorlsche
Schlagvolumen
Hautmarkierung
Einlegen
hTG
##uu
##tos
##mische
##mbibierung
ulnare
extraaxial
col
Ruhe-
Pseudotumor
Antero
##uchen
##raf
##api
stechende
intrasellär
intakter
hilär.
epiduraler
SZ
Marklagergliose
##venti
piriformes
distendiert
Narbenb
Lebens
##hrombus
##gem
##ftige
zy
paravertebrales
homogenen
corti
Hinweisen
Bek
##suspekt
##isth
schalenförmige
minderperfundierte
Steigerung
Redistribution
Formel
##I.
##äk
##temporo
##dicht
##atheter
posttherapeutisch
paraa
morphologischen
LV-EF
Kontrastmittelab
Hohlorganperforation.
Athyreoten
##ric
##hof
##atin
verme
Reizloses
OB-
Maskiertes
##MR-OPS
##ntrikulär
tracheale
inkrementell
Wüstefeld
Parästhesien
Osteosynthetisch
Mamma-Spule
Hemis
Ade
##uber
##jet
Sing
KM-Enhancements
##stä
high-
Pankreaslipomatose
Krankenhauseinweisung
Infarzierung
HR-
Child
-c.
##loz
##inb
juxtakortikale
intervention
hämorrhagisch
Strähnige
Flüssig
##proportionale
##niveau
##eichend
subpe
muskulären
Tonsille
Stauchungsfraktur
Leukoaraiosis
Lebert
Bessere
##PO
##loka
##enkt
ventral.
spa
Vorb
Shaldon-Katheters
Schäfer
Dünn
Defektes
mTc-Nanokolloid
##My
##ätt
##metrische
##lithiasis
Unvollständige
Therapiere
Septierungen
Jährliche
Datums
Bur
ACI-Abgang
##Läsion
##Fl
##eiben
##deckel
intraventrikulären
hypertrophen
behandelt
abgrenzen.
Valgusfehlstellung
Lobektomie
##zentrum
##teils
##nste
schw
mod
konnten
Nebennierenloge
Konsolidierungs
ANV.
##vex
##verf
##vaskulär
##blastisch
polyzystische
Ventrolisthese
Pra
On
Linksver
Kortikalisbreite
Invasive
Hydrop
Beckenschaufeln
##übergreifend
##infiltrate
zulaufend
vulgaris
perivaskulärer
minus
intrat
gastrointestinale
Parenchym.
Dünnschichten
spätstatischen
linkslateral
Milzr
Gesamtperfusion
##/Ein
##onung
##dau
##bat
indi
gew
gefallen
biliäre
Yamakawa-Drainage
Vorbeschriebener
Splitbolus-Technik
Exo
##plen
protrahierter
extraossäre
auszugehen
Wandständige
Subcapitale
Leistenhernien
Frisch
##HS
##uls
##poly
##efe
Tibiaschaftfraktur
Tc-m-MAG
Prostatavergrößerung
Magenfundus
Durchtritt
##occipitale
##gla
##edikulär
LOL
Kap
Dach
##P.
##Infektion
##den-
##bilitäts
schrauben
oralen
endständige
LV-SV
LV-ESV
Kniekehle
Kardiopulmonal
##erbar
##ekrose
paratracheale
Zusammen
Olekranon
Nachuntersuchung
LT
Kontroll-CT
##Unter
##vale
##undi
VATS
Spitz
ST-S
PTC
Lungens
##ographisch
##gef
void
radi
Ultraschall-gestützte
Schwellungen
Schmorl'schen
Lungenareale
Lebergewebe
Demers-Katheter
Schleimhautpolyp
Exostosen
##pill
##nem
##lekt
##alität
neurodegenerative
hämo
Win
Subsegmentebene
Partial
Maximal
LD
AN
##ysi
##ush
##lanti
##flex
##alv
glenohumeral
Prof
Etagen
Deck
Aussagekraft
##ult
##sorge
##ohr
linkshemisphärisch
Thrombosen
Kontusionen
##lumiger
##klei
vorgeschaltete
iv-Kontrastmittelgabe
imponierendem
anastomos
Occipital
Lungenstauung
Halb
-Gefäß
##-Studie
##zyten
##was
##stic
##llig
zentralvenöser
temporo-
Zystenniere
U-
Tages
Split
##Scan
##uster
##igem
lückenhafte
echoangehobenes
Sprengung
Rückstau
Kop
Knochenmetastase
Erstma
Degenerationen.
thyreo
latero
Zungengrundes
Vv
RUL
##-Ba
##p.
##lasti
##ekte
##edingt
##corpus
malignomtypischen
adaptiert
Ventralisation
Neoblase
Lumbalskoliose
##Luxation
unteres
Trachealband
Strukturen.
Parenchymd
Gangstörung
Abgangsnahe
##ML
##nab
##lass
##jekt
##ief
semizirkuläre
nachfolgende
mittlerweile
liquorisodense
cutane
ch
Hohlorganperforation
Ents
Dentogener
Achsenskeletts
##zerb
##z.
##fel
##axillär
suprahilär
prolabierte
parietalis
int.
fettig
Lungenh
Differenzialdiagnostisch
##üt
##verschieb
##raphie
verstrichenes
septischer
pararektal
gestützten
Kav
KM-enhancenden
##-entzündliche
##sversuch
##ndet
##ginn
##athie
Übermittlung
Gelenkspaltweite
##rank
##kardi
##fokale
##duzierte
zervikales
punktiert
echoreichere
differen
breitbasigem
Vorführen
Semi
BS-Protrusion
Abszessformationen
##revision
##pher
##liom
zyst
tumorösen
ipsilateral
getrennt
Wandhämatom
Flüssigkeitsverhaltes
##-vo
##-Se
##äufe
##ässe
##klin
##chondro
retrobulbär
pe
hernierte
besondere
Steuerung
Spiegelbildungen.
Solu
Schambein
Kreuzbein
Infrarenal
Facettengelenksarthrosen
Entwicklung
Darmpassagestörung
Coe
Ball
##idale
##geste
##geal
##erfundierte
##caudal
residuellem
höc
fr
Therapiea
##ximal
##mentation
##abg
verschlossene
spondylo
Samen
Plaqueauflagerungen
O-
Nierenoberpol
Kardiomyopathie
##station
##schämie
##karpal
##hala
##eso
paranasale
oss
mm²
mediastinales
bewandet
Dormicum
Adhäsionen
##Hyperintensität
##hlzeit
##befunde
ventrikulärer
rektal
mehrzeitige
Tumormanifestation.
Tumoren
Seither
Lymphmarkierung
Listhesis.
Int
Embolien
Dosissteigerung
##OK
##Gefäße
##zelluläres
##wal
##throse
##stit
schmächtig
aufgetretenem
Erhöhter
##Fa
##trag
##knöchel
vermutete
konkrementfrei
Thorax/Hemithorax
Therapeutische
Sehnenansatz
P-
Nuc
Infrak
SD-S
Referenzläsion
KM-M
##num
##nia
##aortal
mGy.cm
ext
Unterlappenbronchus
Referenzläsionen
Abstützreaktionen
**
##ächlich
##ustr
##ormier
mediolaterale
gastroösophagealen
epileptischem
eingeblutet
Schultergürtels
Randwinkelverkürzung
Parietal
##TSH
##Ana
vertebrobasilär
verbesserter
WV
Vergl
Präop.
Ib
stable
nekrotisch
lamin
Thoraxverlaufskontrolle
Oberärztin
Hirnschaden
Geschl
##/Hämatom
##onische
##ngl
##leuchtung
##itige
retrosternalen
extrap
bihemisphäriell
Reserve
Oberflächliche
Neurofibrom
Mehre
Line
Kopfschwartenhämatom
Gynäkomastia
Galeal
Emphysematöser
##lein
flachen
angefertigten
Langfristig
HCC-Manifestation
##trecke
##nop
##lw
eingelegte
Prozesse.
##stimmung
##knotige
##glichene
##ebe
##astro
##aca
orthograde
extraa
LYMPHABSTROM-SZINTIGRAPHIE
##Nervenwurzel
##AB
##rguß
medioc
geh
Ventrikelsystem.
Split-Bolus-Technik
Costo
Carotis-T
##-gr
##-be
##ize
ösophago
erfasst.
Seitengang
Perifokal
##trale
##plu
##oral
##lom
lateralisierte
kno
SK
Rektum-Ca
Fingers
Ependymom
##/Ca
##verlaufende
stri
Synostose
Monop
Engstelle
Cerclage
Aufbrauch
-%
##transvers
##latten
##führt
##farkt
##eitung
sell
Umfangs
Subarachnoidalraum
Ev
Armvene
##put
##ban
sinus
gesichert
Standard
Stabilitätsgefährdung
Lebere
IVS
Drainageneinlage
Darstellung.
##CM
##üße
##uert
##ozyto
regulärer
longus
Territorialinfarktes
T-W
Rippenknorpel
Ascites
##zellk
ve
rupturierte
intraabdmonielle
Thoraxübersicht
I/II
##Ra
##Keine
##nisse
##lokalisation
##köper
##grenzen
##eme
##diaphragmal
rest
abszesstypische
Unterarmschaftfraktur
Sekundärrekonstruktionen
Saug
Quetsch
Mikrokalkgruppe
Husten.
CT-graphisch
Amyloid
Akro
##ufnahmen
##rotierte
##hafter
##asst
lung
gefolgt
aspirieren
Schmal
Samstag
Radialis
PS
Exs
Dystelektatische
Anschluß
##zeps
##wände
sublingual
sacrums
postrenale
Kiefergelenks
Hemianopsie
Bündel
##vat
##tisches
##roi
##arthritis
schemenhaft
noduläres
Nuklidanflutung
Lymphknotenstatus
Laktat
HI
Divertikeln
##NC
##DS
##vist
##geschehen
##bil
##aktive
##adaptierte
achsgerechter
Valsalva-
Meningeoms
FP-
##stoid
##nkel
ödemartige
verdichtet
transa
Unv
Kardiologie
##omogra
##fibrotische
##ehl
##bronchi
vorbestehender
Skler
SE-EPI-Technik
Hyperl
Hirnb
Bandscheibenvorwölbungen
##reso
##legung
Offensichtlich
Hämorrhagis
Emphysem.
Dreischichtung
Dilatierter
##ufe
##nämie
ablativer
Suprak
Prothesenkopfes
Minute
##-sp
##mpfe
verkürzte
undi
posthämorrhagische
limitierte
abgeklärt
Trapez
PAH
Lapar
##TEP
##zü
##ntz
##hyt
##gonal
##cino
wolkige
parenchym
niedriggradige
Röntgen-
Lungenkontusionen
Invers
Hämodialyse
Heberden-Arthrose
Belastungs-
##vermehrt
##emp
##drü
##bulär
vorstell
ummauert
biphasische
Ausg
##orte
##grube
##besprechung
##bedürftige
intraparenchymatöse
Verhaltformationen
Shuntven
##/z
##sparese
##ingen
##ialen
##aufen
ped
Stirnhöhle
PcomA
Hormonersatztherapie
Adenome
##ych
##lla
##lang
##hauptst
##eib
##ator
retrobulbären
flächenhafte
callosi
Zugschrauben
Tastbefunde
LOT
IABP
DA
##J-
##-i
##spi
peritumoral
deckplattennah
Lumin
Ganzkörperszintigramm
Abgerundete
##AP
##uv
##femorale
keilförmiger
Verwirrtheit
Ven
Gesamta
Gefäßver
Differentialdiagnostisch
Derm
##yeli
##rod
##rak
##py
##lumige
##ike
biliodigestive
Unters
Mikrop
Mesenzephalon
Langs
Kontrastmittelunterstützte
Enhanc
##lektatisch
##hepa
##ealen
Überkr
linkslateralen
Pank
Nervi
Materialdislokation.
Hals/
Duralsacks
##VI
##Mark
##itze
##fehl
rech
har
Spaltbreite
Leberver
##vertebrale
##ufen
##tiert
##inu
##gastrale
##chra
##bere
##al.
subakromiale
leptomeningeale
Planungs
Pankreasläsion
Medizin
MK
Kaudafasern
Interlobär
Hüftluxation
Hebe
CT-Angio
##Ar
##schluß
schmerzen
retrovesikal
erstreckt
##smuster
##raumforderung
##gerüst
##eng
weit.
anliegendes
Treppen
Signalveränderung
Nierenfunktionss
Muskels
Irregularität
Aufgetriebene
##Dys
##rtefakte
##kontakt
##hra
aufgebautem
Manifeste
Id
Gastrostomie
Einordnung
DK.
Chi
Binnenechos
Anisokorie
##-Voraufnahmen
##ani
##anamnestisch
hypermetaboler
atrophen
Untergeschoss
Oberflächen
Herzkammer
Gefa
Einziehungen
Computer
##tudie
##tiden
##pple
##dor
thrombosierte
separat
occipital.
neurodegenerativer
erschwerten
dominante
V-
Unc
SH
Größenprogredientes
Führende
Begleitdystelektase
##schwan
##mil
##inierte
##ces
Weichteilmetastase
Stenteinlage
Mitbeurteilung
Mehrfache
Lotgerechte
Körperverletzung
Kleinze
Grenzzone
##/Bl
##zinti
##sam
##rich
##enp
##behinderung
sehen
fraktur
Mittelfeld.
Lungenherdes
Herdbefunden
Gallenblasens
Belastungsdyspnoe
Atypisch
##Ter
schla
genannte
chol
Tumorausdehnung
Schluckstörung
HCC-Läsion
##rgr
prol
ovarica
aufweisen
Zonen
Zahlenmäßig
NB.
Kauda
Ellenbogengelenke
Bev
##AST
##.c
##-Kno
##prechstunde
angularis
Spinalkanals.
Röntgenbilder
Lappen-Größe
Interventionen
Infi
Grundplatteneinbruch
Bredow
Afterloading-Technik
##xillär
##not
##enkel
##cum
##belüft
##ahe
thora
statischen
pol
monomorphe
ink
Sutura
IV/V
Crosse
Aufenthalt
Akustikusneurinom
##-Pl
##zintigra
##zentrische
##lantation
##iko
##asc
serösen
paar
musk
Zahnartefakte
Wirbelkörpere
Vaskulär
TSH-Rezeptorautoantikörper
Pri
Metast
Hinterkantenalignment.
##pekt
vermindertem
luftgefüllt
arti
Sil
Mittelohre
Halslymphknoten
Crista
##ßte
##warte
##unregelmäßigkeit
##gemäß
separater
normoreflexivem
line
allein
abgegrenzt
##sklerotische
##macher
##ltra
##cage
Zugangsweges
Tempor
Osteop
Farb
Descend
Ass
##Z.n.
##/ko
##teg
##ronch
##hyl
projektionsradiographische
mitgebracht
Zirkumferenz
Zerebell
Schrei
-Kanal-Spule
##Qu
##tiefstand
##rend
##ips
##bildungen
subchondral
spärliche
Spirale
Makroverkalkung
Kolon-
HLA
HO
Grenz
Exa
Ewing-Sarkom
##TO
##versi
gelang
dilatiertes
Ten
T-Sequenz
Spickdraht
Port-
Nuklidaufnahme
Krone
Einweisungsschein
##Schaft
##egt
pontifizierender
Wirbelsäulen-
VVU
Kel
Kaliberirregularitäten
HIV-
Granulation
Eingang
##-dichte
##sprengung
##sbi
##omo
##axiale
subjektivem
alkoholisiert
Weites
Trop
Leukencephalopathie.
Klatskin-Tumor
##MSCT
##-He
##rgi
rechtshiläre
hippocampale
gespei
atlanto
TMT
Narkose
Larynx-C
Cir
##pm
##nol
##mination
##by
verschraubter
retroclaviculär
ischi
Tru
Trachealdeviation
Nikotinabusus
NYHA
NTx-
GIST
Conusstand
##unktions
##schem
##neurysma
##mog
##lymphom
Wanddicke
Verti
Verme
Schlauch
Diffusionsstörungen
Beckene
Außen
##-Ze
##konfiguriert
##innen
##elon
##elen
##aht
therapie
ophthalmica
laufender
continuitatem
Sonstiges
Lidocainhydrochlorid
Flußgeschwindigkeit
Doxorubicin
##Grad
##fache
##bä
tumorbedingte
thrombembolische
suprapatellar
negative
intramammäre
Lungenemphysem.
KM-Übertritt
Füllungs
Cholangio
Bewu
##xstirpation
##schlauch
##ckung
modalitätsübergreifend
Sto
Perkutane
Gering-
Gefäßc
Einschluss
##Akt
##-Pe
##nts
##astr
teilthrombosiertes
Peritonealblätter
Kompr
Kath
HSM
Cardiomegalie
Buckelung
##MIBI
##-Port
überb
strichförmige
Re-Staging
Pektoralis
Gona
Cine-
##VE
##ude
##se.
##o.
ziehen
Wes
Marklagera
GGT
##-z
##dm
grenzen
echogleich
Sekret/Aspirat
Reduzierter
Pleurab
Mid
Ikterus
Atr
##ßig
völlig
orientierende
intraspongiöse
Revisions
Punkt
OSG/
##/W
##tliche
##lere
präpontine
paraneoplastische
eher]
Waschung
Wandbe
Spongiosastruktur
Pic
Perfusionsver
Crani
##Exp
##bito
##arpal
wahrscheinliche
nunmehr
kardial
interlaminäre
harten
Zer
CMV
Abk
calcane
Rotationsskoliose
Basalzisternen
##-Fu
##rmi
##keine
schwielige
Retrocardial
Prom
##Bo
##uppe
thoraco
präcentralis
perirektal
lobulierter
cm/sec
Resorptionss
Residuelles
Femurkopf-
Bor
Axillae
Augmentation
##tge
##rezeptor
##lenke
verfolgbar
tibio
perkutaner
mandibulär
Pankreas-Ca
Nierenkolik
Mittag
Ileumconduit
Cal
##weichteile
##dop
##cardial
stuhl
pararenale
geschlängelte
berechnet
TAK
Spannungskomponente
Parenchymläsion
Lungengefäßzeichnung.
Lipomatös
Intraabdominelle
##Kopf-
##/Ober
##pN
##millär
##chette
ragen
Zahnwurzeln
Tief
SSF
Pigtail-Drainage
Kontrastmittelübertritt
Grundgelenk
Epikardiale
##ürftige
##rw
specific
parailiakale
Transp
Rhiz
Pupillen
Positives
Nierenwerte
Ellenbeuge
Cy
Auslass
Asbest
##ressive
##chtet
Tim
TSH-Rezeptor-AK
Striktur
PET/CT-
MTP-I-
Ischämieareale
##-th
##ättigung
##schle
##reflex
##ote
##alige
infekt
indu
ausstrahlend
Port-System
MCA/
Abszessen
##inik
##erenz
##duodenal
frontobasale
diskale
cereb
Befundwandel.
##öffnung
##kular
##argelenk
Ästen
pancreati
exzentrische
ethmoidal
allgemeine
Submandibulär
Nein
NNH/Mastoidzellen
Bodenplatte
##skon
##olit
##ical
##hst
intraspinaler
hypermetabolen
erhaltenen
Spickdrähte
Rippenf
Rekon
Parat
Milchglasartige
Erk
Darminhalt
Colondivertik
Cine-SSFP
Bilda
##tütz
##sdia
##karzinoms
##hm
##bgang
##anten
portokavale
intrath
einzustufen
autonomen
##Zeile
##Ze
##Ges
##-Material
##tende
##itive
##ios
##ahl
seine
rarefizierter
exzentrischen
angelegten
Lungenflügeln
Beinbeschwerden
Baucht
##xis
##erie
posttherapeutischen
kaliberschwache
SN
Neg
Zielregion-Referenzregion/Referenzregion
##Hals
talofibulare
komp
entzündlich-r
Wanda
Urosepsis
Perfusionsausfälle
Lymphsz
Drucke
##Lungen
##prophylaxe
##ntikörper
##nieren
##etzen
übergehend
untersucht
ok
infiltrat
Ranitic
Minimales
Lymphabstrom
Links-
Konus
Ileozökalresektion
Cysti
Ausleitung
##PS
##GA
osteoblastischer
guten
einstell
Luxation?
Gesichtshälfte
Fat
Bi-Rads-Kategorie
##KE
##abnahme
weiterführenden
ter
starkem
nachgeordnet
les
entf
eingez
aufgefallen
Thrombusnachweis
Sklerosezone
P-Segment
Lungenmetastase
Gyn
Entgleisung
Antegrade
##Phase
##BI
##unk
##reo
##reitung
tuber
steigenden
pneumoni
engmaschige
elongierten
degen
Markpyramiden
##schli
##rch
spinales
Zerebellums
Wesensveränderung
Iliaca
Bronchial-CA
##orgung
##isu
##ifikation
##grenz
##entl
##eidung
lobulierten
ausgezogene
Nierenteilresektion
##-ova
##vide
##rüche
##run
##pleuritische
##opha
##enos
sac
daneben
Transplantation
Myelinisierung
Infiltrate/
Beinen
Arteriitis
##gation
möchte
linksführend
frisch-
dorsokranial
beh
Spasm
Perfusionsverteilung
PIP-Gelenken
Kontrastmittelfahne
##-Zeilen
supraklavikulären
opB.
mitgeteilt
Signale
Notwendigkeit
Komm
Drainages
##/Ko
##-Versorgung
##slozierte
##plastisch
##ott
##ipho
##adel
resultier
horizontal
fragliches
effektiven
abgebildeter
Periost
Lobulierung
Jodkarenz
Hirnstammi
Fußskelettes
##venösen
##prech
##mut
##hole
##ehnung
##atica
reproduzier
Still
Larynxskelett
LUL
Implantatlage
##-sklerotische
##rthro
##gerechte
##eurysma
schlitzförmig
lateralisiert
Zielaufnahme
Tend
Biopsien
Arteriosklerose.
##-suspekter
##-As
##tica
##ssigkeit
##oskopi
##ervier
thrombosiertes
rechts/
ankylosierende
GG-
Dünne
Cerebral
##/er
##kam
##hinderte
##alr
hyper-
Vorbe
Tumorprogress
Lungengewebe
Interphalangealgelenke
##Rest
##ureter
##pathologie
##luminale
Ösophaguss
umliegende
prop
empf
Subduralhämatoms
Jet
Flü
##mang
##dium
##anf
Hirndrucksteigerung.
##motherapie
##eintr
progr
kontr
gegenwärtig
WT-
Seitenventrikelvorderhörner
Plattwirbel
LuAE
Abgangsstenosen
##sthes
##ieb
rez
embolis
Verlaufskontrolle.
Stück
Parenchymt
Nachbe
Mittelständige
NSS
##-nod
##verstärkte
##vasiv
##tikal
##ippt
spezifiziert
prähepatisch
eingebrachtem
BM
##End
##/e
##überlagert
##uminal
##hre
##gens
subsolide
normalkalibrig
fort
eint
Transport
Lymphk
Knochenb
##HT
##Atelektase
##uko
##rpus
##ativ
stumpf
proximalem
hypo-
fibrotisch
Winkelschwiele
V.jugularis
Stirnhöhlen
Sol
SI-Gelenk
Paraparese
.A
##Spi
##koliose
##igu
##ebr
##dysp
##bital
umf
physiologischen
abszess
Stu
Rotatorenmanschetten
Osteoidosteom
Nierenlager
##UNG
##stio
##icus
punktionswürdige
hinweisende
Lungenfelder
##ragmentäre
##ontin
##ikulär
##dacht
##bifurkation
subscapularis
schl
Sklerot
Kombinierte
Facettengelenksarthrose.
Elektro
Abzess
##zg
##pathi
##nitu
##kolon
##abr
dorso-lateral
aneurysmatischen
Kei
Gründen
Gesundheit
##Zu
##ulking
perit
gestaucht.
Stimmlippen
Schädigung
Leberfunktion
Cholestaseparameter
Bulging
##zyto
unruhiger
selektiv
intaktem
einstrahlend
aufgeh
Zw
Verbleibendes
Vd.a.
Pleure
Palacos
Arthro
##anastomose
gegebenen
axi
angeraten
ang
Erwartungs
CRTD
##leo
oberem
auftretende
Stat
Leukencephalopathische
ID
##trübung
##invasive
##chein
##azinäres
zel
gem
diffusa
Up
Sub-/epidural
Malignität.
KM-Austritt
AE
##ulose
##elz
##ao
transk
portaler
daran
Ossi
Gunsten
Grades.
Diff
Darmkontrastierung
Beurteilbarkeit.
##Tra
##-Qu
##erm
##chlu
##arz
periapikaler
handeln
Vierter
Randsklerosierung
Pfortaderthrombose.
Komplikation
In-vitro-Werte
##Sonde
##thromb
##kondyläre
rechts-h
hyperreflexive
Subsegmentebene.
Rechtsh
Kollateralband
Knochenzement
Erhalt
Carcinom
##FX
##DV
##üb
##benen
fortbestehende
Spinalnerven
Karotissiphon
Innenrotation
HCV-
Darmischämie.
##kurv
##cat
milden
inzipiente
Varikosis
##No
##HA
##konglomerat
##eilig
##blat
immun
abd
Gelenkspaltverschmälerungen
Femur-
##umbilikal
##randig
zö
zwischenzeitliche
striatal
peroneum
orthotopen
konservative
hemisphärisch
beste
Winkelerguß
Verschwielung
Sesambein
Prog
Nierenläsionen
Mitomycin
Leistenb
Korrekte
Kontrazeption
Hepatoblastom
##ämangiom
##szeit
##bulanz
verplumpter
nochmals
Siebbein
Perirenales
Perfusionsinhomogenitäten
##versagen
##oraufnahmen
##nalen
##iggert
ret
hineinr
Tem
Stürze
Protonen
##Ersatz
##ächtig
##opa
##konv
tethered
isointens
empfiehlt
Wedge
Ventilations
Rat
Polyurethan-Katheter
Fx-Spalt
##konstant
##gat
##exa
##esektion
überlagerungsfreier
Sklerodermie
Ballondilatation
##Köpfchen
##zögerung
##zess
##utan
##spezifischen
bilden
Seitenventrikelhinterhörner
Gem
Gefäßp
Anh
Abschluß
mTc-Dicarboxi-Propan-Diphosphonat
##-Komp
##tuximab
##rosi
##ktor
##brachial
frakturierte
Untersuchungsp
Retrosternalraum
Inhomogenität
Frakturenden
Dopplersono
DBS-
Überschreitung
kolorektale
abgesch
Schockraum
Schmächtige
Motilitätsstörung
Marklagerhyperintensitäten
Lin
Kom
Cross
##läht
unbekannte
stra
schmalkalibrig
antibiotische
Substanzminderung
Ric
Hun
Glucosemetabolismus
F-FET
Dünndarmileus
Drüseng
Caecum
##vern
##verband
##untersuchungen
##isl
##gruppe
##ennah
##eckt
lumbosacralen
feinen
TX-Gefäße
Pt
Posttraumatische
Operationsgebiet
MH
Horizontale
##Al
##-jährige
##zent
##trast
##eiter
volle
traten
gewichtsadaptierte
gewe
gerötet
beurteilbare
aufgebauter
Vera
Teilthrombosier
Strang
Nephropathie
Leberbiopsie
##litter
##lch
bull
Klappe
Enzephalitis
Tel
##Pl
##lignement
##ilung
##here
##erat
zwischenzeitlicher
entzünd
einmalig
artikulierenden
Widerstandsind
Sekundär
Grunderkrankung.
Furth
Arth
Abdomens/Beckens
##ompl
##cervi
##atös
hinein
etc.
Zeichnungsvermehrungen
Radioulnargelenk
HL
Geisel
Gefäßd
Flächen
##pekte
##chondrosis
nuchale
instabile
Parenchyminsel
##uct
##ormation
##konsolidier
##ght
##fähig
##eque
papyracea
lumen
juguläre
hypointensem
echoreduzierter
commun
Stromgebiete
OPS-v
Medio
Kräftiges
Flüssigkeitsa
Defibrillator
##Uhr
##/im
##osyn
##ektoral
verschieblicher
scapholunäre
radii
münde
lobuläre
ers
acht
Umschriebenes
Interme
Ileostomas
Galea
Early
Brustdrüsenparenchym
##axi
verb
ober
Venenthrombose
Poplitea
Leuk
Gelenkbez
Ergussanteile
Dilat
Dienst
##%ige
vorz
medi
konk
Seitenlage
Extraktions
##FE
##DA
##oge
zahlenmäßig
Schnittbildtechnik
Schmerzm
Organis
Nachs
Goldmarker
##IB
##tionen
##normale
##mündung
##ico
heterotopen
gez
bildgebenden
Residueller
Myelonläsion
Darmper
-T
##Anteil
##regional
##pene
##moid
##itra
xx
nekrotisierende
druckschmerzhaft
ander
Pre
Nasens
Hautver
##unke
perihepatischen
krampfartige
absch
Retinacul
Muskelfas
Delir
##OL
##skr
##infiltrat
##blastom
perivaskulären
mechanischer
deut
blo
aszend
Subdurale
Schwierig
S-
Krise
HCC-Manifestationen
##Szinti
##motil
##krä
##gewölbe
osteop
kontralaterale
geri
Redon-Drainage
Gib
/min
##ZB
##törungen
##swe
osteoblastischen
miterfasster
konturgebenden
Teilverlegung
Skelettabschnitte
Pankreatitis.
Lufteinschlüssen.
Knochenkern
Funktionsanteile
Faden
##flo
##dolinium
sämtlichst
Ventrikele
Ureterabgangsstenose
RST
P-S
Minderanreicherung
Liquorabflussstörung
Lebervenenstern
Darmanteile
##uo
##siko
##rv
##opat
verse
Person
Mü
Gegenschwung
##/Fi
##wunsch
##kei
dienen
Wenige
Valgusstellung
Sigmadivertikulose.
Optikus
Kurven
Hinterkantena
AC-Winkel
##enchym
sep
erfassbare
aufgeweitet
Zirrhotisch
Nagelkranz
Muskel-Skelett-Systems
IIA
##-Injektion
##wö
##sens
##onogramm
##ille
vastus
phrenicocostales
erheblichen
Transparenzerhöhung
T-Score
Radiokarpalgelenk
Hill-Sachs
Ao
Avanto
##ssb
##onse
##konvexe
##chige
untersch
längerem
Posteriorinfarkt
Ged
##Komp
##/LWS
##yr
##vol
##vertik
##kto
##gehende
verkalkende
rectoprostatische
intraaxialen
ganzen
dra
cranioc
Thermo
PSMA-P
Nuklidmehranreicherungen
Infiltratnachweis
Erschöpfung
Diskonnektion
Bewegungssegmente
wandständig
PSMA-positive
Einspielen
Doppelecho
CNI
##-Sche
##stati
##rl
##ojejun
##esamt
propulsiver
phlegmonöse
parapelvinen
parakardiale
normo
mir
flüssigkeitsisodense
Unaufällige
Proc
Polarterie
PB
Mapping
Globusgefühl
Femurdiaphyse
##viti
##uskulatur
##trennung
##tine
##pus
##guli
##einb
##chu
weichteildichten
normalgroß
iliak
Unko
Schädelbasisfraktur
Rie
Op-
Gefäßabbrüchen
Broviak
Armvenenthrombose
##ulen
##tele
##str
##atten
korrigiert
descendierende
Mitralklappenersatz
Letzter
Ga-Dotatoc
##/inf
##ürt
##urge
##ukt
##heter
##asse
spiralförmige
inferiore
Wande
Parenchymorgane
Haupta
Filiforme
Erb
Deko
##stoli
##sarthrose
##nsp
##kreas
##kr
##gge
untersuch
räumliche
obige
Z.G
Tc-m-D
Sjögren
Leberst
Doppelte
Ax
##örner
##pols
##mäler
##lekti
##hebung
##basi
mä
belassen
Uhr.
Rands
Parathormon
Gelenkgerechte
Belüftungsstörungen.
Behandlungs
##-ven
##tendino
##orbitale
##eile
petrosalen
mobile
kla
Ureterschiene
Terumo
Schne
Schilddrüsena
Oberarms
Mediastromgebietes
Lau
Ga-D
Exazerbierte
DiffusionMR-OPS
##Lawrence
##dista
##diaphragmale
subcapsulär
darf
Terminvereinbarungen
Tw-Hyperintensitäten
Reflex
Lückenhaftes
Inf
##rar
##ond
##minier
##inöse
subg
größenkonstant.
einzuordnen
eben
abg
Tiefes
TRUS-Biopsie
Mich
Liquorzirkulationsstörungen
Kniegelenksmitte
##DOTATOC
##u-
##ova
##id-
##hand
##bral
starvibe
Mening
Brustdrüsenkörper
Becken/Hüftgelenk
##terie
##ov
##bullöse
rö
emp
Randkantenausziehungen
Plaquebildungen
Infiltrationszone
Flüssigkeitss
##-ges
##ungsf
##uelle
##spro
##gni
infar
einmalige
bewertbar
Trifurkation
Rekanalisierung
Prothesenpfanne
MRT-gestützte
Erheblich
Ehe
CT-gestützter
BSG
Abgekapselte
##z-
##von
##ulom
##sk
##septen
##facher
##etont
##akr
verwa
entfalteter
angest
T-f
Leberunterrand
Koronarstents
Kolitis
Herztaille
HB-
Fasern
Bildarchivierung
##Em
##radi
##funktionelle
unkomplizierter
thrombo
normgerechte
Stentgraft
Periportales
Materialien
Korrekturosteotomie
Fibula-
Blutungszeichen.
Auslauf
##sigmoidale
##pfen
##gela
könnten
kor
Schädelk
mTc-
##IP
##ures
##tielle
##spiel
##oku
##mbulanz
##hnt
osteopen
omental
demarkierender
cSDH
abgangsnahen
Land
##Abstand
##ässer
##unterdr
##tam
##flichtig
##chens
therapier
stauungsbedingt
korrelierende
Vestibul
Verbleibend
Segmenta
Mittelfußskelett
##-Op
##stei
##rochene
##immun
##gestütz
##eom
wä
gebo
Pericard
PTLD
Lü
Hypoph
##CA-
##ucen
##trum
##eichnet
##drüsen
vorbeha
Sprunggelenkes
Spon
Specific
Geröllzyste
Gefäßstenose
Abl
##/MCA
##indu
region
periorbital
mittelständige
Sonntag
Nicht-dislozierte
Bandapparat
##Seit
##gl.
verlängerte
lumbosakrale
gefa
alterstypisch
Cardio
##Clips
##-Grenz
##-Fe
##enta
##brie
subphrenische
intrak
intraforaminaler
Vorge
Subtotal
Marg
Lungenembolie
Gefäßabgänge
FDG-Avidität
Ech
Befundko
-kon
größ
##-mo
##-Verschluss
##terior
##para
##nik
##ldung
##fundu
##faktor
##bli
Verifizierung
Totalatelektase
Rezeptor
Organmetastasen
MRT-Kriterien
Leberlappen.
Kre
Hyperechogen
Histologische
Entzündlich
Beckenschiefstand
Aortenstenose
##rino
##gele
##exi
##erebral
weiß
narbig.
Primovist-Speicherdefekt
Entfern
##/Fl
##igi
##förmiges
supraaortale
meso
ausgel
abf
Zwerchfellkuppel
Vertebralarterie
Temperaturen
Reizzustand
Knochenläsion
Ischämie-
Aneurysmatische
##nfi
##lot
##insel
subkapsuläres
schlitzförmige
o.a.
lymphom
granulomatösen
denen
Streifen
Ringf
Pfortaderhauptstamm
Multiparametrische
MRT-A
IRE
Cine
##klappe
meteoristisch
Vaso
Signifikante
Perfusionss
Pacemaker
Lymphknotene
Klo
App
Anreicherungsherd
FK/Shunt
##ginäre
##embolisation
##chlingen
subst
Za
Langzeit
Gaumens
Ansp
##ühren
##stagmus
##smaterial
##ondyläre
##gnosti
Zerr
Thoraxabschnitte
Anteriorstromgebiet
##UF
##-Kö
##xier
##vesi
##verlegung
##usz
##umo
##trope
##pid
##nta
##chlauch
resultierende
pub
man.
interventionelle
Rundschatten
Kalzifizierte
Dist
##räg
##mindert
##fest
Schilddrüsensonografie
MT-
LWS-Lordose
Kong
Bluts
##täre
##tungs
##sich
##pitzen
##itis.
##fr
##ettet
##differenzierung
##ande
lentiformis
echoarm.
Prostataloge
##/Ha
##ndlich
##llte
##gewicht
liv
exakt
Umstrukturierung
TIPSS-
Röntgen-Thoraxaufnahmen
Pleuradrainagen
Niereninfarkt
MR-Tomographie
Insertion
Hypoth
Darm-
Dam
Avastin
ASK
##ding
##asy
##arit
##achsen
wand
rek
echovermehrt
Sono-Abdomen
Myko
Lid
Bloodpool-
Aufnahmet
##DH
##-Abgang
##theli
##itten
##hänomen
##atresie
##anamnese
protrahiert
myo
ektatisch
Plaqueformation
Perfusionsdefekte
Perfusionsdefekt
Mamm
Lymphknotenschwellung
Aufnahmedauer
##-Angiographie
##xy
##stisch
##glo
##aten
eingelegter
Silikon
Rezessusstenose
Pathologisch
P-Stenose
Leberherdes
##U/
##PACE
##-di
##zidiv
##zid
##lep
##gredient
##asto
subclavi
rh
kort
frontalis.
Subl
Radioc
Leukaraiosis
##yperintensität
##rr
##part
##emisphäri
##bulum
rechs
Progr
LVEDD
Geringere
Fettkörper
DSCT
Bul
Api
##sionsb
##krit
##iopsie
##bk
verst
posterobasalen
isthm
gesamter
echokomplexe
Sporn
RD
Mitangeschnitten
Labrums
LWS-Be
Intera
Hypoxi
Gastros
Diagnostische
a/
##So
##träglichkeit
##sensitiven
##renales
##papill
##involution
##gon
##culare
pankreatische
mütterlicherseits
Verlaufskon
US-B
Konsilgespräch
Akromioklavikulargelenk
##NT
##einschränkung
mitabgebildeter
kutaner
glu
Wege
Spätphasen
Spinalkanales
Schultergelenken
Localiser
FX?
##-Ch
##ventrik
##uterin
##rbita
##pper
##aer
retropatellär
horizontaler
Vicryl
Rä
Pankreaskopfresektion
LVAD
##Reg
##reflexiv
##ning
##bronchien
teilsaniertes
suprapubische
linksthorakale
asc
Sturz.
Prostata-CA
Neck-Dissection
Leukenzephalopathische
Kolla
Harnblasendivertikel
Flach
Facettengelenkarthrose
ADPKD
##urn
##ugen
##nöse
##bhängige
zonaler
retrobulbäres
echohomogene
Scans
OÄ
Laparotomienarbe
Gamma-
Gallenblasenin
Erkenn
Darmüberlagerung
##Somatost
##raler
##osierung
resorbiert
pop
aortaler
Viszeral
Vermehrt
Hirnbasisarterien.
Gefäßstenosen
Corpusbereich
Binnens
Atrophiemuster
Abflusshindernis
##X.
##-Teil
##yna
##cephal
verbreitertem
relativen
rect
monophasischem
Urs
Tochter
TIPPS
Sup
Olekranonfraktur
Leberl
Bad
##matos
vari
mehrs
kos
caudo
Ventrikels.
Tracheale
Knochenstruktur.
Halsw
Frakturausschluss
Bilob
##Lin
##F-S
##verlegte
##intr
##chweis
restverbliebene
pseudo
präsakralen
linksbetonter
LO
Dural
##olg
##krank
##jejunostomie
##inhomogenität
##gle
##gg
##draht
##bildgebung
vergrö
toxische
familiäres
circa
Schilddrüsenspezifische
Normalisiert
Lungenhili
Liponekrose
KM-Allergie
Drain
Blutig
-tägige
##Blutung
##-m
##-Sonographie
##othese
verkalktem
parah
Therapieerfolges
Basalganglienverkalkungen
-Phasen
ehe
##Gelenks
##ätig
##transport
##torsion
##liegenden
##esta
##endi
##eak
phasen
ag
Subkutan
RTX
Infarktareals
Fußgewölbe
Dünndarma
Drahtcerclage
m-Tc-MAA
##zel
##uit
##echogen
weitergehende
verschmälertes
ungehinderter
peritrigonal
kleinzellige
gebe
akt
Wirsungianus
Osteotomiespalten
Mehrzeilentechnik
Limb
Divertikelerkrankung
Alveol
##VK
##usse
##stro
##rsa
##losigkeit
##liegender
##kig
##häl
##emorale
tend
rese
osti
nuklearmedizinischen
ihres
gluteale
entscheidende
T*-
Superinfektion.
Sichelzellanämie
##Kli
##olli
##diagnostisch
quadri
involutierte
galeale
bez
Tumorrezidivs
Stoffwechselaktivität
Son
Retrop
Quanti
Ellenbogengelenks
Dement
Cer
##Loc
##thi
##progr
cerebellärer
Spondylarthritis
G-S
Femoropatellargelenk
Anteversion
##-Dr
##verte
##tw
##sed
##lösung
##fristig
##alb
zw
str
seien
ehem.
Zy
Totale
Ibuprofen
Bandförmige
##-FS
##vesikale
##rios
##natal
##land
##iton
##ickt
##fundi
##cutan
##arthrodese
transmuralen
subma
kontrastmittelgestützte
Treitz
Thorako-
Materialversagen.
Bein-
Aufnahmebeginn
-p
##-Sonde
##rimier
##fri
transpedikulären
intras
Pyelon
D-Sonde
Anl
ACG-Sprengung
##sau
##leib
##insch
##dislozierte
ösophagogastralen
erf
XX
Varusgonarthrose
VIII/
Pankreatiko
Olisthesis.
MV
KOF
Diesbezüglich
Befundbericht
##talare
##sg
##s-F
osteoklastischer
neoplasiesuspekten
linksverbreitert
konstitution
Vitium
Schüller
Großen
Gefäßnervenscheide
Facette
##ngt
##gor
##chwer
verga
symmetrischem
lymphonodaler
infradiaphragmal.
Schädelhirntrauma
Kontrollaufnahmen
Floride
Circulus
##PMN
##ßg
##mid
##eins
##cre
symphysennah
bekanntermaßen
Substanzen
Schenkelhals-
Rev
Paro
Pacc
Nuklida
Moya
Hart
AFS-
##öp
##ymptomatik
##scheiben
intraorbital
beispielhaft
Symptomatische
Spo
Mari
Gallensteine
Easy-Flow-Drainage
Ann
##-Le
##voll
##racht
##lips
son
methodisch
leichtes
berücksichtigt
ausb
anderweitige
SONOGRAPHIE
Retropharyngeal
Narbenareal
##tritt
##frage
permagna
nein
lateralseitige
kardiophrenischen
intrazerebraler
gestützen
arth
Nasenbeins
Dünndarm-
Dopamintransporterdichte
Beckenbe
Atemweg
##TAT
##Dr
##-Wasser
##ralen
##meningeom
##inus
zirkumferente
neuronaler
hamatum
basales
Verschmälerter
Oste
MRA-TOF
CEA
Auskultat
##usp
##aque
unruhige
thorakoabdomineller
spezi
Steno
Saug-Drainage
Postradiogen
##/Beurteilung
##ürf
##ödeme
##tumors
##tracheal
##nhebung
##km
##häma
##creening
##ay
zementaugmentierter
sacri
retropharyngeal
radiog
posti
kompressionsbedingt
intrave
Vorhofe
Schu
Nachmittag
Aufarbeitung
##ufs
##rante
##oria
##onier
##morphe
##enzielle
##chb
unmittelbare
bogig
Konturunterbrechungen
ISG-Fuge
Feine
C-Lot
##Dose
##rth
##mond
##achte
stet
spastische
metacarpalia
Hinterkantenbeteiligung.
Fetth
Drahts
##Kopf
##sverl
##oße
##antär
##alge
cardi
belastungsabhängige
SonoVue
##OPS
##/MR
##versatz
##var
##poplitea
##furkation
##eaktion
extrac
X-Port
Subkutis
Pulmonaliskatheter
Plattenosteosynthesen
Phlebolith
Nicht-
Markierungsclip
Hyperparathyreoidismus
Hautemphysem
Aufr
Abdomen.
##uspe
##iede
##chie
subependymale
scapulae
passagere
longitudin
konf
interenterischer
entzündlich.
Signals
Pseudozysten
Multif
Mitteilung
Kons
Inselrinde
Fibr
EBV
Colon-Ca
BWS-Kyphose
SIR-Tex
##TP
##quat
##pos
peripankreatischen
ind
hepatopetale
Tumoranteil
Stammzell
Rech
Plug
Oropharynx-C
Mundbodenkarzinom
Kreuz
Hörst
HIV-Exposition
Drucks.
Bla
Biventrikulär
##FL
##angen
retroklavikulär
mü
dorsolaterale
aufgeklärt
aufgebautes
ane
all
Zytologi
Tumorv
Trip
Stammskeletts
Milchg
Beh
##war
##venöser
##tont
##prache
##pari
##fehler
Sectio
Patellar
Osteome
Jejun
##TT
##OR
##/se
##ubst
##nul
##lae
##interkante
##fertigen
schweren
rar
metabolisch
ilio
bleibt
Lebervenen.
Kontrastmitteld
Fußheber
Burkitt
Bulbi
Anastomosenbereich
##urethrale
##neus
##klinik
##atri
transparenzgemindert
hyperdensem
follikuläre
erstmalig
Studienprotokoll
Shuntanlage
Schulterb
SCHILDDRÜSENSZINTIGRAPHIE
Faszien
DIG
Ausged
##Wu
##ünnung
##zar
##verhalten
##ituation
ödematösen
mitangeschnittene
follikulären
Verhalt.
Spektroskopie
Seitena
Reti
Ordnungsgemäße
Kutis-Verdickung
Knochenf
Ataxie
##LWS
##Computertomographie
##utung
##sim
##opr
##metrie
##equenzen
##acken
höheren
cavernöse
Pankreasloge
DJ-
Aktenanamnestisch
##Fe
zahnärztliche
vaskulärer
fehlend
Unte
Resorptions
Re-O
Onkologie
Klin
Hauptbefund
Gefäßbe
Berg
AI
##Fu
##verd
##rvi
##ny
##lichem
zuweisenden
vestibul
thrombotisches
streck
Tc-m-A
Organen
Magnum
FI
krani
##rli
##radial
##laufen
##dilatation
##culus
Turbospinechosequenz
Präve
Bolus-Tracking-Systems
Beginnender
BRA
Aufnahme.
Afterloadingtherapie
##morphologie
##lvi
##einschl
##andel
subcarinal
nachvollziehbar
multifokal
konservativ
Schrittmachersonden
Schlaf
Mismatch
Kanten
Hämatomausräumung
Frak
Eth
Christ
##-Prot
##lita
##emi
plat
erkennbaren
eff
durchge
disloziert.
ambulante
Patellapol
Kopft
Formalin
Echoreiches
Darmanteilen
Ansteigende
##Wand
##pinal
##megalie
##ello
triphasischer
intraabdominaler
infratemporalis
hydrop
diagnostischer
Wirbelkörperko
Tumorszintigraphie
Stau?
Schaftes
Gedeck
Ausbelastung
##cl
##anale
vorgeschalteten
pter
Wurzelspitze
Vollständiger
NE
Knorpelige
Gehör
Fettgewebsimbibierungen
##inhomogene
pero
ZVK-Lage?
Symphysen
Längliche
Lungenven
Einscannen
Disc
##-un
##-pa
##vie
##sr
##ow-
##otr
##erier
##b-
periradikulären
Verg
Schwanzbereich
Philosplatte
NIHSS
Flüssigkeits-
##upt
##thy
##rcinom
##mpa
##lero
##drigung
##brücke
sichelförmige
ov
medic
Magenant
L-Thyroxin/d
Ileum-
Gewebs
Gallenblasenpolyp
Echotextur
Blasenwand
##-si
##ausf
ödematöser
tr
protektive
pha
biliodigestiver
Total-OP
Tin
Postischämische
Pankreatektomie
A.c
-i
##-Arthrose
##yng
##pharyngeal
##lim
##hepati
##haltigen
##doppler
##condyl
kalkdichtes
Tendinopathie
Sternal
Rippenfraktur.
RJT
Peak
Massen
Leichter
Jugul
Hilus-
AcomA
##/Ne
##jähriger
##bestehend
benötigt
Vis
Verriegelungsschrauben
Verkürzte
Untersuchungsbefund
Neuaufgetretener
Katheteran
Kahn
Jugularis
Anterior
##ADS
##oili
##hü
##getr
##cic
##chal
mittelständigen
low-dose-Technik
lim
gebrochene
choroid
basisnahen
außer
Zahnh
Prät
Peria
Jon
Gelenkf
Cap
CT-Drainage
Anomalie
##Metastase
##Kein
##oben
##kut
##klär
wölbt
pre
phasengesteuerter
linkslaterale
atone
ZVK-Neuanlage
Unterarmes
Perivaskulär
Oligosegmentale
Befundkon
##Neu
##-Vers
##ädel
##weil
##unklar
##kos
##ffus
##eiden
leichtem
jug
eingebluteter
dors
Untersuch
Raumfordernde
Radiusk
Insertions
Fusions
Deh
Darmr
CAVE
D-T
##Am
##össe
##rweiterung
##olyse
osteodisk
letztes
Zahnloser
Technetium
TM-
Raumfo
Niedrigdosistechnik
Knochenkanal
Gefäßkonvolut
Blutgefäße
##nim
##metastasierung
##lassen
stumpfe
praecentralis
blutiger
Thrombozyten
Tachypnoe
Mammographie-BI-RADS
Inaktivitätsosteop
Gelenka
##-zu-
##straße
##lumina
##lasie
##ammer
sec
duktale
Thorakales
Rückenschmerz
[...]
