[PAD]
[EOS]
[UNK]
[CLS]
[SEP]
[MASK]
und
der
vom
mit
in
Keine
"
Kein
im
des
Nachweis
##,
von
Beurteilung:
rechts
nach
Indikation:
links
einer
Klinik,
keine
Fragestellung,
kein
bei
Rechtfertigende
auf
Vergleich
die
nicht
oder
zum
Befund:
Thorax
den
ohne
CT
##.
mm
sowie
Ebenen
eine
für
Voraufnahmen
zwei
bis
Befund
zur
eines
Z.n.
Im
sich
##n
Die
Anhalt
x
ist
##s
am
Darstellung
rechten
2
Es
beidseits
Nach
über
normal
-
Klinik:
Befund/Beurteilung:
##r
ca.
Herz
liegen
Zustand
linken
Regelrechte
DD
Aufklärung
bds.
##e
Hinweis
cm
##:
In
Uhr):
Sonographie
/
ml
auch
3
Unauffällige
##)
zu
Frage
an
V.
Lymphknoten
LWK
(auf
Abdomen
Station)
Methodik:
bed
durch
Veränderungen
side
##en
Projektion
Untersuchung
Spitze
5
Bereich
Technik:
Bei
freie
ein
Mediastinum
Voruntersuchung
VA
MRT
1
Nieren
soweit
4
Untersuchung:
das
rechtfertigende
##m
Zeichen
Verlauf
Voraufnahme
glatt
Anamnese:
##;
##0
Applikation
frischen
Einwilligung:
dem
MR
zeigt
Pat.
T1
##2
##5
als
Das
sind
aktuell
##8
Leber
T2
6
V.a.
rechts,
##3
##6
A.
Fraktur
##4
##1
##7
um
frei
Kopf
unter
Z.
Bekannte
n.
pneumonischen
Segment
schriftliche
bzw.
10
einem
links,
liegt
BWK
Verdacht
vor
gesamtes
Einwilligung
Soweit
Erhebung
ZVK
##9
Pleuraerguss
Milz
Vena
Infiltrate
mögliche
intrakraniellen
Sinus
VU
Läsion
Verlaufskontrolle
gut
regelrecht
zentrale
Thorax:
einen
Risiken
Geringe
Der
Pankreas
Normal
Gallenblase
axiale
Untersuchungstechnik:
Digitale
neu
8
Patientin
Raumforderung
kleinen
groß
gering
7
Fragestellung:
HWK
jedoch
Beckenübersicht
Kniegelenk
Flüssigkeit
Harnblase
mündliche
vergrößerten
Zum
(
d.
regelrechter
Höhe
LWS
##-
ap
Läsionen
axial,
Liegen
wurde
unauffällige
12
Beidseits
groß,
rechte
NNH
regelrechte
ossären
ossäre
Risikoanamnese
##er
Dr.
re.
frische
hier
deutlich
Klinische
##es
zuletzt
pulmonale
Schriftliche
große
weiterhin
suspekten
Kontrolle
(vgl.
insbesondere
Pneumothorax
homogen
mm,
Dopplersonographie
unverändert
Schmerzen
cava
HWS
ICD-10:
unauffällig
wie
Linie
Aktuell
Weiterhin
linke
etwas
Niere
9
vor.
erster
Stellung
Rahmen
distalen
1,5
Zisternen
Os
noch
beurteilbar
großen
Infiltrat
Größe
Unverändert
11
degenerative
Anamnese
OSG
höhergradigen
Fuß
nur
aus
gesamten
ehesten
fokaler
Lage
Hüftgelenk
nativ
Rechts
Becken
freier
Erweiterung
fokalen
Links
Lendenwirbelsäule
Patient
hinaus
Basale
Ventrikel
mittels
kleine
Arteria
Anfertigung
vereinbar
seit
BWS
mehr
MPR.
Erguss
##t
konturiert,
Bild
zeigen
beidseits,
15
##ung
li.
LK
Degenerative
##),
MBq
konfluierenden
geringe
Durchmesser
basal
suspekter
wesentliche
Sinne
venöser
Stauung,
axial
insgesamt
Fragestellung
Aorta
oberen
Punktion
geringer
Hand
pulmonalen
4.
Darüber
Sequenzen:
Gut
raumfordernden
Native
beurteilbar,
KM-Applikation
Neu
TSE
Mastoidzellen
dorsal
deformans
Stehen
(Serie
degenerativen
Anlage
intra-
Zusammenfassende
Nasennebenhöhlen
RI
höhergradige
unteren
Ebene
Ausgeprägte
KM
Abdomen:
einsehbaren
komplikationsloser
Aufnahmen
Nebennieren
Unveränderte
proximalen
oben
Sturz
20
pathologischen
femoralis
Sonographisch
Schilddrüse
Infiltrate,
intrakranielle
sicher
seitlich
Abdomens
Grad
lateral
bekannten
liegend
orthotop
etwa
mm)
13
##2009
idem
14
Länge
ossärer
ventral
mittleren
Aufnahme
pulmonalvenöse
beiden
Fraktur?
Ergebnis:
malignitätssuspekten
I
.
Kontrastierung
stellt
vergrößerter
vorliegend.
fokale
Magensonde
teils
NB:
Ausschluss
Regelrechtes
DLP
rechter
Klinik
Pleuraergüsse
Gefäße
%
frontal
pneumonisches
z.B.
mitabgebildeten
pathologisch
ggf.
abgebildeten
Mammographie
Konstante
vergrößert
basalen
weitere
konfiguriert,
Ultravist
Insgesamt
DHC
relevante
T2-TSE
Serie
weiteren
,
Schultergelenk
Unauffälliger
Vergleiche
V
zentral
Beide
floriden
Ansonsten
2.
frischer
Verdichtung
Handgelenk
18
ebenfalls
i.v.
größerer
Übergang
Gabe
Gallenwege
relevanten
Diskrete
entlang
Kleine
demarkierten
lateralen
16
Mittelständiger
Mammasonographie
II
einsehbar
weitgehend
Infiltrat,
untere
M.
Blutung.
sehr
Weite
Durchführung
Eine
Image
Deutliche
leicht
Dens
re
größeren
auslaufender
Verdichtungen
Lauenstein
unauffälliges
Extremität
D.
##?
Stenose
betont
Untersuchungsablauf
äußeren
zwischen
entsprechenden
Anmerkung:
NBKS
dislozierte
interna
Computertomographie
vergrößerte
vergrößert,
mediastinale
wird
kann
seitengleich
Gering
Kontrastmittel-Gabe
Axiale
Parenchym
Hinweise
Kopfes
max.
MRA
beider
RF
Rekonstruktion
bds
bekannter
primär
CCT
jugularis
Knöcherner
suspekte
Verkalkungen
0,625
Schichtung
Ima
17
Angaben:
dorsaler
Spiral-CT
Luft
sagittale
basale
Multiple
dorsalen
Lungengefäßzeichnung
T2w
(VU
cm/s
stellen
sollte
Beschwerden
Jugulariskatheter
Schleimhautschwellung
Zyste
Mehrere
links.
maxillaris
knöchernen
Material
axilläre
sagittal,
Freie
intervertebralis
Beurteilbarkeit
Lymphadenopathie
50
Erguss,
mehreren
linker
rechts.
allen
Fluss
##a
links:
extrahepatischen
Xenetix
intravenöser
Pneumothoraxnachweis
periphere
betonte
erfolgte
Natives
aufgetretene
Blutung
Liquorräume
bolusförmiger
konfluierendes
lang
tief
Kontrastmittelapplikation
Unterlappen
Patienten
FLAIR
Verletzung
pulmonaler
rechts:
digital
Anamnese/Indikation:
Beurteilung
Zusätzlich
Am
Pneu,
bekannte
progrediente
Zysten
Diagnose:
Vmax
OP
Hüft-TEP
partiell
Fremdmaterial
Seit
Abdomen/Becken
Besondere
Ergüsse,
1,25
post
cm,
Hals
FS
akute
a.
Unauffälliges
Wir
Unterschenkel
Prostata
Deutlich
weit
venösen
Homogenes
Orthopantomographie
sonographisch
Tesla
arteriellen
100
iliaca
##8:
medialen
vollständig
Thoraxdrainage
homogenem
25
axillären
III
ng/l
mäßig
Therapie
akuten
dieser
Rezidiv
kleiner
T1-TSE
3.
Monaten
normaler
konstante
deutliche
venös
konstant
soliden
Parenchymsaum
Einzelne
Thorax,
Ductus
Artikulation
Wesentlichen
Geringgradige
Neurocranium
li
oberes
Nierenbecken
zentralen
Resektion
Befundung
Kontrastmittelgabe
mittelständig,
120
Milz:
Parallel
Lunge
##s,
Ausdehnung
wurden
Bekannter
Sequenzen
mediastinal
Abklärung
Drainage
(z.B.
angrenzend
Weitere
Struktur
drei
axillär
Metastasen
Orbito-Meatal-Linie
Leber:
Ellenbogengelenk
diese
##l
sonst
Hämatom
TIRM
Stenosen
Spondylosis
extrahepatische
Wirbelsäule
Entfernung
Inspektion
durchmessend,
medial
Bitte
schriftlicher
heute
subclavia
werden
abgrenzbar,
Pankreas:
mehrere
Becken:
inneren
Trachea
jetzt
Tubus
ventralen
zunehmende
Ventrikelsystem
knöcherner
Implantation
Echogenität
Auf
Oberbauch
##te
Oberschenkel
Unterbauch
Dislokation
Port
carotis
30
##/
Mamma
übrigen
sicherer
##4:
komplikationslose
via
Zarte
Stauung.
Anteile
Pneumothorax.
Konkrementnachweis,
##3:
Mastoide
40
Frau
Thorax/Abdomen/Becken
aufgetretenen
Retroperitoneum:
somit
Knoten
weiter
Zur
S.
entsprechende
P.
signifikante
angrenzenden
Wand
maximal
unauffälliger
messende
(ca.
intraabdominelle
außen
pneumonische
Truncus
Kontrastmittel
VJI
##mm
eher
Oberlappen
i.
communis
multiplen
entsprechend
knöcherne
pneumonischer
Skelettsystem:
##n,
Symmetrische
##2:
4/5
##us
TSH
##5:
Teleradiologische
##A
ACI
Mäßige
Osteochondrosis
##1:
Normale
##7:
mittelständig
akzentuierte
Progrediente
diskrete
jeweils
unveränderte
SE
Katheterspitze
MCL
multiple
S
2,5
Voruntersuchungen
Nieren:
ergibt
(Se
Pneumatisation
Finger
aber
Mit
regelrechtes
Sonst
pektoral
hypodense
HWS:
24
Einengung
##0:
unauffällig,
16-Zeilen-CT
Dystelektasen
symmetrisches
vor,
miterfassten
##).
Colon
##6:
##d
Veränderung
Bds.
OPS:
DWI
bekanntem
IM
Regio
sagittal
Etwas
klinische
Abbildung
##al
Skoliose
##is
Pneumothorax,
es
Form
PICC
rechtes
unveränderter
Jahren
22
##9:
einzelne
Infiltration
Wochen
Patella
ausgeprägte
gefüllt,
allseits
Rückenlage,
Weitgehend
CCT:
parenchymatösen
symmetrisch
Uhr
19
60
native
Konfiguration
Schwellung
h
Dotarem
abdominellen
Phase
cm)
sonographische
350
21
Metastase
Tagen
Neue
mm),
auslaufenden
Postoperative
Aufstau
teilweise
Hartstrahltechnik
T1w
Erguss?
homogenes
Reguläre
deutlicher
hilär
LWS:
abdominelle
Pneu
23
findet
IV
abgrenzbar
Lebervenen
aufgetretener
axillärer
superior
T-Wert
Unterfeld
MS-CT
Wandverdickung
ansonsten
##x
empfehlen
Strukturen
Beinganzaufnahme
portae
mediastinalen
apikal
vorrangig
80
vermehrte
Ureteren
gefüllte
Sklerosierung
kaudal
Nicht
Verschluss
Costa
territorialen
Glatt
Art
entzündlichen
Harnstau
großes
PD
eingeschränkte
Untersuchungablauf
Verkalkung
abgrenzbare
Raumforderungen
abgrenzbaren
Geringer
Knie
Randwinkel
Zeichnungsvermehrung
Osteopenie
gewinkelte
Lungen
mg
Raumforderung,
Oberes
Projektionsradiographisch
g/cm2
subkutaner
welche
Kardiopulmonaler
scharf
T
Station
Schulter
Areal
grenzwertig
Versorgung
Schenkelhals
Rippe
Frakturen
Radiopharmakons
normale
Perfusion
lässt
(vergleiche
aktuellen
Parenchym,
beidseits.
aufgrund
Rundherde
ED
v.
PET
AFS
CT-morphologisch
Technik
Indikation
Hier
Zunehmende
allenfalls
Lokalanästhesie
ergänzende
Rechte
Anteil
DD:
Femur
1.
bereits
hiläre
Kompression
diskret
370
Kalotte
Coxarthrose
Enhancement
Status
Stauung
Regelrechter
Marklager
zervikalen
mU/l
hilären
Eingeschränkte
einsehbar,
kardiopulmonaler
Dopplersonographisch
SWK
nahezu
26
Nierenzyste
Linke
linkes
min
Pfortader
Involution
Hals:
neue
folgenden
Milz,
distal
Steatosis
entzündliche
FLAIR,
malignitätssuspekter
linksseitig
Defekt
Nierentransplantat
Quantitative
Bekanntes
regrediente
Angiographie
Portsystem
Pneu?
Drittel
Se
malignitätssuspekte
pathologische
weites,
narbige
Beckens
zystische
Schädelkalotte
freies
Ischämie
letzten
geschlossen,
verbreitert,
Nebenniere
Anschließend
Ein
geringen
ausgeprägter
##en,
KM-Gabe
Zone
Unklare
Spondylodese
(rechts
Übrigen
Befund/
kranial
Kopf,
Nebenbefundlich
vorderen
Gefäße,
Herzsilhouette
Korrelat
2,
Akzentuierte
Blutung,
Morphologisch
Kontinuierliche
Pleuraerguss,
Struma
##em
Vorstellung
pathologischer
##g
Stauungszeichen
Organ
begrenzt
MSCT
Saumbreite
##e,
##um
Neuer
Lockerung
Nierenzysten
Anastomose
UL
zerebralen
vorliegend,
distale
unklarer
##G
G
Reizlose
inguinal
coronare
Trauma
neuen
Ergüsse
weiterer
Erosionen
L-Thyroxin
Osteoporose
rechtsseitig
Fraktur,
Komplikationslose
##2009:
Mengen
Steilstellung
relevanter
Abgang
B.
Areale
Tibia
suspekt
Zudem
einsehbarer
Lymphknoten,
zusätzlich
Anamnese/
Akquisition
Anbauten
demarkierter
Verschattung
thorakalen
Aszites
Auch
typische
Überlagerung
Teil
bitte
27
fs
Unter
kontrastiert
Vor
Katheter
palpabler
Prof.
Kutis,
Osteochondrose
Knochendichte
wesentlichen
parietal
Dystelektase
äußere
28
weißen
symmetrische
0,5
Infiltrate.
ventraler
fraglich
innere
intakt
Prozesses
wir
Reaktionslose
können
erweitert,
##ten
poplitea
erscheint
nun
Telefonische
Ödem
Nierentransplantates
renalis
Tesla,
Injektion
Leber,
N
Stauung?
externen
Winkel
hepatica
TD
gute
35
perfundiert
bds..
Aneurysma
misst
gruppierter
Lungenparenchym
Große
signifikanten
dislozierten
Kontakt
Zwei
Voraufnahmen,
finden
empfohlen.
Nachsorge
p.a.
Parenchymbreite
anterior
dorsale
µg
L
Chronische
VIBE
Regrediente
Tumor
erhöhten
Stabilisierung
3,
Erstuntersuchung
Jetzt
flächiges
Recessus
Korrelation
##fraktur
Restparenchym
Gute
##ter
so
pulmonalvenösen
Allenfalls
Quadranten
Lebersegment
##de
konfluierende
34
Grades
Gadovist
flächigen
Zentrale
NTX
frontalis
arteriell
möglicherweise
Neurokraniums
Lungenabschnitten
abgrenzbar.
?
intrahepatische
Zwerchfellhochstand
regelrechtem
Materialbruch
Vorhof
idem.
Unterarm
Regelrecht
370)
Frakturspalt
Beteiligung
Organe
Intervention
Belastung
Vergleich.
Intrahepatische
guter
externa
Boden
##ml
arterieller
Knochenstruktur
Harnblase:
Befundbesprechung
T1-
Fraktur.
großer
1,2
primären
unmittelbar
besteht
kommt
messend
Oberfläche
Höhenminderung
Harnwege
3/4
morphologisch
##S
Oberbauchorgane
externe
chronischen
2D
Betonung
beide
Sehr
Unterbauch,
Wiedervorstellung
Ureter
Thrombose
Radius
gestern
(in
##se
verbleibendem
Ossäre
Coxarthrosis
3T
Typ
extrahepatisch
Bestimmung
obere
Minderbelüftungen
coronar,
familiäre
Infarkt
o
-1,0
progredienter
Materialbruch,
Morbus
Score
temporal
Schleimhautschwellungen
ml)
L.
Radiojodtherapie
Diffusionsrestriktion
paraaortal
zarter
unten
##T
Residuen
-2,5
Plattenosteosynthese
hinteren
##%
low-dose
große,
Guter
Datensatzes
(VA
5,
Pankreas,
venöse
gegenüber
(bis
inferior
Diese
Lufteinschlüsse
Pleuraergüsse,
Signal
Wirbelkörper
T2-
Uterus
Läsionen,
koronar,
imponierende
Weichteilmantel
relativ
degenerativer
##i
Einnahme
Transparenzminderung
ab
SD
siehe
chronische
-echogenität,
unscharf
ausgeprägten
caudal
Hili
dabei
OL
peripheren
Mitabgebildete
R
Sono
Sagittale
SD;
Appendix
retroperitoneale
Kopf:
pancreaticus
intakte
Raumforderung.
70
Stent
progredient
B
5/SWK
Seitenventrikel
Umfang
Querdurchmesser
transversal,
SPECT
*
Infiltraten
berandete
Magen
Kleiner
cranial
Metastasierung
homogene
Belüftungsstörung
Plaques
5.
Ösophagus
Regredienz
einsehbar.
4,
minimal
leichte
45
zunehmend
Familiäre
Blase
ml,
jugulär
ableitende
cerebri
Herz,
Blutung?
multiplanarer
Befundänderung
konfluierender
Weichteilemphysem
Belüftungsstörungen
##sch
verkalkte
älteren
knapp
Aszites,
dorsales
Konkrement
32
0
Tag
##ale
Konstant
##V
Ruhe
Drüsenparenchyms
Analyse
Lumen
##le
Unterkante,
unterhalb
33
Pneumonie
arthritischen
Röntgen
kleinere
C
eindeutig
dar
beginnende
wegen
Konsolidierung
##ch
Herd
wieder
##on
Trachealtubus
Neurologie
distaler
Schrauben
Trachealkanüle
Nieren-
38
Befundvergleich
Pleuraergusses
Letzte
Spondylosteochondrosis
osteophytären
Gallenblase:
einzelnen
Corpus
während
lobuliert
Flüssigkeiten:
##ation
Imeron
Gallengänge:
Clavicula
Halsgefäße
Fieber
ca
kontrahiert,
größere
Kurzbefund
Schlankes
sekundäre
basal,
Funktionsaufnahme
Flüssigkeit,
Anteilen
intakt,
occipitomental
29
thorakale
rundliche
spitzwinklige
Processus
Rundherd
neuer
begrenzte
Diffuse
gesamte
zervikal
altersentsprechendem
Norm
umschriebene
breitbasig
arterielles
Eingriffs,
##R
konfigurierte
mesenteriale
Alter
36
75
Katheters
Fragen
gegen
vertebralis
wesentlicher
Siehe
Medikation
##är
verschmälert
Sie
3,5
Minderbelüftung
streifige
Gefäßmuster
diffuse
WS
kardiopulmonale
AFC
##in
Minimale
kortikale
Darmschlingen
orthotop,
vermehrten
diesem
oberhalb
Multiplanare
Basis
Einlage
darüber
Hirndruckzeichen.
intrapulmonaler
werden,
##cm
(siehe
Procedere:
Durchblutung
350)
Spinalkanalstenose
##ierung
Indikation,
Mammakarzinom
malignomsuspekter
idem,
Präoperative
Ca.
##H
Dünndarm
uns
Abdomenübersicht
kontrastierte
Knie-TEP
Hypopharynx
diskreter
erweiterte
arterielle
Sondierung
Befundmitteilung
wesentlich
RI,
polymorpher
gemessen
Oro-
hyperintense
Ebenen,
zervikale
supra-
kardialen
passend
Aufhellung
vermehrter
u.
erweiterten
31
dynamisch
Hochgradige
Localizer,
##ie
regredienter
Volumen
CT-Angiographie
Schrittmacher
Größenkonstante
apikalen
ältere
##L
Hilus
Segmenten
Veränderungen,
F
dass
inhomogen
imponiert
höhergradiger
Verwendung
##D
Einbringen
OA
ins
kaudalen
Folgen
vollständige
##s.
koronare
##E
Zwerchfell
Unterfeld,
global
Altersentsprechende
Übrige
Nephrektomie
iliakal
Narbe
ergänzender
Dokumentation
Trochanter
Fortgeschrittene
Einstellung
48
A
5/6
frisch
Ischämie,
gelegenen
Leberlappen
Radiusfraktur
eindeutiger
##z
belüftet,
Darüberhinaus
Vortag
Mäßiggradige
Lipomatöse
##k
Früherkennung
allem
profunda
(100
reaktionslose
##ion
Basalganglien
kontrastiert,
Eingriffes
Abszess
Diffusion,
hämodynamisch
Beginnende
##P
altersentsprechender
Schlaganfall
Hoden
Flussprofil
Aneurysmaanhalt,
##ge
flaue
gelegene
Shaldon
kleines
bds,
Accupaque
projiziert
stark
mäßige
An
Leiste
Leberparenchym
Ablauf
37
2/3
64-Zeilen-CT
Über
Angio
malignitätssuspekt
Mammakarzinombelastung
Prämedikation
erweiterter
nachrangig
OP-Clips
postoperative
Mammographische
KM-Phase
Trepanation
Schädelbasis
unauffälligem
Fibula
Stammganglien
Pleuraerguss.
Hirnstamm
größenkonstante
1,3
frei.
64
umschriebenen
##h
BI-RADS-Kategorie:
et
Hüfte
Arthrose
lediglich
abgrenzbarer
Schädel
Pleuraergüsse.
intrahepatischen
Belüftung
Herrn
MPRAGE
CT-Voraufnahmen
##F
periprothetische
Mikroverkalkungen
homogener
Chemotherapie
hirnversorgenden
zweidimensionalen
Durchgängigkeit
Thyroxin
Hände
Minuten
Formation
Schultergelenkes
90
&
Verhalt
fleckige
E
Gallenblase/-wege:
##I
(S
Oberarm
Knochendichtemessung
##17
Kopfspule,
Pulmo
mäßiger
Vergleichsaufnahmen
Durchmesser,
geringgradige
1,
stehenden
I.
dick
ICB
zunehmender
Kontur
Flußmessung
Nativ
Infiltrat.
##t,
Naso-,
echofreiem
konsekutiver
andere
s.o.
Hals,
Halses
communis,
dar,
Annähernd
größenprogrediente
Miterfasste
Größenprogredienz
Nieren,
problemlose
Kelche,
Biopsie
intraabdomineller
möglich
hochauflösender
proximal
T1-gewichtete
Nahezu
sitzend
eingeschränkt
Zn
gelegen
koronar
erfolgt
Flüssigkeit.
Rektum
Verlauf?
kurzfristigen
T1-SE
##den
Embolisation
Externe
4,5
Ausgedehnte
L5
Zeilen
Moderate
offen
Diagnostik
oraler
Spitzen
strukturiert,
Phalangen
Hirnparenchym
Y-Aufnahmen
Defekte
CT-
innen
Orthotope
erhöhte
erweitert
Tage
flau
Demarkierung
Jahr
Zunahme
Musculus
Seitenvergleich
Gonarthrose
territoriale
ausreichend
Anamnese,
Level
1,4
300
Ober-
maximalen
zystischen
Leichte
höhergradig
hat
Nierenhilus
zentraler
Radiopharmaka-Applikation
Klinisch
basaler
sternförmiger
sonographischer
Anschluss
Wechsel
altersentsprechende
Kopf/Wirbelsäule
Multisegmentale
per
dann
Durchleuchtung
Drüsenparenchym
Rippen
FLASH
posterior
abdominalis
möglich.
Mittelfeld
Kieferköpfchen
Exspiration
einliegender
Rücksprache
minimale
weisen
linksbetont
aufgetretenes
Meyerding
MS
seitengleiche
einzelner
cm),
mesenterial
(SUVmax
echoarme
Infiltraten,
Polabstand
Verband
Elektroden
ascendens
hormonelle
vormals
##der
Füllung
inhomogene
3D
Aspekt
Stau
frei,
PI-RADS
eingeschränkter
abgebildet
Diffusion
weitestgehend
signifikanter
Progredienz
Hilusstrukturen
Schilddrüsenlappen
beim
Mittellappen
kurzen
VI
Gesichtsschädel
Pleura
Lungenabschnitte
typischer
Passage
Staging
perihilär
Mittel-
Fx?
Kopf/Hals-Angiographie
Evaluation
Aufgrund
erfassten
HCC
##sche
ausgeschlossen
DLP:
kleinste
pathologisches
Portnadel
##r,
Supratentoriell
erneute
42
##00
sphenoidalis
Affektion
Sinusitis
entsprechender
Portsystems
Diameter
Gelenkspalt
1,6
axialen
Gefäßveränderungen
##y
Pneumonie,
konstanter
Ulna
55
2mm
da
solider
##tion
Halsweichteile
Humerus
ventrale
weist
Referenz
Heute
paraaortal,
Genese
caudalen
Ganzkörper
Retroperitoneale
Bis
##B
Weitestgehend
regredient
entzündlicher
zunächst
arthritische
wohl
ACR-Dichteindex:
VIII
mindestens
Labor
Cholestase
Lymphadenopathie.
entspricht
Osteopener
Hautnaht
Fieber,
Destruktion
bedingte
Phalanx
Schilddrüsensonographie
Atrophie
überwiegend
vorbeschriebenen
durchgeführt
akzentuierter
Rechter
retromamillär
Zeit
subchondraler
beurteilbar.
kardiopulmonalen
##2008
Lokalisation
arthritisches
Leicht
Oberfeld
39
1,7
##ng
vergrößertes
vorbeschriebene
flächige
Ebenfalls
##gen
mehrerer
Hirndruckzeichen,
Zahl
##15
m
Bulbus
mm.
echonormales
##ne
47
43
Thoraxwand
zudem
coronar
tiefen
Z.n
Mittellinienverlagerung
durchgängig
pancreaticus,
beginnendes
Fettgewebe
46
##ige
HWS,
Sequenz
##09
Winkelerguss
Stadium
SUVmax
44
Weichteile
##18
Altersentsprechend
spitz,
laterale
Marklagergliosen
Stauungszeichen.
mm³
Manifestation
Intra-
Randwinkelerguss
CRP
anamnestisch
mammographische
multipler
Stunden
kommen
400
##bereich
rechtsseitigen
T2-gewichtete
grob
Orthograder
D
hepatischen
Dyspnoe,
transversal
65
retrograde
Prominente
Kortikalis
dichtem
triphasisch
Fx
Bandscheibenprotrusion
mesenterialen
Kollegen
Fixateur
lassen
Weiter
occipitofrontal
z.T.
Ventrikels
größte
direkt
##äre
Enge
Degeneration
thorakal
LWS,
Aus
41
Verlagerung
S1
SAB
i.v..
Darm
konventionelle
ad
CTA
klinisch
Destruktionen
BWS,
stattgehabter
Linker
kardiale
linksseitigen
vier
6.
##lich
T1,
Breite
auffälligen
##16
Infarkts.
Herzgröße
Einblutung
1,8
150
Herdbefund
Herde
proximale
Anzahl
Seitengleiche
Ramus
intrapulmonalen
lipomatöse
bitten
Fettsättigung
Digitus
Weichteilschwellung
##re
raumfordernde
LWK4
Achsengerechte
Mehrspeicherung
Bypass
TK
##10
##1,
KM-Phase,
Mikroblutungen
VII
##st
pro
Skelett:
Aufhellungen
##2,
peripher
Trijodthyronin
2,6
konsekutiv
eingebrachte
Schilddrüsenlappens
eingebrachter
Coronare
Mittelbauch
##CT
##K
Blutentnahme
verbleiben
Anreicherung
innerhalb
Shunt
Post
1-2
Parenchym;
Zusammenschau
konventionellen
inguinalen
##12
zueinander
TEP
Bildgebung
min.
a
zystoide
Portkathetersystem
Halswirbelsäule
heutigen
##13
regelrechten
hoch
digitale
malignomsuspekten
Spondylarthrose
subkutan
ableitenden
T.
RH
Dünndarmschlingen
CT-gesteuerte
Brachytherapie
K
Darmschlingen,
sie
erbeten
Kopfes,
##"
aller
(120
Alignement
Leberläsionen
(80
Diskret
Konstanter
Lage,
M
SIG
altersentsprechend
Atelektase
Adipositas
regelrecht,
Schichtdicke
##b
ISG
einliegende
PIP
Ende
##3,
liegende
Unterkiefer
Power-Dopplersonographie
digitalen
selben
Weichteilplus
Steine,
messender
Indikationsstellung
Anamnestisch
##%,
Partiell
pubis
Hinterkante
(links
hepatische
antegrad
individuelle
Gefäße.
Schilddrüsen
Kleines
nativen
(5
punktförmige
Thrombus
sicheren
möglich,
Bauchwand
Neuroforamina
Weise
TSE,
##len
LWK5
Steriler
verbreitert
rechtskonvexe
osteoplastischer
##M
##14
solide
Radiatio
berandet,
loco
DIP
Hände:
(6
Clipmaterial
Infratentoriell
Aneurysmen
kaum
Dig
retroperitoneal
0,9
Termin
LWK1
F18-FDG
BET
Fokale
angrenzender
Hämangiom
Lordose
Kopf/Hals
Alte
Verdickung
mediastinal,
berandet
messend,
marginalen
Spinalkanal
axis
Originale
Vereinzelte
Signalverhalten
Osteosynthese
Osteolysen
##ig
1,9
Vorliegen
letzte
Schilddrüsenwerte
beträgt
hypodensen
Abgrenzbarkeit
BWS:
Dünn-
hochgradige
Malleolus
untersuchten
unspezifische
Arterien
Arthrosis
Konkremente
Aufklärungsbogen
pulmonal
war
Zweck
Kontrastmittel;
Beckenübersicht:
spezielle
Grund
mäßigen
##alen
Altersentsprechender
Rand
:
0,8
vermutlich
Ovar
daher
Pallium
Lokalisationssequenzen,
Ggf.
##n.
axialer
Herdbefunde
thorakolumbalen
(4
major
konsolidierte
(Vmax:
multiplanaren
Füße:
Gelenk
zweier
intraperitoneale
##C
Gallengänge
v.a.
Mastoid
wahrscheinlich
reaktiv
##5,
(3
osteophytäre
z.
iP
Fragliche
subchondrale
dislozierter
direkten
superficialis,
Leberläsion
6,
Arthritis
tumorsuspekter
bedingt
cMRT
##(
Verbindung
fokal
Binnenstruktur
Sicht
Glandula
Ablatio
FT-Winkel
Luxation
Defektareal
kranialen
e
TVT
##..
Splenomegalie
Herr
interna,
Facettengelenksarthrose
linkskonvexe
Mäßig
frontal,
Homogene
allerdings
Spezielle
Signalalterationen
Freies
Verschattungen
ATP
unauffällig.
apical
1,1
Deckplatte
Herdbefunde,
MCA
T1-VIBE
Markierung
Sequentielle
Nervenwurzel
Dichte
Dilatation
dichtes
(Wahlund
pectoral
Nebenmilz
Voraufnahmen.
T2,
##ell
intakt.
Capsula
Lymphknotenbesatz
Hilär
Dünnschicht-
##isch
Demonstration
Schmales
interne
##chen
thorakaler
53
##bildung
narbigen
Dyspnoe
ossär
sterilen
6/7
tibialis
Bandscheibenprotrusionen
T3
Humerusfraktur
Verhaltensmaßregeln
Kontrastmittelphase
anschließend
Knochenfenster
Erfolgreiche
##resektion
##ische
annähernd
Imbibierung
Vollständige
Vorfuß
Des
degenerativ
deutlichen
Streifige
hilär,
geringgradig
Gelenkspaltverschmälerung
##itis
Fragment
Signalanhebungen
Befunde
Liquorräume,
schlank,
Signalsteigerung
Lungenstruktur
ossis
Gesamt
muss
retroperitonealen
Sturz,
Stenosierung
Initiale
orthotoper
Thorax/Abdomen
inguinale
subkapsulär
T4
Orbita
N.
##4,
perfundiert,
COPD
Hochaufgelöste
orale
T2-HASTE
NET
P
vorangegangener
Schwächungskorrektur
Gonarthrosis
Mammographisch
coeliacus
Extremitäten
LWK5/SWK1
Normbereich,
n
symmetrische,
52
retroperitoneal,
##tis
##p
EF
Schleuse
messenden
Mediastinalorgane
51
Schädelbasis.
Harmonische
Nasen-
Läsionen.
Regredienter
Differenzierung
##6,
Erbitte
klinischen
cerebellär
Lokalrezidiv
Knöcherne
CT-VA
Verlauf.
II.
Lungenarterienembolie
5,5
Ellenbogen
PET-Emissionsmessung
Thyreoglobulin
Hilusnah
belüftete
Füße
iliacal
(1
Mehrzeilenspiral-CT
Größenregredienz
AIE
noduläre
##N
komplikationslosem
indirekten
Vorbefund
prominente
Sonden
##7,
mittlere
US
Multislice-Technik,
signifikant
Mammasonographisch
occipital
Narbige
##U
3D-GRE
Pelottierung
alle
konfiguriert
##8,
entzündlich
MRT,
intensivierten
mediastinaler
intravenöse
Husten
Schädels
0,27
Osteolyse
DWI,
##ende
tastbar
Signalanhebung
Ohrnebenräume,
##ierte
Fraglich
(Aneurysmen
konfiguriertes
Cholestase.
behandelnden
Sonographische
chronischer
RF,
Erbitten
intraluminale
(DD
zusätzliche
Arteriosklerose
54
umschriebener
Bein
56
Pleurakuppenschwielen
Veränderungen.
Hemiparese
oral
Größe,
Ante-
Z
größenkonstant
##v
Primovist
Bülau
##11
Kolonrahmen
Dynamische
Allseits
dilatierten
reguläre
Therapiehilfen
##c
NUK
##19
langen
UF
diffus
Dabei
2,3
folgender
geringem
Rippenfrakturen
Dorsale
Kleinhirn
zuvor
7.
Knochendichtewert
mittig
Kyphoplastie
Bekannte,
einschließlich
Rippenserienfraktur
minimaler
##or
vierter
4,20
Hause
unterschiedlichen
0,6
Milliliter
exemplarisch
sonographischen
miterfasste
(bei
Plaque
betonter
Hemihepatektomie
wobei
Spiegelbildung
wenig
MR-tomographisch
57
hochgradiger
Kellgren
überschaubaren
##es,
Konventionelle
##wand
fehlender
Jahre
Dosis
Hypodensität
Sklerose
multiplanare
Größenprogrediente
Fehlstellung
##ler
intracranielle
2,2
##f
Herzhöhlen
saphena
eindeutige
Hals/Thorax:
AP
Linksseitig
Resektionshöhle
Intrapulmonal
0,3
0,7
Rückenlage
superficialis
Calcaneus
Rippenfraktur
ATA
Lappenspalt
HASTE
bekannt
49
KM-Enhancement
Schraube
je
##O
##30
(3-0
Tastbefund
Vermehrte
mesenterial,
lateralis
Ältere
durchmessende
Daten
maximum
Gewebe
IMA
##Z
##rt
Becken,
VP-Shunt
größenprogredient
##iert
Vergrößerte
kardiopulmonalem
paramedian
Aufhellungssaum
nachweisbar.
nativer
Distale
beschriebenen
älterer
Magens
flächig
3,0
Progress
##0,
Meteorismus
styloideus
Hals/Thorax/Abdomen/Becken
Zeitpunkten
Mamma-Ca
1,0
Ventrikel,
T2*
(VU:
unklare
Wirbelsäulenveränderungen
zerebrale
Normal:
abdomineller
Unterlappendystelektase
7,
eindeutigen
58
##ing
##tisch
KM-
##):
Venen
erfasst
T-Wert*
descendens
1/2
##el
gesteuerte
extern
Leberzyste
Lebermetastasen
Peritrast
biphasisch
Ischämie.
postoperativ
L1
Konkrementen
62
Verlaufskontrollen
##tische
Ethmoidalzellen
Kelche
Insbesondere
Pol
Komprimierbarkeit
Mehrspeicherungen
Pankreaskopf
Hyperkyphose
Lage?
Mehrsklerosierung
Humeruskopf
hinteres
Thalamus
Problemlose
Gallenblase,
mittelständiger
weites
Brust
venoes
echoarmen
kontrastierten
Pathologie
reizlose
Plexus
Fremdkörper
umgebenden
Harnstau,
L4
Fibroadenom
Von
metastasiertes
weite
Verlegung
ehemaligen
zwischenzeitlich
Aufhellungslinie
durchgreifende
Schmaler
Schrittmacheraggregat
Rekonstruktionen
pektoral,
ausgedehnte
Unveränderter
Sigma
Pulmonale
##end
Kleinhirnhemisphären
Pancreas
Nur
Druckschmerz
damit
Neuanlage
gegebenenfalls
hepatis
(10
Atherosklerose
Postoperativ
LAE
Bauchlage
Alignment
Schmerz
Phlebolithen
##o
AL
Infekt
Köpfchen
Gyrus
media
##5.
Herz-
empfohlen
erhöhtem
maxillares
Fistel
lagen
regelmäßig
Traglinie
Wie
Flüssigkeitsverhalt
Wasser
##6.
61
Befundkonstanz
versorgte
verdickten
ventrales
Mittelgesichts
Wurzel
hepatica:
schmaler
(2
63
##che
DK
PET-CT
l
Leberzirrhose
Befundwandel
MTP
freundlichen
66
gemäß
echoarmer
Lungengerüstveränderungen
##nde
Weiteren
Zwerchfellkuppen
dorsolateral
PSA
dd
##ar
sacrum
LWK3
antegradem
Millimeter
3,2
T-Wert-Analyse
Untersuchungen:
seitengleicher
erhaltener
Oberbauches
Pat
Lymphom
Grüßen
Frakturnachweis
A.e.
dargestellten
2,4
metatarsale
2,8
normweite
übrige
Mediastinum,
lokale
Spondylophyten
schlank
Fossa
Akute
Erhaltenes
Pflege
Frakturzeichen
nachweisbar,
floride
Mehrzeilen-Spiral-Technik
Gefäß
SDH
Buscopan
Flaue
Zentral
##en.
0,4
Rechts:
Kalotte,
Einführen
komplett
hepatischer
Laborparameter
m/s
Blut
Herzens
kollegialen
Gesichtsschädels
unwahrscheinlich;
mm;
(8
Hüftgelenke
Drainagen
Materiallage
Risikoanamnese,
periventrikulär
kräftige
Husten,
Sonogramm
(aktuell
Materiallockerung
Globale
Mittelgradige
##ose
Filiae
chronisch
1.5
Lymphknoten.
Neben
Hypointensitäten,
Pulmonal
erneut
Knochen
Frauen
2,7
Progredienter
Rechtskonvexe
##aufnahme
Links:
belüftet
gelegen,
kontrastieren
beginnender
Bandscheiben
intrahepatischer
Abstand
konfigurierter
Nasenbein
gesunden
##kontrolle
atypische
jungen
##8.
T1-Flash
MCP
transversale
Bruch
TACE
Koprostase
starke
Asymmetrie
Darmgasüberlagerung
Erstdiagnose
Hypertrophie
Unklarer
Flache
mediale
Beim
Form,
Verlauf,
Caput
##nt
Myelon
Arm
Femurfraktur
ilium
Hamm
Untersuchungsbedingungen
pelvine
ACC
cranialen
Niere:
##ungen
stellte
Weltgesundheitsorganisation
Vgl
Cholestase,
TIRM,
Zielaufnahmen
auslaufende
AMS
(7
Kontrastmittelaufnahme
Thrombophlebitis
spinale
randständig
Frakturnachweis.
Ergüssen
Strukturen:
bedingten
geb.
Verschmälerung
Tuberculum
Kräftige
Spinalkanals
T2-TIRM
gibt
knotig
erfolgreiche
kalkdichte
Kleinere
Melanom
##ektomie
Power-Doppler
Nächste
Stanzbiopsie
mesenterica
gelten
Nierenarterienstenose
weniger
59
Magensonde,
davon
lakunäre
SE,
Hypodense
Referenzdatenbank
Frei
neuaufgetretener
##9,
##ns
harnabführenden
Leberhilus
lotrechte
(WHO-Definitionen
benigne
möglicher
ICB?
Gefäßzeichnung
bipulmonale
anterioren
intracraniellen
betont,
Traumafolgen
Staging.
Lufteinschlüssen
Flüssigkeitsansammlung
angrenzende
Phasen
gleichen
Abbruch
LWK4/5
##förmige
Hochgradiger
Rundherde,
##ß
Spondyloosteochondrosis
72
maskiert
##OP
CT-gestützte
vorliegend
prominenter
3-990;
Konsekutiv
CT-Untersuchung
Lockerung,
Angrenzend
Grenzwertig
Abdomen/Becken:
THI,
Nuklidanreicherung
Ischämie?
DWI/ADC,
euthyreote
Mesenterial
supratentoriellen
regio
Symmetrisches
glatt,
Ileum
Zystische
Gastrointestinaltrakt:
Schlanke
##ert
Kniegelenks
Blutauflagerungen
dextra
Halses,
76
erneuten
NSCLC
konturbildenden
(Meyerding
homogen,
##ia
Lymphknotenmetastasen
##ss
Signalgebung
ZVK-Anlage
125
kurz
Aspiration
berichtet
Fixation
Frische
Portkatheters
zarte
Linksseitenlage
2,1
##material
Abgangsstenose
Noch
##-CT
sowohl
Seite
PHILIPS
Oberbauchs
paravertebral
67
Berlin
Aktivität
##w
##20
axillär,
Seitenventrikels
alte
Peristaltik
tumorsuspekten
sterile
interstitielle
68
200
0,2
Metastasiertes
##ll
frontalen
Ausschluß
diffusionsgewichtete
VCS
MI
Zunächst
Liegen.
geehrter
450
linksbetont,
beginnenden
Sonde
beginnend
gesteigerte
##region
post-KM
Mehrschichtspiraltechnik
entfernt
Acetabulum
(CT
einliegendem
##2.
MR-
##it
verbreitert.
Computergestützte
Aplio
traumatisch
kortikalen
Verlaufskontrolle,
Perikarderguss.
periartikuläre
Planare
VK
##and
##aler
Galeahämatom
##mm,
Bandscheibenprolaps
Funktionsaufnahmen
proximaler
telefonisch
LWK2
vorwiegend
Höhergradige
Sekret
Fettgewebes
Ganzkörper/Polytrauma
konfiguriert.
Skelettalter
Dynamik
FKDS
Retrolisthesis
Zahn
Szintigraphie
##X
Stress
erhöhter
messendes
endet
1.000
globale
Respiratorische
Stufenbildung
unserem
begrenzter
ICD
(SE
okzipital
8,
##W
##n-
Lappen
Leeraufnahme:
Hallux
Mehrzeilen-Spiral-CT
Schenkelhalsfraktur
Rechtsseitig
Dissektion
##bar
ng/ml
Infarkte
sichere
ausgeprägt
Arterielle
Liquorzirkulationsstörung.
Eingeschränkt
Einbringung
Frauen:
0,1
vorliegenden
Akzentuierter
TX-Niere
##4.
anderen
Berechnung
verkalkter
regelrecht.
LTX
kU/l
wandverdickten
Kaudal
Damit
Bemerkung:
(SUV
Durchgeführte
IV.
Humeruskopfes
sternförmigen
Abdeckung
##ger
imponieren
Foramen
Leistung(en)
73
intra
R.
Palpation
Oropharynx
II,
fleckförmige
Auftreibung
anatomischen
T,
PTA
Bilddatenanalyse
Axilläre
liegender
verdickte
pectoralis
ML
Ausbildung
85
erwägen.
Nervus
Offenbar
verminderte
Auswertung
o.g.
##08
ausgedehnten
##rung
cervical
##nd
Fokus
Woche
fragliche
VU,
Erguß
verzichtet
behandelten
030
Stoffwechsellage
dort
kortikomedulläre
Magnetresonanztomographie
##om
III.
##s-
Infarktes.
4,4
maximale
95
gesteigerter
lateraler
Aufnahmenummer:
Konsolidierte
##ck
CT-VU
Prüfung
subkutanen
Axilla
interquadrantär
Aufhärtungsartefakten
##ität
Mittellinienverlagerung,
Symmetrischer
Unterlappen,
Ausgeprägter
Umschriebene
Flußsignal
er
Rosenberg
Linkskonvexe
größenregredient
welches
T2-Wichtung
2,00
externa,
g
Deckplatten
Hemithorax
Abdominalorgane
Deutlicher
Diskreter
derzeit
Mediastromgebiet
##ren
Teilinvolution
Ergüsse?
Da
1,5-Tesla-MRT
Herzschatten
Ödematisierung
Dislozierte
##ung,
Pankreasgang
geehrte
Vergleichend
Ureters
Vorwölbung
##40
besser
##ur
Haut
perihepatisch
Eminentia
Lokalisationsscan,
##rn
Narbenverhältnisse
Hyperostosis
3-Tesla
##tes
##min
Schmerzen,
Putamen
hypodenser
intraabdominell
m2
Mediastinal
Spülung
vereinzelte
belüftetes
##m,
periradikuläre
##7.
LGZ
supratentoriell
größenregrediente
ACE
12,
axillären,
Kopf/Hals/Thorax/Abdomen/Becken
74
beidseits:
Physiologische
Fleckige
##ner
Inspiration
##id
TOF
seiten-
CT-Thorax
Prozess
inhomogener
atypischer
Problemen
periventrikulären
nahe
gezogen
BARD
jugulär,
Schmerztherapie
(S3
arthritischer
leichter
Kollegin,
akuter
wenden
nativdiagnostisch
metastasensuspekter
)
Ableitende
angedeutet
Bewegungsartefakten
pa
##ma
Emphysem
hochfrontal
Heparin
Phase,
CD-Winkel
Wirbelsäulenganzaufnahme
kräftigen
weiterführende
##3.
Reposition
Artefaktüberlagerung
kleinem
Schlingen,
e.
basiläre
Luftüberlagerung
mm).
medialis
Danach
progredienten
##ste
Seitaufnahme
Mediastinale
operativen
MRT-Voraufnahmen
cm/s)
(9
H
O
Luft,
MRT-
Kolon
MR-morphologisch
psoas
(L
Materiallockerung,
hilärer
Saum
Inhomogene
glatten
projektionsradiographisch
Insuffizienz
VU.
NNH:
(ED
liegenden
manuelle
tracheales
Porttasche
hyperdense
Kleinste
Karzinom
15,
Traceranreicherung
metastasensuspekten
ausgedehnter
i
Weichteilschatten
Flüssigkeitseinlagerungen
s
familiärer
Femurkopf
Somit
Oberbauchorgane,
Erweiterte
Leberzysten
Sterile
Übersichtsradiographie
Dezente
Femurs
Frakturspalten
waren
Granulom
Orientierend
Niere,
metastasiertem
2-3
##kal
extrakraniellen
C.
betontes
Partielle
(max.
Position
postoperativen
empfohlen,
kräftiger
verkalkten
subpleural
Inkremental-CCT
Hyperintensitäten
fachkundigen
konnektierten
Abgangsnah
tiefe
##ft
Prominenter
Minimal
aktive
Kranial
Instillation
Ektasie
(12
cervikalen
hin
Lobus
Ergebnis
Fixierung
PCA
Kapsel
Zeichnung
dorsal,
Aneurysmas
##be
Cholangien
6,5
ng/dl
ax,
GK)
Nun
Nativdiagnostisch
belüfteten
##an
NTx
Statische
BPH
Aufweitung
##schen
Größenkonstanz
diffusionsgewichteten
Transitionalzone
zystischer
Oberpol
abdominelles
Probe
##störung
Inkrementaltechnik
[
Arzt
Liquorzirkulationsstörung
telefonische
pleurale
osteolytische
##.0
Beinvenenthrombose
prox.
Primarius
EASY
mitabgebildete
fibrotische
(im
Technisch
Gegenüber
Minimaler
Läsion,
Regelhafte
diskreten
gewinkelt,
Dislokation.
Infarkt,
NaCl
vermehrt
ebenso
Befund,
Anstieg
##u
Ausprägung
lokalen
Kopfschmerzen
Pneu.
Hals/Thorax
Mittellinie
femoris
Status?
Ventrale
Komponente
offenbar
hochparietal
frontoparietal
Bildakquisition
ggfs.
81
Schrumpfnieren
Stellung?
ADC
Mehranreicherung
##lage
(mit
Zu
VU:
110
angelegt
Vorhof.
Telebrix
Stents
Rezidivierende
3,3
einliegenden
periventrikuläre
aktuelle
##ös
##ra
Stunde
##ut
MT
implantierte
Sprunggelenk
Planung
Vene
Auslaufender
CCE
kleineren
intrarenalen
abdominell
DS
Rundherde.
Low
echoarm
Entfaltete
Ableitung
Orale
Katheterverlaufs
Narbenbereich
Szintigraphisch
2,0
Normbereich
##ve
Anzeichen
*Definition
callosum
Gallenblasenwand
82
partieller
mutmaßlich
Einliegende
77
Nierenarterien
Lebergefäße
typischen
##au
d
Narben
Mammae
demarkierte
Teils
W.
Erhöhte
71
aortal
hiläre,
Nierenbeckenkelchsystem
69
Befunddemonstration
Parenchymkontrastierung
trotz
Metastasen.
Lymphadenopathie,
Atypische
supraaortalen
palpatorisch
KHK
##und
unklar;
0.27-4.20
echoreiches
achsengerechte
klinischer
Ursache
magna,
T2-TSE,
3,4
Knorpel
Neuroforamen
##katheter
fast
78
apikaler
Impression
##o-
Osteopene
peri
osteopener
kontralaterales
Unterpol
hierbei
schwer
##nz
(11
peribronchiale
Nahtmaterial
Falle
Spiegel
Leistenhernie
Entnahme
IE
PET/CT
Mittlere
Lungenkontusion
Schmale
UV
88
atypisch
MPR
metacarpale
intrahepatisch
alter
80-Zeilen
##he
COPD,
Zyklen
Verbreiterung
##nen
mandibulae
vorderes
Verkalkte
Hypodensitäten
##stellung
Aorta,
Um
valgus
Puls
##ein
Derzeit
führend
Perikarderguss
8.
Rundherden,
##gefäße
Idem
Rest
Frakturzone
Leukenzephalopathie.
Scores
liegendem
Steilgestellte
##ment
fraglicher
Mandibula
Sonographie:
##uss
##ts
Aortensklerose
Auffälligkeiten
erweitertes
Hirnarterien,
submandibularis
##tt
Pleurapunktion
Segmente
##et
nimmt
initiale
OPS:3-200
vibe
disseminierte
Omarthrose
Abdomen,
kräftig
Gelenkfläche
14,
Direkt
Koxarthrose
dorsobasal
veränderte
glatter
##aum
Grund-
superior,
NN
Anwendung
Starke
Verschlechterung
Lokalizer;
Bildverbleib:
entsprechen
Kinking
mikroangiopathischer
(Z
Schilddrüsenknoten
narbig
Prostata:
Schrankenstörung
echoreichem
sub-
Kieferwinkel
Begrenzung
##winkel
Gestern
##gel
Vorderhorn
Sternalzerklagen
gefüllt
Zirkuläre
Bandscheibenfach
VA.
Quer-
dünnschichtige
Sulcusrelief
Kyphose
3,7
akut
durchmessend
Schädelgrube
Untersucht
##öse
5,1
intrabdominelle
weder
intrakranieller
Syndrom
Talus
Versorgungstyp
W
S-förmige
Cholezystolithiasis
S3
Seitengleich
CA
Zystoide
Angrenzende
##nah
Fett
Echo
Spondylarthrosis
ICB,
Substitution
Speicheldrüsen
Anamnese/Frage:
erosiven
längerer
Flächige
Übriges
83
geringes
OPS-301:
verbliebenen
residuelle
nodosa
lateral,
Hyperthyreose
Körperoberfläche
arteriosklerotische
eindeutiges
3,8
abgebildet,
##mm)
##il
insb.
Deckplattenimpression
Ab
mäßiggradige
Seldinger-Technik
Arrosion
Schilddrüsenszintigraphie
portalvenöser
neuroforaminale
zonale
Liquor
Subtraktionen
Proben
prall
Präparation
RA
T2-gewichteten
fettgesättigt
##*
##ären
Ausziehungen
Serom
Arteriographie
ersten
Multislice-CT
16-Zeilen
9.30-17.00
sinistra
##zyste
E-Mail:
##]
transversus
##gelenk
wäre
re,
##Fraktur
Kelchgruppe
schilddrüsenspezifische
ihrer
Neurokranium
metastasensuspekte
folgende
cervikal
Gesamtvolumen
Nähten
Ruptur
Pleuradrainage
Ummauerung
Wirbelsäule,
Volumenbelastung,
links-
reichend
beschriebene
AF
Betonte
S2
Tiefendurchmesser
Bandscheibe
Saniertes
##karzinom
2,9
knotige
osteolytischer
Leukenzephalopathie
maligne
konfigurierten
Luft.
Signalabfall
Flüssigkeitssaum
(axial),
Geringes
frontal.
fettgesättigte
tse
flüssigkeitsgefüllte
(Normwert
retikuläre
subkutane
Beweis
vertebrales
Grundplatte
M1
Lungenarterien-Embolie
Knöchernes
internen
vollständiger
2.00-4.40
##2)
zystisch
Implantat
##cht
geplanter
IP
locker
zementierten
Oesophagus
Hinterkanten
Orthotope,
steriler
7,5
Malignom
Osteosynthesematerial
Prävertebraler
entfaltete
Angefertigt
Kriterien
Felsenbein
##-/
##sen
Kollateralen
##untersuchung
Kniegelenke
stehen
lag
gespült
Konsekutive
##e-
7-10
Flussgeschwindigkeit
Clips
superior/rechter
SD-Lappen
operativer
Abriss
(A
Status,
(N
##ktomie
AIC
Nuklidverteilung
Ossifikationen
rundlich
laterales
Pankreasschwanz
Andere
##zeichen
Raumforderungen,
##nachweis
Seitbild
malignomverdächtiger
apikale
3,6
Lungen,
FS,
Myelons
Dose
(L1,
betonten
ganz
##kt
RS
Linkes
parailiakal
flauer
Abschnitt
Larynx
Myokardszintigraphie
histologische
eingeschränkten
Pons
Schilddrüsenanteile
Lipom
Fragmente
Tarsus
Prostatakarzinoms
Liquoraufstau.
Aortenelongation
Bandscheibenvorfall
brachiocephalica
geringgradiger
##-OP
aufgetreten
Thoraxdrainagen
##ber
##am
Hüft
Lagekontrolle
Erhaltene
regelhafte
##keit
darstellbar
intrakutane
florider
Polytrauma
pneumatisiert,
Außenkonturen
Antelisthesis
Zwischenzeitlich
Laminektomie
symmetrisch,
hepatisch
Dehiszenz
10-14
zervikaler
größerer,
##);
Er
Lyse
postentzündliche
Mark
Beckenachse
##pf
Tumors
regelmäßigen
##ern
Hämatoms
resorbierbarem
Stauungszeichen,
bildmorphologisch
befindet
Rechtes
Pedikelschrauben
(Fa.
konnte
##1.
Zugangsweg
prä
RSO
##therapie
##plastik
werden.
(re
dieses
##gewebe
Strahlen
Zervikale
##lle
Medial
problemlosem
perihepatisch,
Minderspeicherung
Harnstau.
DE
starken
Schwimmen
kontinuierlicher
jährliche
neben
Retrolisthese
Unterschenkels
Diffusionsrestriktionen
Bülaudrainage
glatte
orthograd
Duschen
Osteolysen,
vor:
Schenkel
Kontrastmittels
Schraubenosteosynthese
u.a.
Mastektomie
hyperintens
ND:
11,
Entfaltung
##artige
Prä
Sternum
Fadenmaterial
ACR
Neuroforamenstenose
Baden
OPS
##raum
Lokalisations
Dünndarms
nachweisbar
geschützt
Hierbei
Fußskelett
intrakraniell,
Versatz
##sse
Bohrlochtrepanation
##me
Schilddrüsen-
BWK12
erscheinen
(P
linksventrikulär
Cutis-
##50
kariöse
Glatte
dargestellt
Regelmäßige
paraaortale
##sis
Harnwege:
hochgradig
##über
Strahlentransparenz
Polypöse
##9.
Gelenkstellung
92
Zunehmend
fortgeschrittene
DCE
Portsystem:
87
Thiamazol
Lediglich
LWS.
computergestützte
mm³,
MF
Drüsenkörper
Deckplatteneinbruch
86
Sinterung
zirkuläre
diesen
Hand-
Bauchschmerzen
T2-FLAIR
Stuhl
Fusion
osteoplastische
Dislokation,
Zeitpunkt
80-Zeilen-CT
700
Aufnahmetechnik)
T1-MPRAGE
##anlage
offensichtliche
Vakuumbiopsie
79
Haut,
##ke
verbreiterte
Genu
84
cerebrale
darstellbar,
Axillär
imponierender
gewinkelt
##hen
peritoneale
chronologischen
Zusätzliche
5mm
AC
peripankreatische
p.
Herniation
##/m
18,
Grundphalanx
NTX.
Massive
größer
9,
SCT
vergleichbar
PZ
VCS.
unkomplizierte
atypischen
Shaldon-Katheter
Dorsal
Zement
posterioren
##darstellung
##a,
Ventral
breitbasige
mGy*cm
Nichtbenutzung
FAST
Meningeom
Adenom
Metastasen,
Clearance
ileum
breiter
SUV
un
16,
SWI
94
Mittel
magna
3-
SWK1
Areals
##ien
ex,
Sollte
91
115
interenterisch
12.
Drüsenkörper:
submandibulär
cm/s,
170
Durch
(14
einsehbare
Femurdrittel
##as
Signalqualität
Corticalis
entsprechend,
Wiederholung
##prothese
##sion
Teilsaniertes
Verdichtungen,
Sprechstunde
98
Zwerchfellkonturen
Facettengelenke
Nierenarterie
##age
Drüsengewebe
##defekt
ORIF
UB
weit,
Menge
umgebender
C7
##ht
schmale
LA
Koronarsklerose
pulmonalis
Stern
schilddrüsenspezifischen
Breitbasige
max
carotides
Ligamentum
opticus
##liche
Übriger
eingebrachten
##bedingt
erhaltene
96
oben-außen
##betonte
##ol
mittelgradige
Eingriff
majus
Osteomyelitis
kurzer
Nebenbefundlich:
neuaufgetretenen
Homogen
0,
morgen
Scout,
Pleuraerguß
klein
##aufnahmen
G.
Parotis
##erung
##la
##iger
Elektrode
streifig
Interhemisphärenspalt
V.a
X
SPECT-Aufnahmen
abgrenzbares
Vakuumphänomen
vereinzelt
4,7
Ca
Schilddrüsendiagnostik
##e.
Ovarien
93
erosive
aktuell:
verbreitertes
030)
Vorrangig
Stenose,
geplanten
gleicher
Becken.
##tenose
dies
Lingula
Nucleus
Skelett
Abweichung
Größenregrediente
Achse
p
89
4,3
Ileus
Voruntersuchungen,
links;
##at
ICB/SAB/SDH/EDH.
LK,
unverändert,
Gyrierung
trans
danach
Thyreoidektomie
##MRT
10,
##3)
Projektionen
-dislokation
reaktive
Lokale
Substanz
dynamische
##io
Radiusköpfchen
erreicht
eingeblutete
b
APF
VCI
verlegte
Schwindel
##hr
paratracheal
Abfluss
nodulären
##0)
zusammen
4,2
Uhr)
breite
Schaft
##ben
HWS.
Sicherheit
Oberlappen,
3,1
Ausgeprägtes
500
Knickbildung
t
spezifischer
Untertunnelung
##ich
Hinterhorn
schmal
Entzündliche
Schilddrüsenparameter
BIRADS
Übelkeit
##,5
Frakturen.
präoperative
##her
##t.
lokal
kg
Doppler
Raumforderungen.
Flüssigkeitsgefüllte
PECA
Sklerosierungen
sag,
AC-Gelenk
##d,
(alle
erhaltenem
Wirbelsäule:
##läsion
Seg
verteilte
diffusen
basilaris
Befundänderung:
deren
Restbrustdrüsengewebe
Gefügestörung
Ganzkörpervorrichtung
hyperintensen
4,8
diagnostischen
SKS
##ver
flüssigkeitsgefüllt
Mittels
Subluxation
Kreuzband
laut
Pyle
97
intraabdominellen
Greulich
Etwa
MC
portae:
Para
S6
inklusive
links)
Bauch
Basaler
Aktuelle
Leberarterie
Alkohol
##höhle
##befund
bezüglich
Seiten
Angaben
infratentoriellen
##ae
Verletzungen
STIR
flächiger
Subcutisverhältnisse
Kallusbildung
##e)
2010
Aufklärung:
ex
TSE-Sequenzen
Übergangs
frontale
4,6
kontrastmittelaufnehmende
begleitender
Entzündung
Keilwirbelbildung
low
##enden
periprothetischen
Weichteil
##drainage
rechts;
sei
ovaläre
Winkelergüsse
SIRT
reicht
Konsil
102
Le
Ambulanz
Bild-
Skelettsystem
femoris,
Autonomie
gerne
Ossikel
myokardialen
Lidocain
##szintigraphie
Cerebrale
Scan,
Fernübertragung
Schwere
AV
Lymphknotenstationen
3D-Auswertung;
Schilddrüse,
Hyperintensität
Vasosklerose
##arthrose
Röntgenthorax
Befundtext
Territorialinfarkts.
##erte
Spiegelbildungen
##scher
auswärtigen
Schilddrüsensonographie:
Intakte
selektiver
##des
kontinuierliche
(Uptakephase:
Scharf
LAD
Luftüberlagerungen
pleuraständige
Scan
bekanntes
Symptomatik
Glenoid
physiologische
Speicherung
Steigende
malignen
Pars
105
(M
##A,
Regredientes
Basal
##nn
Arthrodese
Abschnitten
regredientes
(0.27-4.2)
röntgendichten
angehobener
Bullae
2009
kurzstreckige
welcher
RK
Territorialinfarkt.
Fibrose
Therapie:
Sicherung
##2007
schlecht
9.
Labrum
Cobb-Winkel
Osteophytäre
Frakturnachweis,
##ta
axillär.
Koronararterien
Sakroiliitis
(16
Prostatakarzinom
01
stationäre
Peri
Suszeptibilitätsartefakte
knöchern
handelt
(Norm
Lateral
Rundliche
ausgehend
maskierte
Kontusionsherd.
skoliotische
Lunge,
Gelenke
mmHg
##mer
Resektionsrand
Pektoralisfaszie
neurologischen
brachialis
erneuter
T1-TSE,
Reservoirs
parotis
Mundboden
signifikantes
##lung
linksseitige
aktiven
Kortikale
Bedingungen,
Vgl.
Hüftkopf
##stenose
MRT-VA
Innenmeniskus
Ganzaufnahme
Topogramm
Punktionsstelle
Zurzeit
Konturen
##seitig
##ca
relevant
Lymphknotens
Architekturstörung
Herniation.
Morphologie
resorbierbaren
##ser
2011
Psoriasis
MTP-Gelenk
sechs
demarkierenden
rechtsseitige
echoreiche
Mutter
Hämatom,
PRT
Heterogen
ipsilateralen
PSI
altersentsprechenden
Orthotop
##nder
Arachnoidalzyste
Global
willigte
flache
Akuter
funktionelle
täglich
Mündliche
##eal
Unterlappens
I,
Kniegelenkes
##graphie
Prellmarke
##nal
Portreservoir,
Gemäß
##arterien
Sella
(15
basal.
Verdichtungsherde
partielle
Isthmus
Afterloading
Gelenkflächen
(kein
ulnae
Lungenanteile
Randwinkelergüsse
portalvenösen
OP-
9,30
Re-
Konstantes
Herdbefundes,
Aszites.
Oberfeld,
Osteophyten
##-Technik
zart
Transplantatniere
bolusförmige
Konventionell
Neurokraniums.
Fenster
retrocrural,
##igen
Mittellinienverlagerung.
Explantation
##cal
rechts)
fehlende
distendierten
Samenbläschen
##ent
diffuser
Stress-Szintigramm
##ungs
Dies
(Serie/Image
massiv
VJI,
mammographisch
dient
##tal
polypöse
##ag
##ex
luftgefüllte
freien
Mammographie:
Elongation
##loge
Toshiba),
Ganzkörperskelettdarstellung
Ruhe-Szintigramm
GK-Skelettszinti
##ulär
Jochbogen
SV
onkologischen
Stark
auf,
Befundverbleib:
entsprechend.
Stellung,
Punktum
Lufteinschluss
1000
Bogenovale
Substanzdefekt
Retraktionsphänomen
##-Fraktur
deutlichem
respiratorische
Seitenlappen
maximaler
MRT-Voruntersuchung
Lungenparenchyms
neurovaskulären
LTX,
offen,
##cm,
rechts-
sagittalen
Klammernaht
Hypo
kontinuierlich
Bi
r
Mittelfeld,
schräg
Zyklus
##ät
##ngen
Fluß
begleitenden
sodass
Achsgerechte
Befundkonstanz:
8,5
Struktur:
Erkrankung
histologisch
OLT
Auto
atherosklerotische
Lockerungssaum
Organe.
OS
EPI-DWI
echoreicher
Appendizitis
Mitte
L3
##ral
T-
Informationen
Vergrößerung
ambulanten
reduzierte
Quantifizierung
se
Gegenseite
Morgen
Abszess?
li,
analog
Für
III,
rückläufige
Befundes
11.
jodhaltigem
17,
Brustdrüsengewebe
MRT:
stehende
Palpation,
moderate
Scapula
##icht
##men
Gesamt-DLP:
175
##CA
spinalen
maxillaris,
inhomogenes
3-05x
antegraden
s.o.;
##minderung
beiderseits
Colitis
Chronischer
##ug
Stammganglien,
Änderung
2x
perifokales
echoarm,
##J
jodhaltigen
Größenzunahme
strukturiert
Ausziehung
Gesamtvolumen:
kutane
Reduktion
Anterolisthese
Mikronoduli
Bifurkation
Pneumonische
HzR
Kalk
cm/s;
Spitzenlage
Septum
##verlauf
Lungengefäße
Peripherie
(ml/min)/1,73
Lymphknotenmetastase
u
Durchbauung
10.
Malignes
Entleerung
SD-
Re
Thalami
Divertikel
Tc-99m-MIBI
para
intrapulmonale
Oberbauch,
Hämatom.
subclavia,
Untersuchungstechnik
teil
iliakalen
könnte
Biplanare
##Ca
##nahe
Sternalcerclagen
regredient,
Weitgehende
Neuroforamens
Frage:
Archiv,
/-
101
Tagen,
T2w,
Aorten
verläuft
Operation
(unter
Okklusion
Clip
FDG
cc
Unterfeldern
Claviculafraktur
geschlossenes
außen,
OF
##heit
Pleuraergüssen
##ine
osteosynthetischer
erscheinenden
transversum
Nitro
##ze
##förmig
rechtzeitig
cavoatrialen
Jahre,
##-Anlage
Zeh
Symphyse
##0.
##lappen
L2
##lt
Leber-
Zysten,
dynamischer
PE
unter:
Rindenband
##rand
##ris
oberflächliche
kortikaler
Teilweise
Bulls
2)
Störung
Sulcus
orientierenden
##gung
SAP
103
Eye
5,3
Region
inkl.
Vorbekannte
Mesenterial,
Akutes
Gesichtschädel
(13
relative
##ktion
Laterales
##elle
##5)
beträgt:
Lungenemphysem
reduziert
Reflux
lotgerechte
Zuletzt
Formationen
17,00
lumbal
##.br
dedizierter
##ri
vereinbart
##weise
Anterolisthesis
schwach
Beginn
terminalen
Dick-
Hernie
V4
##ken
J
zementierter
(F
Kind
Raum
##hämatom
Mehrfragmentäre
planaren
Balken
4,40
auffällige
Gegebenenfalls
perifokalem
ICD10:
Bildkopien
1,5-Tesla
medialer
verplumpte
frontobasal
ex.
Gy
Medulla
späte
Hämatothorax,
Bildfusion
cm.
AZ
(Norm:
Struktur,
halbaxial
visuellen
kleinerer
##venen
Einblutungen
2008
Thrombus,
entleert,
Durchleuchtungszeit
vorhanden
neuaufgetretene
Händen
paramediastinal
Weichteilmantel:
Gated
malignomsuspekte
lumbosakralen
Kutis
##gabe
Kaliber
Aufnahmetechnik,
Kyphosierung
Erbrechen
J.
bestehende
Leeraufnahme
Demonstration:
Radio
hypointense
parenchymatöse
ax
Erneute
Anforderung,
Stenosierungen
VCS,
Ausläufer
(RI)
lienalis
5,6
Genese.
intra-/extrahepatische
durchgreifender
Lockerungszeichen.
dezente
Pankreatitis
##8)
Hyperdensität
http://radiologie.charite.de/pflegeleitfaden/
hinaus:
geplante
T1-SE,
Lebermetastase
Schnittbildgebung
Abszess,
Kontrolluntersuchungen
Pleura-
normkalibrig
größeren,
initial
Positronenemissionstomographie
Grad,
Hüftgelenks
5/
ionisierender
Muskel
subpleurale
Infektfokus
Funktion
Cavum
Knochenmarksignal
mGycm
5,2
Cauda
250
Absprache
größenprogredienter
Randbereich
Erbrechen,
##ide
Wenig
(HTQ
Subclaviakatheter
(nach
##pathie
Leberteilresektion
postoperativer
bilaterale
Adaptation
Kaliberschwankungen
PPPD
Genese,
komplikationslose,
k
neurologischer
angelegte
##gene
rheumatoiden
vergleichen
(E
reaktiv.
3-900
##hl
##anteile
Herdbefundes
Schleimhautschwellungen,
tra
unregelmäßig
Mittelständiges
Ebenso
##60
Nierenpol
Lymphknoten:
##li
##27
schluckverschiebliche
##ast
180
Divertikulose
Oberkiefer
Hüfte:
BE-OP
Absprengung
Saug-Spül-Drainage
MedVision
Innere
Herzschrittmacher
kleinfleckige
Zentimeter
Cutis
T2*,
Ultraschall
lakunärer
Dickdarm
supratentorielle
C6
frische,
Diabetes
Geringgradig
2012
(10:1
konventionell-radiographischen
Tibiaplateau
Konnektierung
##ärer
Hemikolektomie
##cher
positivem
interstitiellen
Aerobilie
Duodenum
Cochlea
Ergänzende
120ml
##knoten
Valsalva
anliegende
Raumes
rheumatoide
Krebsnachsorge/-behandlung
Koronare
persönlich
man
Transparenzminderungen
Direktzeichen
SM
Aortenbogen
Prothese
corticale
99
RF?
##di
ist,
infrarenalen
T1-gewichteten
m.
Patient:
##-2
relativer
##ka
##fe
7mm
Ihnen
Darstellung,
steriles
Miktion
Entlang
##25
Lockerungszeichen
benigne;
WK
01.01.201
simultaner
Vorbereitung
rectus
PJ
Flächendosisprodukt
##verletzung
de
Risiko-
eingesetzt
infratentorielle
darunter
'
lobuliertes
epi
Diagnose
Unspezifische
umgebende
CT-gestütztes
Becken-
Als
Flussbeschleunigung
##arterie
3,9
perfundierte
Schallauslöschung
##ial
rezidivierende
prätracheal
SPECT-CT
Parenchymdefekt
eingestauchte
letzter
##technik
##ive
osteolytischen
Besserung
##l,
Darmwand
prä-
Vorbeschriebene
4-6
hyperdensen
6mm
regulär
##/2
median
GE
##4.201
milchglasartige
##6)
Phänomene
steigende
Retraktion
MHz,
##llen
MR-BI-RADS-Kategorie:
(11:0
Mamma-Doppelspule;
##to
Halsgefäßen
Spina
##es.
##änderungen
Schmerzanamnese
##ci
Verplumpte
(T
lumbale
falls
Großer
Femurschaft
zumindest
mal
starker
Manifestationen
104
##/S
##all
##1)
##sten
periartikulären
Bewegungssegment
GB
Wandveränderungen
Jedoch
sigmoideum
Split-Bolus
(hier
##7)
5,4
durchmessenden
##auf
Fremdmaterial:
##01
OPTG:
begrenzten
alten
(Version
erscheinender
of
zentral,
wahrscheinlich;
(10:5
VP
Maskierte
U
geringfügig
Mediainfarkt
Femur,
Gips
cervikale
Protrusion
##ums
Schilddrüsenkarzinom
Hypointensität
Größen
frontotemporal
Defektareale
##nahme
soll
Infektion
3-752.0;
3-4
miterfasst
##wirbel
Konkrementnachweis
Schaftbreite
Gliose
verschiedener
Materiallage,
Intensivierte
##9)
IV,
ml;
Scout.
Teilresektion
Histologisch
prävertebraler
verminderter
Flusssignal
Residuum
Nebenwirkungen
##ko
Methodik
VICRYL)
Kombination
erwogen
Lotrechte
8mm
langfristigen
MW
4-
Stand
Exstirpation
cm;
##nte
mammae
Signalintensität
ICA
Tumormarker
##tumor
##21
symptomorientierter
kurzfristige
Raumebenen
präoperativen
4/5,
##-A
Perfusion,
Splenomegalie,
bestehen
c
Unterschenkelvenen
Pedikel
setzen,
beurteilbar:
Leberlappens
NB
Risiko
##-0,7
temporalis
##45
##ens
schon
(10:0
unterer
akzentuierten
messende,
echoreichen
Serienangiographien
multisegmentale
Flüssigkeitsspiegel
Lungenanteilen
cerebralen
##alis
bisher
##cken
Fettgewebsimbibierung
frisches
sag
Mamma-CA
verlaufende
(10:2
Infarktfrühzeichen.
Präoperativer
intraluminalen
T1w,
##blutung
supra
Leberläsionen,
infradiaphragmal
scheint
##dem
atemabhängigen
##ierter
##-Katheter
Langstreckige
Stenosen,
##so
DLS
Mehrsegmentale
abgebrochen
Befunderstellung
##35
(10:3
Überprüfung
Flusssignale
2-
Th
Knötchen
Flussprofile
##ru
Leberpforte
##-S
aufsteigend
Kraniotomie
Abdominelle
mesenterialer
Ferguson
parallel
Ver
Lasix
##ium
Bauchdecke
T2w-
Herzverbreiterung
Artefakten
atlantoaxiale
verzögerte
Draht
0,75
knotigen
Mediastinalshift
mitabgebildet
ergab
##drittel
Parenchymechogenität,
tiefer
Distorsion
Ileums
3-997
(fT4)
Ga
Gammanagel
Nachinjektion
Schilddrüsenmedikation
organüberschreitende
Perforation
IVa
01.05.201
infra
Lebersteatose
##nden
Ossa
##24
fibularis
Flash
Eigennieren
(C
enhancende
Tiefe
Nierenparenchym
ver
spondylophytären
Druckverband
Zunehmender
vordere
Mineralisation
mittelständiges,
4mm
##/A
zugunsten
einigen
US-
Frakturlinie
Flüssigkeitsretention
2013
(H
Verdrehte
##cus
Bildmorphologisch
Mineralisationsphase
Spondylolisthesis
bi
Harnstauung
3T.
Ansatz
gelenkgerechte
MRT-Untersuchung
##amm
System
dark
##pitze
Duschpflasters
Cortex
##volumen
T-Drainage
fatsat
Retropatellararthrose
normales
Während
ventral,
coronar;
Stoffwechselsteigerung
Post-OP
EKG-Registrierung
lobuliert,
Dekompensation
verdickt
##zintigraphie
axilläre,
##ho
##tem
Bauchwandhernie
(soweit
mehrfragmentäre
Coiling
großem
Portionierte
Pro
Flüssigkeitskollektion
##wechsel
atlantodentale
Hypothyreose
Schwerpunkt
Harnblase,
richtungweisende
Sinterungsfraktur
Schädelbasis,
verdrehter
schlanke
Monate
NTX,
KM-Instillation
##22
##07
Hochfeld-MRT
Übelkeit,
Abgangs
107
Vor-CT
Drei
Aortenbogens
(11:4
Ubiquitär
Retrograde
HU
Bilder
Spinalkanüle
Aggregat
Laborchemisch
dritten
PICC-Line
typisch
2014
Hormonelle
Lockerungszeichen,
##ster
Lebertransplantates
Kalzifikationen
Costae
intercondylaris
Torsionsskoliose
haben
##80
erkennbare
Atemmodulierter
##.9
(PET/CT)
##ce
Hydrocephalus
Carina
##lateral
Thymus
Apex
hyper
ausgeprägtem
residuell
Minuten,
##-Ca
Nr.
Bronchialkarzinom
14.
Residuelle
Entzündungszeichen
Revision
Gelenkspaltverschmälerung,
multinodosa
0,0
##ödem
Druck
##rte
hyperintenses
Ports
##uch
9,3
intracerebrale
Uterus:
##werte
natives
dezent
Lungenlazeration.
nativ,
Intravenöse
Falx
Einliegender
##osis
##vor
Außerdem
Laborkontrolle
##4)
Ausstrahlung
cGy
(11:5
Hüft-
Schichten
apikal,
Dieser
Fehlhaltung
(Schädelbasis
##/P
pneumatisiert
Nacht
Fibulafraktur
Adenokarzinom
(n
IVb
zirka
RCA
Tubusspitze
Stoma
Femora
(Grad
##up
Sepsis
##ö
Arthrose?
Noduli
##fall
Nervenwurzeln
##x2
(10:4
ubiquitär
(Klinisch
##veränderungen
Femurkopfes
inguinaler
##zeit
cm²,
Zahnstatus
##co
Dann
L4/5
Mittelfuß
Hepatomegalie
Mamille
parietooccipital
Pulmonalarterien
(Segment
gleich
Retroperitoneum
vergleichbaren
internae
##-T
##ha
intrakavitärer
Sonstige
Nuklearmedizinischen
benignem
subchondralen
Zähne
Zugang
##fen
Artefakt
basilica
iliakale
Ileostoma
typico
an,
##05
Centrum
Bülau-Drainage
Reaktion
4,1
hierzu
Samenblasen
106
Coxa
Carotis
##6.1
Muskulatur
Prolaps
Ruhezeit
Marklager,
internus
größenkonstanter
symmetrischer
##/-
Subtraktion
Vereinzelt
##dichte
florides
allogener
Karzinom:
Zweitmalignom
9,5
Platte
Inter
##fi
Konsolidierungen
##un
##thorax
dafür
##ach
TcTU
subtotaler
DSA
Intrakranielle
minor
Rhizarthrose
Untersuchungstag:
##cm/s
parietal,
Stromgebiet
Periventrikuläre
Carpus,
(MRT
imponierenden
bildgebender
##ort
5,7
130
Einschätzung:
Nierenzellkarzinom
Erosion
SRS
echofreie
140
##omie
##chi
Nekrose
SDS
Breitbasig
Parenchyms
(11:2
##versorgung
Rundherden
Mäßiger
Resistance-Index
Erhöhung
LK-
Kalibersprung
(11:3
verkalktes
älter
weichteildichte
Rektums
cor
unklarem
Luxation.
perifokalen
15.
Marklagerläsionen
Mehrzeilenspiraltechnik
Verlaufsbeurteilung
Begleitend
Mastoidalzellen
Prall
CTA:
1-
Kopfschmerzen,
##lär
nachweisbare
##rie
tauglich
zweiten
ausge
F-
Hemi
heterogen
Hirn
zeigte
physiologischer
DWI/ADC
generalisierten
Gelenks
Mammakarzinoms
Harnstau?
8-Zeilen-CT
##gang
semiovale
Tibiaplateaus
TBC
Befundübermittlung
subphrenisch
##,4
##lis
Beckenring
##d-
VA,
Arthritische
(keine
Ödem,
OPS:3-225;
gesichertes
##position
T1-gewichteter
Periartikuläre
Hauptbronchus
Sludge
Computertechnische
größten
caudatus
20.01.201
vidit:
CT-Voruntersuchung
Fr.
(0
Gang
10mm
vergrößert.
progredientes
Abschließend
Herzkonfiguration
Alternativen
9mm
Diffusionswichtung
50%
Achsabweichung
Hypophyse
Abkippung
1)
(S2
portalen
(12:1
(09:5
Fersensporn
4,9
Dissektionen
Plaquebesatz
Beckenübersicht,
Umgebung
wenige
z
##überlagerung
##d.
unscharfe
Leberlappen,
(R
ml/m²
Rö
raumfordernder
##90
Oberschenkels
angedeuteter
unserer
##us,
Traumafolge
Gallenwege:
##ssen
Tel.
Rückenschmerzen
Dichtewerten
Va
(D
BI-RADS
##33
fehlenden
Lu
Weiterer
XG
AP-
ventrolateral
intrazerebralen
mögliches
##ele
pulmonalarterieller
Prozedere:
DCIS
warme
Erguss.
L5/S1
Konfluierende
zweite
hinter
##ierende
Verfettung
besonders
Do
fehlendem
##va
Desweiteren
Supraspinatussehne
##x3
verstärkte
subcutan
Peritonealkarzinose
Leistungen
Tracheostoma
Mikrokalk
##phase
perisplenisch
Korrektur
Verschluß
abgangsnah
Media
Hüftgelenken
Wert
Ziel
##ls
atemmodulierten
nicht-
Ent
Persistierende
Patientin:
wirsungianus
Spondylodiszitis
##1-
Chemo
112
Sarkom
##tro
Lungenrundherde
20.04.201
zunehmenden
13.
Ferner
##-5
Ileus?
spezifischen
parapelvine
AFP
##isierung
Wirkung
emphysematöse
Hyperperfusion
Disseminierte
subdiaphragmal
Tubus,
Relativ
vermehrtes
Lokalisationen:
An:
Stufe
Conus
dist.
keinen
Zyste,
Frakturen,
##nung
Weichteilen
##a-
8445
##raktur
kodierbaren
##aris
##,6
##/E
konfigurierte,
ausführlicher
Pan
Untersuchungsbedingungen:
Krankenkasse
FLAIR-
bekannt,
Laut
##igkeit
##i-
dichten
SSS
EVD
5,8
gewechselt
Kutisverdickung
Transplantat
Binnenmuster
##5.201
(V
dorsobasalen
##funktion
Subduralhämatom
##-Therapie
10,5
Ebenen:
Ärztin
Bupivacain
Bettruhe
16.
##ate
CT-Angiographie:
##l.
##diagnostik
##muskulatur
cCT
wandverdickt
##ap
##ei
schallauslöschende
s.
Gelenkerguss
Richtung
Echogenität,
Rezidivs
Leberrand
tendenziell
Spätaufnahmen
Rückzug
##99
zusätzlicher
10:
statische
Groß-
-lockerung
Ad
Collum
retrocrural
Kurzachsendurchmesser
½
kortikal
Thorakale
##.-
Hepatitis
Infarktareal
21.04.201
Lokalisationen
kleinster
fünf
Grob
Bo
3D-
pelvin
transversaler
strukturverändert
##fund
Augen
##sstörung
Bekannt
Wundverschluß
KM-Anreicherung
Ossifikation
LWK3/4
Lawrence
842,4
röntgendichter
Funktions
korrekter
##reich
Atrium
statisch
heterotope
Generalisierte
16.06.201
radialis
plattenosteosynthetischer
Neck
verbesserte
AKE
runde
Multiples
fein
Magen,
##l-
Größenkonstanter
##7.1
Infarkt.
Arealen
Mediastinalverbreiterung
Lungenkreislauf,
Hirnstamms
Kategorie:
28.01.201
##änderung
NBKS,
Leberflusswerte:
konventionell
früh
bipulmonal
##no
##mus
##bruch
periprostatischen,
Retroperitoneal
Hirndruckerhöhung
Differenzierbarkeit
##8.201
Seitendifferenz,
Rückfragen
Röntgenaufnahmen
Aortenaneurysma
##zen
##op
restriktive
Tibia,
Infiltrats
Restharn
Na
05.05.201
##herd
##kation
Intubation
imponierend
Intima-Media-Komplex
f
##tik
Q
06.05.201
reichend,
ICR
Ossär
Sekretretention
röntgendichte
Traumafolgen.
Kardiale
Cor
Knotens
Gehörgang
langstreckige
habe
vorbekannten
SPACE
##3.201
zystoiden
Umbau
15-80
Cage
Nephrolithiasis
tibialen
Portimplantation,
##-0,6
vierten
Basedow
0,65
arteria
anderer
20.05.201
##teilresektion
hilusnah
##ica
Hämatosinus
ausgeprägtes
##lu
mikroangiopathische
zementierte
externes
Einsatz
##enz
198
retroperitonealer
Verkalkungen,
konstanten
diagnostische
Arteriosklerotische
Rücken
##rf
Jod
Ausgedehntes
Dichtewerte
Bar
residuellen
pharmakologischer
Perfusions
ASS
Haste
Kompressionsfraktur
Femurkondylen
Gerlach
3-Tesla-MRT
##-Sequenz
##Fx
vereinzelten
Nierenloge
##tung
Ort
TSH-Wert
Caudatus
Venenlumina
AVM
infratentoriell
Strecke
21,
15-50
Symmetrisch
Dystelektasen,
aortopulmonalen
Signalsteigerungen
zerebellär
##0.1
Nodulus
Grunderkrankung
3mm
auszuschließen.
Kontrollaufnahme
19.05.201
Mikro
##23
Interventionsradiologie
Granulome
##del
11.06.201
möglichen
ange
geringgradigen
Femurköpfe
S7
Behandlung
Knöchern
##06
Oberlappenresektion
entfaltet
BWS/LWS
18.
zeitgerecht
Unauffällig
26.01.201
Humeruskopffraktur
renalen
temporal,
Pneunachweis
Schrumpfniere
femoralen
##5.1
##ene
Schenkelhälsen
Bilaterale
Lagebeziehung
Hirnrinde
04.05.201
Marklagers
Lymphknotenvergrößerungen
##ro
Portkammer
Zug
##bild
Rundherden.
14.01.201
09.02.201
Degenerationen
15.09.201
##is,
akzentuiert
PEG
-oral-GI
(12:2
##ula
lat.
AML
##ä
Wieder
Myelopathie
Charité
Gebauer
##3.1
Verteilung
Skelettanteile
Pneumo
##ographie
Eher
begrenzte,
##ps
vs.
Bosniak
II/III
0,55-0,75
##ischer
flacher
Nierendrittel
erfolgen
selbst
ROI
ACA
##9.201
##ierten
Rindenfurchung
Hinterwand
Ausmaß
destruierende
Arterie
Kollateralbänder
##RA
USG
Hüftdysplasie
manus
aufliegendes
Schwäche
Uptake
Niereninsuffizienz
06.02.201
##system
##mg
lumbalen
sub
Dysplasie
Vaskularisation
dorsobasale
02.06.201
Oberlappens
osteopene
Abgeflachte
3)
##ang
Rekanalisation
Volumenbelastung
08.06.201
Rinde
Bauchschmerzen,
S5
Abgänge
09.06.201
LK-Metastasen
17.03.201
108
##LWK
pedis
Rinne
akutes
Herdes
##platte
regelhaft
Parese
ICB.
Anastomosen
##ff
abgebildete
##pe
##A-
Kurzstreckige
24.03.201
C2
22.04.201
##nter
Gallenblasenbett
30.01.201
echoarmes
EKG-Elektroden
Band
10.02.201
Lokalrezidivs
13.04.201
durchgeführte
kleinsten
S8
##tz
##verschluss
langstreckig
Alters
##gradige
16.02.201
11.02.201
(nur
##,8
(18
##sfraktur
12.05.201
10.06.201
Meniskus
orthop
Suspekte
24.02.201
größeres
Rechts,
Nasen
De
##sa
113
0,72
Grobe
situ
Frontal
07.02.201
(09:4
Regadenoson
Minderperfusion
(S4
hoher
randbildende
größen
Ergometrie
vorbekannte
19.01.201
Randsaum
Sinus-
12.03.201
Weichteilsubstrat
Inspektorisch
Erker
##rm
Hämatothorax
Z-Wert
##ker
5F
gelöst
##bi
orientierend
absorptionskorrigierten
Abschnitte
30.05.201
##b.
letztmalig
gluteal
Schwindel,
20.03.201
##punktion
Ärzten
Embolie.
Elongierte
Blasen
##er,
Erhebliche
31%
##zug
Zweitkarzinom
(Fax
##luss
seitlichen
gestützte
längerfristigen
Blutungen
08.03.201
temporopolar
zervikal,
10.03.201
Einbruch
bestehender
12.02.201
propria
0,5%ig
14.04.201
##ab
Dosierung
Abstrom
##pol
Emphysemaspekt
06.04.201
Fuss
Bewegungsartefakte
TX-Niere:
28.04.201
ZVK,
02.03.201
Ankylose
27.01.201
17.
anliegend
Strukturstörung
Dekompression
konstantes
Regelgerechte
30.03.201
nachgeschalteter
Fußes
##ogen
##nis
11.03.201
reduzierter
auftreten,
Gefäßen
05.06.201
Pseudarthrose
Harnleiter
Kutane
Durchführung:
Ausführliche
4)
mikroangiopathisch
Sowohl
bspw.
Situation
AK
2):
18.08.201
Reanimation
Mediastinums
(12:3
Sub
##tomie
(11:1
EKG
(Mutter
##Ver
2016
13.06.201
##Stenose
##a.
26.05.201
PA
Geröllzysten
Meatus
10.04.201
##t-
(vor
ödematöse
iliacalen,
08.09.201
Ovarialzyste
18.04.201
Fetthilus
18.03.201
Gastrointestinaltraktes,
Äste
Prothesen
FA
##uf
Einverständniserklärung
##70
##ti
##aus
21.01.201
1cm
13.02.201
PowerPICC
Jejunum
mitdargestellten
03.10.201
Mark-Rinden-Kontrast
spinaler
her
21.07.201
(09:3
S4
Brustwirbelsäule
##n)
Beratung
23.03.201
16.03.201
(14:3
invasiven
Fe
08.02.201
Angedeutete
Zwischenwirbelräume
Rückläufige
OSG-
Lymphozele
Artefakte
Daher
(12:0
asymmetrisch
Cerebellum,
central
##ellung
##stand
Kontrastmittelenhancement
KM-gestützte
Fleckschatten
3/4,
12.06.201
Fokussuche
27.02.201
24.12.201
##ea
periradikulär
Vorhof,
18.02.201
Spondylosteochondrose
07.09.201
3,5-5MHz,
20.02.201
(20
perilokuläre
Basalganglien,
ARDS
##/3
##hin
kleine,
08.01.201
LTX.
Berücksichtigung
##typische
Vergleich,
12.04.201
11.05.201
Kleinhirnbrückenwinkel
Plantarer
Metastasierung.
E.
17.02.201
Rückfußachse
I.E.
25.05.201
24.01.201
parafalzin
breites
Hierzu
05.02.201
irregulär
Myokard
MCA-Teilinfarkt
23.02.201
Hysterektomie
Strahl
##31
22.01.201
Ala
24.08.201
ließ
Auslaufende
Rötung
2015
##tra
frontales
01.09.201
intrakraniell
Bruchpforte
tibiale
Hypoplastische
##ip
Acetabulums
zentriert
neues
##uläre
Räume
fettgesättigten
Dual
Apikale
komplette
##28
##pa
angedeutete
Hyper
Her
04.08.201
0,67
##VA
Bronchiektasen
Nierensteine/Abdomen-Übersicht
##struktur
Verhaltes
02.05.201
intraenterischen
12.01.201
##37
13.07.201
Kopf/Thorax/Abdomen/Becken
Hepar
Innerhalb
13.05.201
##,9
prominenten
Mikulicz-Linie
25.12.201
##/V
Unschärfe
Punktförmige
vorab
auffälliger
Multiple,
angegebenen
Hirnparenchyms
##nk
Empfehlung
14.09.201
Sigmadivertikulose
10.05.201
30.04.201
25.08.201
06.07.201
##rom
Überlagerungen
ovalär
Wochen,
0,68
##,3
Wirbelkörperhöhenminderung
02.04.201
0,74
19.
Beta
22.09.201
Verhaltformation
0,71
02.02.201
T1w-
17.01.201
01.02.201
breit
20.07.201
30.06.201
28.07.201
Zungengrund
Hygrom
##na
massive
bilobäre
Pathologische
Late
malignem
Afterloadingtechnik
31.03.201
1,5-Tesla-MRT,
(030)
Unterschenkel-Venen
##\u
##lichen
abdominal
Signalalteration
Großes
07.01.201
29.01.201
(fT3)
19.02.201
konturierte
07.04.201
catheter
Spongiosa
27.05.201
retro
Per
corpus
Me
##are
Kortex
Metall
##kante
dilatierte
Instabilität
Spätphase
07.07.201
zentralvenöse
hypointens
29.04.201
21.05.201
01.03.201
##nie
IMK
03.03.201
unklaren
Aktuell:
23.01.201
22.02.201
2007
Scaphoid
Klinik/
Hernien
##rin
irreguläre
15.04.201
28.05.201
10.01.201
offene
mL
überlagerungsbedingt
##,1
DM
2/
##ete
Unkomplizierte
25.01.201
20.06.201
18.01.201
V,
7/8
##'
UK
21.02.201
Vi
17.08.201
wöchentlich
Voruntersuchung,
17.06.201
bestehenden
Nahtfixierung
FAI
Lungengefäßzeichnung,
17.05.201
15.06.201
dar.
Infundibulum
##rei
##usion
(14:1
Ausgedehnter
Tumormanifestation
14.07.201
Neurokranium:
AML,
19.04.201
16.04.201
Hierunter
03.04.201
Venöse
14.03.201
##isation
KM-Aufnahme
09.01.201
Seropneumothorax
0,69
##tri
SWI,
##ms
Ösophagusdarstellung
##-Untersuchung
Rheumatoide
Erfasste
(Voruntersuchung
##-3
wenn
Schleimhaut
FC,
Implantationsstelle
Ha
19.03.201
04.03.201
U/l
03.02.201
Spondylolyse
Koaxialnadel
abgeflachte
Leberzirrhose,
11.08.201
Verdichtungsfigur
Ma
20.
Geschehen
##-,
begrenzt,
perivaskuläre
Fokus?
20.10.201
recht
Weichteilverkalkungen
##wert
Pause
09.05.201
Tuber
Komplikationen
Übersichtsradiographisch
Splenektomie
moderat
elongierte
perkutane
bessere
11.01.201
109
(12:4
Inspirationslage
##rezidiv
14.02.201
multi
Erschwerte
##ions
szintigraphisch
Kopf-Angiographie
CT:
Plattenepithelkarzinom
direkter
27.04.201
01.06.201
inhomogenem
Mittelgesicht
06.01.201
(peripherally
(14:4
Pflege-Information
0,73
Thoraxaufnahme
Stentimplantation
15.01.201
18.06.201
geplant
Kopf-
8-16
09.03.201
Haftplatte
##ente
verzögerter
24.04.201
##-)
asymmetrische
Deckplattenimpressionsfraktur
weitem
erfasste
prävertebrales
inserted
13.03.201
Weichteilmantels
Heparinverbänden
Beine
15mm
03.05.201
segmentale
coeliacus,
intraspinal
25.03.201
vgl.
Tel.-Nr.:
##,2
stärker
Kontrollen
29.05.201
Hypertension
perirenale
15.10.201
09.04.201
15.02.201
4/
gestauchtes
Superinfektion
16.01.201
14.05.201
hirnversorgende
27.07.201
24.05.201
##stelle
Ausriss
21.03.201
PET-CT-Untersuchung
13.01.201
22.03.201
Liegende
##-4
vmax
erweitertem
bullöse
en
MM
Hinterkantenalignment
26.03.201
##phie
unspezifisch
06.06.201
BWK11
##iv
Plus,
Verschlüsse
Mehrzeilen-Spiraltechnik
##nge
##ales
OB
Grobmorphologisch
21.09.201
hintere
Nebenniere,
(axial
AV-Fistel
17.04.201
##licher
peritonealen
Knies
Antelisthese
##mann
20.11.201
##uß
##8.1
Links,
19.06.201
MIBI-
Sekretverhalt
26.02.201
##tus
intrazerebrale
HWS-
Extubation
14.06.201
08.05.201
Hauptstamm
rundlichen
pontifizierenden
kalzifizierte
SD-Lappen:
07.03.201
Röntgen-Thorax
R0
Überganges
HWK5/6
28.02.201
Liegendaufnahme
10.08.201
medius
Paravasat
ödematös
29.03.201
Bestellnummer
insulär
##areal
Kieferhöhlen
(14:2
konturiert
(StatLock,
PIC0220CE)
05.01.201
##-M
orthogradem
extra
22,
globalen
Syndesmophyten
31.01.201
(S5
##we
hepatis,
Makroverkalkungen
Alle
##hn
imponierendes
Cholezystitis
cor,
gewölbt
Dys
10.12.201
04.04.201
(B
##IM
##bar,
zeitgerechter
v
Skelettszintigraphie
##rk
Befundkonstante
Mediale
(Angabe
##eren
post-
11.04.201
##son
T1-FLASH
05.04.201
Euthyreose
Drahtmarkierung
Fundus
Ar
Angina
Subluxationsstellung
12mm
##gt
MR-Voraufnahmen
Hypertonie
Aktivitätsanreicherung
##ym
22.05.201
T2W
Millimetern
##ruptur
Nierenfunktion
Mittelständiges,
04.02.201
##verkalkungen
##körper
rechtsseitiger
16.05.201
##ade
20.09.201
01.04.201
veränderter
paratracheal,
Darms
##can
Harnblasen
Vollständig
Osteom
17.11.201
##anz
I-131
brusterhaltender
schmales
Alpha
24.11.201
06.03.201
demarkiertes
Konusstand
Perfusionsphase
pleuraständig
25.02.201
04.09.201
Nebennieren,
erst
atrophe
umschriebenes
##-G
##03
Radiochemotherapie
Rheumatologie/Dispensaire
schlechter
Mann
23.05.201
(Termin-)
acusticus
Knie:
achsengerechter
##ring
retrosternal
20.08.201
verschmälertem
Malignität
MRCP
Tel.:
12.07.201
##linie
(15:1
spondylophytäre
Alignement,
##änge
coronale
(ER
(13:3
04.06.201
31.05.201
24.06.201
Zentrum
Terminvereinbarung
##r-
##ot
Vorderkante
Bronchitis
10.09.201
Supra-
##bel
cervicalen
Januar
(13:4
Versuch
03.08.201
Endotrachealtubus
05.03.201
SLN
Euthyreote
25.11.201
Dotarem,
16.11.201
23.04.201
##6.201
24.09.201
07.05.201
Prä-OP
normgroß,
mehrfacher
Beckenskelett
80,
31.12.201
Schallbedingungen
Bandscheibeninterponat
08.07.201
dessen
Teilatelektase
08.04.201
(Vmax
inferioren
Gadovist,
25.04.201
##II
Lumbale
axim
anteriores
Schultergelenke
re..
Fingertremor,
embryonaler
##itt
Aussparung
##tät
maschineller
Schwächungskorrektur;
Karzinom-suspektes
##yp
Lo
UL,
dazu
aufliegend,
Signalveränderungen
%):
##ann
Bursa
ggf
Untersuchungs
Schlag
14.10.201
Punktat
12.08.201
Wirbelkörper,
Monaten,
Leukenzephalopathie,
Mikulicz
##32
Blutungs
BWS.
Verlauf:
26.08.201
Verschlüssen
##MR
##26
Prostatitis
30.10.201
##da
naß
MRT-Termin
##gramm
15.11.201
0,66
##-Syndrom
MCA-
07.06.201
Anteils
posteriores
Extraktion
21.08.201
hypoplastische
hiervon
Kalottenfraktur
##th
Darmgasüberlagerungen
großen,
Niedrigdosis-Computertomographie
26.04.201
leukencephalopathische
Clementschitsch
19.08.201
09.09.201
Nuklearmedizin
16.09.201
Knochenmarködem
initialen
paracardial
Unterbauch.
Neuroforamenstenosen
13.08.201
Subklaviakatheter
Untersuchungen
medialseitig
##druck
HE
09.07.201
03.06.201
latente
Radiopharmakon:
##Technik
##ese
Sklerosierung,
##one
hochgradigen
29.06.201
(positiv)
##pen
Canalis
Typische
In-
Gallengangs
##,7
abzugrenzen.
##insuffizienz
Hals-
17.09.201
11/12
##satz
27.08.201
23.06.201
Neues
En
Lokalisations-Sequenz
dimensioniert,
Stellungsverhältnisse
Platzieren
Hierfür
Gangaufstau,
ARFI
26.12.201
##.1
progredient,
GBq
Flüssigkeits
Gastrektomie
HWS/BWS
Klavikula
##ir
Ki
12.11.201
KM-gestützten
Gelenkbeteiligung
venae
VA:
MCA-Infarkt
Lungensegment
##mal
belüftet.
Ta
Abgebildete
Mineralgehalt
6x
15.05.201
abgerundet,
Sepsis,
11.07.201
##ers
19.10.201
##yse
generalisierte
Std.
Infektparameter
02.07.201
##tre
inhomogen,
fortgeschrittenen
P2
Neoplasie,
01.07.201
Lymphommanifestation
sternförmige
Perikard
ge
Mastoidzellen.
Forschungszwecke
11.10.201
apicalen
intrarenale
harmonische
Ventrolisthesis
04.07.201
Zahnersatz
17.10.201
erhöht
Platzierung
07.08.201
##/C
zartwandig
technisch
sphenoidales
ärztlichen
Ergüsse.
20.12.201
systolische
spinosus
10.11.201
##G,
Methode:
12.09.201
Liquorräume.
19,
15.07.201
supraclaviculär
sicheres
##ef
Dislocatio
Raumebenen,
HTEP
Distanz
Geplante
Kontrastmittelanreicherung
Aorten-
##.5
Venae
Auffällige
12.10.201
5x
16.07.201
Impressionsfraktur
10.10.201
##bo
16.10.201
11mm
##al,
Neuro
31.08.201
18.09.201
21.
Xen
Fehlende
konvexe
Stoffwechsel
14.08.201
DJ
intervertebralis,
durchgängige
22.07.201
Mo
Cerebellum
26.10.201
13.10.201
seitengetrennter
Sarkoidose
22.08.201
temporoparietal
Intensivierten
17.12.201
##mark
0,64
VK.
Außenmeniskus
22.06.201
##hals
Rückbildung
Li
23.08.201
##schatten
Wirbelsäulenveränderungen,
Durchgängige
Lungenabschnitten.
Kollegin
18.07.201
21.10.201
IMD
Di
1,5-Tesla-MR
##x4
##seits
verdickter
Restbefund
Nachsinterung
05.07.201
03.07.201
Hinterkantenbeteiligung
(09:2
berandeter
FX
koronale
##tu
25.06.201
minimal-invasive-ambulanz@charite.de
11,5
06.08.201
Exzision
ent
##Anlage
24.07.201
05.09.201
05.08.201
Retro
##verkalkung
me
Pleurakuppenschwiele
04.01.201
infolge
beschrieben
##tel
Verminderte
Druckbegrenzung
27.10.201
14.11.201
Frakturgefahr.
10.07.201
VFC
Beckenvenenthrombose
21.06.201
LKs
15.12.201
Radiusköpfchenfraktur
Lungenparenchymveränderungen
23.07.201
%,
##hochstand
24.10.201
längliche
Begleitende
##ufnahme
##cm)
Tracer
Perikarderguss,
25.
16.12.201
Ergussmenge
(14:5
peripherer
(09:1
fibrotischen
27.03.201
intramammären
Lungenperfusionsszintigraphie
Gliosen
03.09.201
27.
(2,
28.03.201
cervicalen/thorakalen
02.10.201
ap-Projektion
kurzfristig
Hepatisch
CT-Aufnahmen
mikrochirurgische
##spalt
Primär
##ed
Konstanz
CT-Abdomen
Extra
3/
##ekt
0.8
##mo
FG
Nierenvene
Mesenteriale
18F-FDG
OP,
Transparenz
abgrenzbarem
Intervention:
Crohn
19.11.201
Blutspiegel
##hi
begleitende
06.09.201
##xi
##anteil
Wirbelkörpers
Komplette
##lo
TIRM-
Ausdruck
vorbeschrieben
vergleichbare
##-f
Marknagel
24.
Pseudo
15.08.201
##/1
##zeichnung
KM,
31.10.201
2-4
02.09.201
(13:5
infracarinal
(13:1
-2,
fleckigen
Profil
konstant,
30.08.201
17.07.201
(17
##Re
##infiltration
linksventrikuläre
Kontrolle,
Achs-
cephalica
Ak
##Aufnahme
##si
##akt
postspezifischen
1.5T,
Rasselgeräusche
06.10.201
09.08.201
23.
##gs
18.11.201
Maß
fixierte
Verschraubung
Mikrokalzifikationen,
Schulter:
Hippocampus
30.09.201
11.09.201
30.07.201
13.12.201
Folgeuntersuchung
111
Desinfektion,
gehalten
Tri
29.10.201
##sin
stromaler
Zementierte
Leisten
28.09.201
Unmittelbar
Hirnvolumenminderung
lange
axial;
Früh
Bett
Ileus,
21.11.201
Strukturelle
Hämatome
Trachealkanüle,
Hoch
23.10.201
durchgehend
Tumorrezidiv
Führungsdraht
Acromion-Claviculargelenk
UA
Terminvergabe
Proximale
(15:2
intraspinalen
19.09.201
19.07.201
Mammakarzinom-Belastung
Knochenstoffwechsel
Herzsilhouette,
prävertebralen
strukturellen
05.11.201
##weite
##vi
##och
pAVK
hierunter
Ausbreitung
Absenkung
Pankreaskopfes
NCC
Herzkontur
quer
23.11.201
halbe
##ischen
##parese
(90
auswärtige
Volumenminderung
08.08.201
radiographisch
15.03.201
Fissura
achsgerechte
DWI-
biphasischer
perihilär,
Schilddrüsenparenchym
verkleinert
01.08.201
##ere
Körperstammes:
29.09.201
osteo
Abhängigkeit
2/3,
26.
rundlicher
abdominalen
12.12.201
fs,
14.12.201
Cellulae
No
##34
randständiger
bedingt.
Massae
22.
Scheitelpunkt
Resistenz
08.10.201
linksseitig,
26.09.201
18.10.201
11.11.201
##osteosynthese
Bipulmonale
29.08.201
(13:2
##44
##/a
Naht
Lakunäre
Femurkondylus
03.11.201
##llung
mittleres
16.08.201
echo
18.05.201
Venenkatheters
##2006
Zyto-/Histologie
##br
TTF
verdrehte
Miterfasst
Hernierung
0,76
Hypästhesie
Enhancement,
bilateral
darstellbaren
13.09.201
glandulärer
(13:0
##tze
Sz
KHK,
Osteoblasten
Randsinus
mehrfach
Impingement
TAVI
Intra
26.06.201
Schlaufenbildung
Anreicherungsherde
9x
weiteres
Fußwurzel
06/201
Unterarmfraktur
07.12.201
Ge
12,5
hemisphäriell
Untersuchung,
3x
##4.1
schmalen
8x
nennenswerten
Makro
subkortikal
AvD
(12:5
Vorderes
Transformation
26.11.201
rechtsbetonte
pelvinen
TIPSS
28,
Schilddrüsenparameter:
25.09.201
13mm
Voraufnahmen:
29.07.201
abge
Keilwirbel
CABG
perihiläre
Sulci
Abnahme
02.08.201
##ds
subtotale
massiver
Heterotope
Flussverhältnisse
(Voraufnahme
Atrophe
28.06.201
signalreduzierte
Wandverdickungen
Ganzkörperaufnahmen
Verzögerte
Imbibierungen
27.06.201
dopplersonographisch
##Y
subkutanes
lokaler
Fensterung
(Mischbild
residueller
Mai
Filiae?
vom:
Vorgehen
Resorption
22.10.201
##cho
Mu
##µg
maschinen-assistierte
01.12.201
##kel
Primäre
Cortexband
latus
22.11.201
retrokardial
##artig
Bereits
postentzündlich
pontin
0,63
umschrieben
Laterale
Paraaortal
27.11.201
nodulärer
G2
11.12.201
http://radiologie.charite.de/pflegeleitfaden
CCE,
##9.1
Mastodynie
Spondyloosteochondrose
(li
##sel
Mesenterialwurzel
Komplexe
##osa
ischämieverdächtiger
Normwert
Harnwege.
19.12.201
06.11.201
pleuraler
Wohl
23.09.201
##tur
Pfannen
Ohne
##,0
##s)
sklerosierte
Befundbesserung
13.11.201
PD-
Gefäße:
Übertritt
2005
(p
femoral
communicans
Körpergröße
Portimplantation
Metatarsale
##gebiet
inter
Drainagenanlage
##sh
##reaktion
gemischt
erbitten
Schlingen
##los
axial:
Daumen
##55
T2-hyperintense
28.08.201
Neoplasie
Fragestellung/rechtfertigende
##unktion
##entfernung
axillaris
Höhenminderungen
Belastungsherzfrequenz
Kopf/Hals:
schwere
ER
##.2
Dyspnoe.
aktivierte
Massa
blande
##ST
bekannten,
Seitenventrikel,
CCD-Winkel
325
führende
Kiefer
computertomographischen
dargestellte
Verkehrsunfall
Prozesse
Mediastinalverlagerung
berandete,
##fa
Einstrahlung
Ast
Un
##ub
klinischem
##metastase
linksbetonte
einige
Rezidiv,
Messgenauigkeit
Gesamt:
Abdecken
Osteotomie
Linksbetontes
Diffus
tibiales
Daraufhin
FSE
gastrica
0,77
27.09.201
##!
##ante
Infarktdemarkierung
##tellung
Progredientes
Oberflächenspule,
persistierende
Inklination
duodeni
caudati
Pariser
18.12.201
Implantate
##ystem
##durchmesser
08.12.201
Nachfolgend
Flow
Asymmetrische
##ender
##opathie
unge
Substrat
Koronar
03.12.201
Tumorresektion
07.10.201
##ob
Trans
MR-tomographische
gewölbte
Lymphknoten-
Ganzkörper-
##rd
Aneurysmata
7x
Sa
##tin
##go
3-222
##band
Ventrikeldrainage
Bek.
31.07.201
28.11.201
12/LWK
Myelographie
##tischen
rückläufig
darüberhinaus
##ildung
Unterlappen.
160
submaximaler
Template
Lungenteilresektion
TIA
KG
0,78
##ome
geringere
Geringfügige
thorakal,
##/M
viel
superior.
(b
sagittaler
blutungssuspekten
Konvexsonde
Deviation
gewichtsadaptierten
Spinalkanalstenose.
BDA
enhancender
CC
14mm
streifigen
Volumina
0,62
##äste
linksseitiger
09.11.201
01.10.201
##trauma
##e:
atheromatöse
##-Resektion
Sekretion
2.01
offener
04.12.201
##zierte
Kalklast
ziehend
SPECT-Daten
(normal
(O
##implantation
Labor:
Abdomens,
26.07.201
4x
1,5-Tesla,
##muster
##ati
30.11.201
Co
2006
rezidivierenden
Wirbelkörperhöhenminderung,
Skleroseinsel
Entlastung
hinsichtlich
C5
01.11.201
Te
TOF-MRA
Sternotomie
04.11.201
Traumafolgen,
##ek
Sonographiegestützte
##lter
parakardial
Untere
Lokal
Wirksamkeit
myokardiale
Knochenmarks
Triam
##/L
Lungengerüst
kurzstreckig
Atem
LWK2/3
04.10.201
##fragment
hypodenses
inguinal,
Umstellungsosteotomie
Diffusionsgewichtete
Dorsaler
(nicht
##per
i.m..
Vergrößerter
Schwiele
PICC-Line-Implantation
ACC,
Gelenken
schmalem
entfaltet,
Handgelenks
##iertes
zeitgerechte
25.07.201
fleckig
Rechtsdominanter
Belastung:
größtenteils
Zwerchfellbuckel
##läre
letztlich
konsekutiven
##defekte
at
##Katheter
Harnblasenwand
Sofern
##/4
Schall
28.10.201
Beschwerdepersistenz
auszuschließen,
Ergusskomponente
##-E
Parenchymstruktur
##rp
zentrisch
07.11.201
Ödems
hypodens
Peritoneal
##zone
##größe
adjuvante
Sakroiliakalgelenke
Rettungsstelle
09.12.201
##onde
verbreiterter
(S1
mittlerer
2017
gynäkologische
Sonographie)
Bizepssehne
Verdickungen
erhöht,
25.10.201
##/min
##/I
##naht
ähnlich
enhancenden
Massiv
##form
U1
29.11.201
versorgt
liquide
Corona
09.10.201
globaler
(s.
Hodgkin
Abgangsbereich
##-7
Wirbelsäulenspule,
Haupt
antero
MR-Angiographie
heterogen-dichter
Weichteilvermehrung
TSH-
Ri
Lückengebiss
Shunts
präpektoral
Lymphadenektomie
sofern
##j
Diagnose,
artifiziellen
Unverändertes
radiologisch
##verlust
rechtsbetont
Ovarialkarzinom
Nasenseptumdeviation
##saum
externer
03.01.201
Doppelniere
3-5
rechtsseitig,
durchführbar
Hirnödem
cerebelläre
H-TEP
Tumorkonferenz
##knochen
Pi
Beweglichkeit
06.12.201
mässig
ulnaris
arthrotische
Hypointensitäten
http://radiologie.charite.de/pflegeleitfaden/leitfaden\upicc\upflege.pdf
nuchal
disseminierten
SI
Durchmesser)
##Therapie
##klerose
Formalinlösung
Abszedierung
6,2
malignomverdächtigen
Unterschenkelfraktur
fT4
##rterien
##cer
Single-Photon-Emissionscomputertomographie
Ischämien
Hyperdensitäten
Flüssigkeitseinlagerung
##gie
Leistenkanal
##uma
parietale
durchmessender
##-R
05.12.201
kräftigem
Dignität
Thrombektomie
apical,
Plattenatelektase
intrarenaler
Brustzentrum
23,
##-Ver
0,70
genannten
Lappengröße
Deformierung
##lumen
weitgehende
in-
Ileus.
##zi
RFA
Ganzkörperszintigraphie
Tentorium
B-
##sta
##vene
##opf
##mit
Felsenbeine
präsakral
LK-Besatz
Aplasie
350,
##7.201
##-Fx
subclavia;
Gadovist)
##ogene
sonstige
##/Becken
Dorsobasale
50,
##29
CR
##5mm
konsekutivem
##mor
##sti
gefüllter
Fingergelenke
Cholezystolithiasis,
##39
##bauch
Lokalisationssequenzen
(MR
Wunsch
Vorbehalt
Hyperplasie),
38,
ml),
Fabella
Erste
Mund
Flüssigkeitsformation
plötzlich
and
OP-Gebiet
Bulla
-0,
Rotations
konsekutive
Riss
MD
LK:
Hautdesinfektion
Narbengewebe
##ik
Schilddrüsenhormone
##kopf
##erguss
mittelständiges
durchgeführten
##ise
thromboseverdächtiger,
29.
20,
5-
##T-
##38
Mess
Flussumkehr
(9.30-17.00)
postischämische
deformans,
Verdickte
Beinvenen
##ellen
I-II
dringend
Marklagerveränderungen
Wa
Vorgespräch
VSM
Materialbruch.
##halten
Kautelen
Eingestauchte
Asthma
##-Be
Wirbelkörperfrakturen
Studie
(15:3
##spitze
Projektion,
##rä
endgültigen
betroffenen
Anisomastie
erfolgten
08.11.201
koronaren
Sehnen
Drittel,
Ruhe-Myokard-SPECT-CT
02.11.201
Lungenparenchym,
Man
##02
palmar
dichter
ADC-Map,
##its
##ven
Wachstum
##umor
beteiligten
##-Sequenzen
Weichteilhämatom
Luftnot
Unterfelder
##/s
SSW,
6,7
Leberparenchyms
gesteigerten
Lumbal
##rkrankung
Übergang,
Baastrup-Phänomen
##äsion
##eck
höhengeminderten
Transversale
##36
0,035"
naviculare
*,
##ons
Lebervene
02.12.201
Weiteres
Schulter-TEP
Kontrast
grenzwertige
##sto
postprandial
akzentuiertem
Lordosierung
prominentes
24,
umgebendem
jederzeit
Mögliche
Myelopathie.
euthyreoter
##2-
##hy
perifokale
ml/s
Anastomoseninsuffizienz
Volumen:
##ni
Hilfe
##bedingte
umgebend
MA
Ä
Perfusionsdefizit
kariösen
2cm
##os
AS
vierte
Spektren
parietookzipital
Vorbestehend
T2-BLADE
5,9
aufgetretene,
1:
Carotisbifurkation
Bruchsack
spricht
Starkgradige
leichten
tri
Lungenfibrose
Externes
Schema
SPECT/low-dose-CT
##nsch
##ina
reaktionsloser
Op
Selektive
(L1)
##feld
Ventrikelweite
(2.0-4.40)
##bare
unauffälligen
Technetium-99m-MIBI
Orbitawand
ML-Verlagerung
verlagert
EDV
oblongata
calcarea
Vortag.
Tbc
##52
##suspekte
Organkonfiguration
hypervaskularisierte
hypertrophe
Magenhochzug
0,79
(U
##zu
##chmerzen
(14:0
okkulten
cm).
Messlokalisationen
Epi
schlank.
strukturelle
US-BI-RADS:
PM
##ppe
IM1
##tor
Mehrzeilen
05.10.201
##-H
erschwerte
Osteo
Stein
Anfall
(15:0
mitangeschnittenen
##ße
##narbe
Si
diskretes
Clipping
##iert,
parietalen
6,3
flauen
enger
(1,5
Al
Aktivitätsmaximum
frischer,
##zer
##xa
frischere
Begleit
##/5
128
gutem
PIP-
mäßiges
##ostomie
Infusio
infratentorielles
##ak
##Sch
##5x
Astrozytom
ZNS
HB
Abfall
##gl
##fach
Rezidiv?
##rat
Organsysteme
##ono
##lin
mediastinale,
Dichteanhebung
hinweisend
Spinalkanalstenose,
##-1
seitdem
ACR-Dichteindex:3
L-
##oe
interstitieller
Zeitgerechte
##/l
##/T
##pro
verdächtig
ergänzend
atroph
D-Dimere
##rs
anschließende
;
sonstigen
sein
abgelehnt,
Wächterlymphknoten:
Vorderwand
Verfügung.
6,4
TIPS
projektionsbedingt
Erosive
thalamisch
Spule
Pulmonalarterie
5-7
parakolischen
##-Ma
fT3
visuell
adäquate
Kon
Parenchymbreite,
##freie
di
Strukturen,
Punktions
Älterer
##osi
Densitometrie
Aktivitäts
Hauptbahnen:
pT3
Halsweichteile:
Übersendung
Wirbelkörperfraktur
Segmentarterien
OL,
hypo
Tg
Nuklidmehranreicherung
Zisterne
##assoziierte
he
Aquisition
##ark
Effekt
winzige
Kochsalzlösung
interaortokaval
Lamina
Autoimmunthyreoiditis
(19
##ys
Stress-Myokard-SPECT-CT
restlichen
nuclei
Innenohr
TAVI.
paravertebralen
Haus
ZVK-
langstreckiger
erneutes
großer,
##nst
meningeales
Filia
CMRT
114
##höhe
klagt
Kreatinin
##iti
intraspinale
VB
Nierenbeckenkelchsystems
Lunar
DPX
(One
zerebraler
sämtlicher
##43
Fahrradsturz
4a
26,
##ess
Verdrängung
##-B
MP
(Pa
oberer
Orthotopes
sekundären
LAE,
Chiasma
##ib
Folge
##en-
Knochenaspekt
##barkeit
28.
Leistungszuordnung)
Campus
hohe
Abszessformation
##pi
Knochenfragment
frühem
2;
Spalt
Kongruente
##er-
was
HWK5
(fT4):
Infarktdemarkierung.
Einbeziehung
##bau
offen.
TX-Leber:
##rer
anlagebedingt
Grenzwertige
su
dilatierter
320
##US
Perfusionsdefizite
Beckenarterien
basal:
##infarkt
Wund
Parenchymblutung
(fT3):
##läsionen
Randanbauten
##47
werten
Mehr
##.8
Femurkondyle
(07:
##41
Körpergewicht
##g,
(SP
##se,
Seitensymmetrische
##ton
##lk
mi
raumforderndes
ordnungsgemäßer
fluid
Lockerung.
Kalkplaques
Tumormanifestationen
##zell
Oberbauch:
echofreies
Hypophysen
Aufhellungssäume
##lutung
Birads-Kategorie:2;
(04:
Verknöcherung
Prostata,
caudal,
##18.
##mp
##komponente
facialis
(CT)
Kollateralisierung
##rtige
Ödeme
Normales
problemlos
Bandscheibenfächer
##inf
Endphalanx
Ne
Lunge:
0,61
situ,
##ki
prominent
##tum
paraaortaler
dystelektatische
also
Beinarterien
(G
assoziierte
Ro
##S,
sonomorphologisch
infrarenal
Unter-
Magenwand
Bick
größenprogredienten
Be
(power
##ans
aufliegend
Rektumresektion
Ho
FF?
Drahtcerclagen
##-p
FATSAT
Pulmonalvenöse
Splitbolus
CCC
25,
Signalinhomogenitäten
NW
##42
Mal
protrahierte
Anhebung
rechtspektoral
hyperintenser
St.
spurium
Mitabgebildet
be
AII
##sus
multiple,
Mittelhand
Unterlappensegment
Auflagerungen
ml/min/1,73
Mastopathie
##gelenke
paraaortalen,
getunnelten
Hypervaskularisation
Aphasie
##ara
Subchondrale
Myelom
Atherosklerotische
Anbauten,
planar
%)
Steine
Nebenbahnen:
(17:0
Geringgradiger
Familie
Thalami,
13,
horizontale
Abgrenzung
unregelmäßige
injection)
distendierte
disease
Gewicht
Fi
anschließender
Kortexband
Korrigierte
wandverdickte
Dekompensationszeichen,
4,0
interaortocaval,
cerebelli
(IM
fistulösen
Linksbetonte
Mitabgebildetes
##ignal
deutliches
Lokalrezidiv.
##parameter
##ieren
##fer
fachkundige
##Gelenk
##gefüllte
thoraco-lumbaler
subakute
Fraglicher
##formation
Abrissfraktur
##stomie
posterior,
Inhomogenes
TPO
Mehrfragmentfraktur
Kleine,
großes,
Pneumonisches
##-P
Kar
Ba
unverändert.
Multi
Frakturfragmente
CE-Winkel
##nc
##ektion
##xo
knotiger
Entzündungs
Bestrahlung
blutig
Besprechung
perirenalen
bandförmige
Dem
##enk
Kor
Colonrahmen
wegweisenden
##tis,
##syndrom
Desinfektion
##eit
lunatum
imponierend,
Grundplatten
Cervix
Protrusio
unvollständig
ovalärer
diskretem
Unklares
März
Faux
nass
A1
Relativer
Konturunterbrechung
Kurzachse
F.
Milzhilus
Abszesse
gestrigen
beidseitige
Synkope
LL
hypointensen
Hormon
vorliegend:
typisch,
Fa
Fahrrad
CT-Fremdbilder
Spätaufnahme
absolute
Vermehrter
Binnen
##fläche
Resektionsfläche
we
zirkulär
plus
osteosynthetisch
Infekt,
Mastoidzellen,
Restaging
thrombotischen
pT2
Mi
Gesicht
Milde
MAG3-Clearance
##ata
##-Di
anschließenden
KM-aufnehmende
527
Hochrisikosituation
Einsehbare
zweifacher
planare
Längsbandes
Ex
(0,
##Untersuchung
Hüftköpfe
Druckmessung
##ßen
dadurch
6/
verbliebene
ha
Ventilation
Flankenschmerzen
Offene
ob
Unterbrechung
Chemoembolisation
##S-
dorsolateralen
Fibroadenome
116
(I
Bein:
operative
flava
diesbezüglich
Neuaufgetretene
M2
Aderhautmelanom
##59
##.4
##Winkel
Hyperlordose
Dünndarm.
Gallenblasen
##g.
Konglomerat
subkapsuläre
Pu
##pie
Stellung.
##fo
RIs
Bilddaten
##basis
##leich
##durch
Mündung
##eri
konstante,
Malignoms
##terial
##ppen
##geb
LV
##beteiligung
Vor-Operationen
Lungenunterlappen
Ventrikel.
##201
veränderten
Peroxidase
##betont
humeri
Diskretes
Pylorus
2:
anzahlvermehrte
NNH,
Lokalrezidivs.
stattgehabte
Lungenabschnitten,
Aa.
Hyperdense
Fehl
(exemplarisch
##yn
seitensymmetrisch
Subtotale
abgebildet.
Cages
##2.0
Mikrokatheter
Schädels;
Mamillenschatten
Dr
Filiae.
Beckenorgane.
##/D
subtotal
Ko
##wie
Schallauslöschungen
PET-
korrelierend
Pharynx
Inkremental-CT
##teri
Malformation
cavernosus
##halt
Verletzungen.
Loco
Insuffizienz,
unscharfer
Partikel
##De
septierte
Inguinal
Schicht
##ative
Zervikal
Unterkiefers
Coils
Fr
ap,
Mittelbauch,
Abdominalorgane.
Dura
Blutungen,
##bene
Subileus
maligner
Enthesiopathie
Adnexektomie
stattgehabten
Thorax/Herz
##56
erosiver
Chemotherapie,
##/8
eingebluteten
Einschmelzung
Singuläre
Inspirationstiefe
##oid
08/201
Darmwandverdickung
WK-
Abstrom.
##48
retrosternale
Deutliches
27,
##örung
Punctum
##einander
konstant.
##x,
Belegung
##-CA
µg/l
Signalabsenkung
Rektumkarzinom
und/oder
Wiederaufbau
Thoraxapertur
Pankreaskorpus
Intraabdominell
Befall
3-6
prominentem
PV
Beck
135
regredienten
jugular
##49
randständigem
dorsalem
Hr.
PKW
Hepato
##eb
sagittalis
Sondenspitze
Natives,
Blasenkatheter
30.
HCC-
##zeichen,
Schwellung,
Krea
Bloodpool
(17:3
plantarer
Post-KM
Dünndarmschlinge
##ali
vermehrtem
Mehrzeilen-CT
Thoraxabschnitten
Hemisphäre
Flanke
##örmige
Material:
Größenkonstantes
inhomogenen
2009:
Blutdruck
(18:0
Interhemisphärenspalt,
ethmoidalis
Kortikalisunterbrechung
##-0
Anfertigen
##ersatz
niedrig
do
angrenzendem
2003
periostale
tumor
Progredient
Polyurethan
Naso-
KMT
3-990
##platten
Thoraxskelett
Ballon
hepato
posttraumatische
Brustwand
##fs
sternocleidomastoideus
VSC
##äh
##iss
Trachealtubus,
Dickdarmschlingen
Ampulläres
Volumen-CT
Handskelett
Bohrlochresiduen
kg,
Resektions
(18:1
##t)
##04
li)
Beckenschaufel
Hämo
##agen
21.12.201
##-In
##ly
##luxation
Progress?
CCM
U2
Tra
##en:
(17:4
auszuschließen
4b
Nasopharynx
117
UL-
seitengetrennten
min).
Tibiakopffraktur
##val
Nasenbeinfraktur
Architektur
Schilddrüsensonogramm:
##Implantation
##chs
intrakranielles
betontem
Trotz
##ld
##chmerz
Hochstand
Befundänderung.
##tent
ACVB
(Ima
Knochenzyste
Hub
Bronchial
subdurale
(ge
Zentrilobuläres
So
aktueller
6,6
LJ
Restaktivität
parailiacal,
Becken/Bein
##eten
U.
##ini
Mittelohr
parajugulär
mechanischen
caroticus
beidseitig
osteoblastische
Beckenringfraktur
##herde
PICA
bekannte,
Ausge
poly
##m.
sa
level
LWK5/SWK
Aortenbifurkation
Drahtzerklagen
##mi
progredientem
##tter
10x
##-Winkel
##hernie
dorsalis
ausgedehntes
Beidseitige
##tein
Ger
Epiphysenfugen
09/201
pulmonal,
##störung,
wandständige
##verlagerung
Re.
Hochfeld
(e
Lungenmetastasen
##cc
Maxilla
BSP
CISS
##gabel
##typischen
subclaviae
erste
Bohrloch
Radiojodtest
entfernt,
Flüsse
typisches
Weichteildefekt
1.0
##verdickung
Meningen
Spiegel,
Anti
VFS
3D-TOF
(05:
##dorsal
Ethmoidalzellen,
Mittellappens
Lokalisationsscans
##6mm
normal,
CT-Ganzköper
##ok
Linksventrikulär
Befund/Beurteilung
Epicondylus
##phal
perihepatischer
aneurysmatische
SCHILDDRÜSENSONOGRAPHIE
Telefonnummer
118
##otische
Bogengänge
Ventil
Fibrotische
Coil
Ossär:
Irenat
##unter
##dial
radial
##sierte
Übersichtsradiographien
entfalteten
Zwischen
SHT
3-203
postspezifische
Spitzenprojektion
TVT?
Handwurzel
(o
signalabgesenkte
(be
mechanische
Hämatom?
##zunahme
##tan
fronto
Ausläufern
##les
##ile
Herzen
Bronchien
##messung
ergometrischer
EPI
Luftband
Alignement.
##kalkung
##Sp
single-Lumen
klar
Gehstrecke
aufgetriebene
Auge
##tom
##nom
erhöhtes
Ganzkörper-FDG-PET-CT-Untersuchung
Bogenabgangsovale
abgekapselter
Verhalte
abgekapselte
ähnliche
lineare
Altersnorm
##orn
50ml
Höhen
Interventionsbereitschaft
(16:4
5,0
##Segment
Implants
Aortensklerose.
Lungenarterienembolie.
BP
123
Form/Lage
12/201
##vermehrung
Pankreatitis,
hypoechogene
länger
##ör
adultes
Neuroblastom
Erstellung
(Institut
##falls
breitbasiger
Zeichnungsvermehrung,
HTQ
Amputation
inneres
Aneurysmas,
Prominentes
Ödem.
gestaucht,
beispielsweise
Mastoide,
U3
Magenkurvatur
Degenerativ
64-Zeilen
Millimeter,
Kopfschmerz
Total
##gu
Immun
DIP-
zieht
nächste
erweitert.
Flair
ECMO
4-5
##/p
##/F
##als
Ösophagusresektion
traumatische
Computertomographisch
##atz
zartwandige
(06:
Dekompensation,
##72
uteri
präbulbär
(Polabstand
##ad
Reklination
##üsse
##törung
Lumbalpunktion
Bilddokumentation
NSCLC,
Aufnahmeposition
CBF
AMI
(Sch
Rechtsseitige
Parameter
la
hochwahrscheinlich
Iliakalgefäße
Hirndruckzeichen
6,8
##s/
verändert
extrem
ADC,
ACG
##itis,
Körper
Interlobium
##kalk
singuläre
Osteotomiespalt
linksbetontes
Metastasierung,
(17:1
##vo
Verlaufs
Tuberositas
rückläufiger
stenosierende
regelmäßige
intraorbitalen
Substanzdefekte
liegend,
Relative
Deck-
Teile
Passagestörung
##ili
Nagel
Fremdaufnahmen
ME
fettige
##Tx
##-D
ethmoidales
narbiger
mind.
10/1
##sal
##pan
##tive
Verdichtung,
Knochendichtewerte
Beschwerden,
##n:
kommende
Syndrom,
Spiegelbildung,
Jahren,
Aortenklappe
stereotaktischen
hyperperfundierte
gewichtete
WS-
Liegen,
##/7
außerhalb
Tu
Bronchiektasien
progrediente,
NI
Miterfasstes
##uck
gewichteten
erbitte
(17:2
08
##cu
mammographischen
SH-Schwellung
disloziert
Skoliose,
0,01
(17:5
6F
##-F
rundliche,
immer
abdominale
##pp
##kat
Zartwandige
##ul
##tig
##rh
Nerven
LTx
Hochdruck
Korrelat?
paraaortalen
entsprechendes
MCP-Gelenk
(*
hinreichend
Serum:
Kontinuierliche,
Knochen-
Beinachse
Lakune
##zysten
Prostatektomie
Angabe
farbkodierte
Nadel
Klein
(FT4):
versorgter
##last
(3,
eingenommen
Pharmakon:
Mastoids
Portanlage
134
Gallenwegsystems
Lateralisierung
Erscheinen
Verglichen
##46
präzentral
knöchernes
TH
PACE
schmerzhafte
perfundiert.
Sentinel
Initial
##halb
##ai
##achse
Weichteilverkalkung
##67
Mamma-
Luftgefüllte
Kariöse
tief,
Pleuraschwiele
Multislice
Foramina
paraaxiale
Flusskontrolle
##gment
Hause):
Aufhellungslinien
##bs
erforderlichen
Minderkontrastierungen
##tte
Narbenhernie
##53
seröse
##nger
ovale
Unterlappenteilatelektase
##Kontrolle
##kontur
##eus
RF.
(ml)
##-Aufnahme
##Syndrom
Tibiafraktur
Stent-
##tand
(FT3):
01/201
Rest-
##use
##kanal
(Durchmesser
##ct
Laboratoriumsmedizin
##länge
##do
kräftiges
angegebene
Uhr,
Rindenmarkdifferenzierung
Pathobiochemie
Weichteilmantel,
Schilddrüsen-Hypophysen-Hypothalamus-Achse:
ST
Innen
6,1
##ase
Prostatakarzinom-suspekter
(L2-L4)
(16:5
post-OP
Berandung
lokalisierte
##trophie
unerwünschte
Engen
(m
##nteil
KM-enhancende
Februar
##projektion
entleert
benachbarter
Äußere
Infarktareale
##2009,
##schmerz
##orische
##iale
##egment
Hüftgelenke,
reaktiver
intermittierende
ziehende
ausführliche
Spacer
Mamma-Präparateradiographie
Auslenkung
ischämische
Halbwertszeit
(2mm)
##ER
1,5T
##ry
konkrementenfrei
perisplenisch,
Normalgroßes
Karotis
filiforme
Harn
Ausräumung
tastbare
Sequenzen,
Einzelne,
Atelektase,
µg/d
offenen
##m-
Inhalt
07/201
##ant
##adi
Unterfeld.
##ute
##etzung
Wandverdickungen,
Scheitelwirbel
Einblutung.
2000
ta
dynamischen
Ileo
##RT
##eter
##breite
Fortsetzung
##ondyl
##art
minimalen
Druckgefühl
Dicke
##saufnahme
##nti
##noduläre
endokrine
##phänomen
positiv
02
OP-Klips
TCTU
(etwa
Sigmaresektion
Manubrium
erkennbar
brachiocephalicus,
Biliom
geführt
Hygrome
Konventionell-radiographisch
Maximale
Pankreasparenchym
##veränderung
vd
Thorax)
Pe
Gefäßs
Handwurzelknochen
##ink
Weichgewebe
verplumpt
##inter
kon
Psoriasisarthritis
##P,
bilobär
Lymphangiosis
Emphysematöse
Platten
Aussackung
Querschnitt
NVK
##kompression
berandeten
Mitabgebildeter
He
##x5
##ression
radikaler
Ober
Gebiss
##nat
vorbestehend
ischämischen
Therapie,
Sigmadivertikulitis
Pouch
##ble
Konstante,
##rg
posttraumatisch
gefangener
transtentorielle
(16:3
mediastinalen,
diensthabenden
Kardiomegalie
##ord
##male
Glioblastom
gezielte
klare
V0
zusätzlichen
intraabdominal
Subtraktion,
##erten
konsolidierter
##üllung
supraklavikulär
Befund.
Zusatzbefunde:
1x
Hand,
(18:2
ESK
##mm),
Postoperativer
##4mm
##7mm
auffällig
Knochens
dezenter
alters
Urin
Lumboischialgie
Einmündung
isp
##du
retrocardial
(am
##intense
Parodontitis
Knie-
(15:4
Normalisierung
##perfusion
füllt
Sämtliche
Stelle
ausgedehntem
Flüssigkeitseinlagerungen.
Durchmesser.
##truktur
##sweise
Wange
##Thorax
ZVKs
vergrößerte,
suprakarinal
steht
April
Abschwächungskorrektur
##bin
Min
Entzündungszeichen,
##lon
-bruch
##bt
retrocruralen,
Tumorkontrolle
Befundprogredienz
BWK10
2002
##M-
##m)
größenkonstantes
Verkalkter
SPECT/CT
gewonnen,
Traumafolge.
Ch
(18:3
Tx-Niere
T2-HASTE,
Mittelgesicht:
Hypertonie,
##.3
vorbestehenden
Sigmas
Ausdünnung
Darmschlinge
low-dose,
Verkalkungsstruktur
LWK1,
Kurz
##57
##e/
2004
##k-
PAVK
Hiatushernie
fortgeführt
VMS
##r)
Tumor,
abgrenzen
##basal
pneumatisierte
komplizierte
##öser
##äu
##que
##nlage
##kon
regredient.
inf
U4
Po
Dotarem)
spontane
komprimiert
subhepatisch
Hirnvolumenminderung.
DJ-Schiene
seiner
Neurokranium,
Akzentuierung
##-e
##otomie
fortgeschrittener
##ü
femorale
##int
fett
Primovist)
vitaler
Nase
##kapsel
Chronisch
##SS
lokales
##rale
T1W
Medialisierung
Hydrocephalus,
korrespondierend
digitaler
Restriktion
-1
##plasie
##atose
verbracht
##IS
##ges
##signal
##schwellung
Vertebralis
Gicht
echogene
CO
Knotige
dilatiert
Femurhals
Abszesses
##us-
##logisch
Nuklidspeicherung
240
0,81
Zuweiser:
##wä
vorher
Material,
Hals/Thorax/Abdomen
Werte
RV
Aufhärtungsartefakte
##tzen
##bogige
##äres
temporale
Abdomen-
AICD
(20:0
##blut
langer
Hämangiome
Endlosdrainage
Beatmung
Anpralltrauma
farbdopplersonographisch
scaphoideum
##mittel
indirekte
Trachea,
Kopf/Thorax
w
distales
Neurokraniums,
##cor
Saumbreite,
##ktur
subkortikale
pleuralen
Peritoneum
MIP
Bas
Anal
##ständig
horizontalen
Wirbelkörperhöhenminderungen
Voralarm
US-BI-RADS-Kategorie:
Lebermetastasen,
##erf
##ösophageale
hämodynamische
auslaufend
dissection
BZ:
##/B
Tibiakopf
Septen
SA
Liquorzirkulationsstörung,
Inhomogen
lytische
(daher
Appendektomie
##ül
##darm
Duplikate
Dia
##91
##lus
incrementales
##quenz
Sehne
Pankreascorpus
V1
Frischer
##sonde
anteriorer
Rechtsherzbelastung
11x
##eta
Fragments
intracraniell
dose
(c
##endes
Pfanne
16mm
normalem
Weichteilgewebe
Trümmerfraktur
##oc
##biopsie
Ganz
09
##/d
Nierenbeckens
##ür
Ohr
epidurale
Flussprofils,
4F-Schleuse,
##F-
lo
##oden
Präparateradiographie
perikardialer
gravierende
Tumoranteile
Ce
Belüftungsstörungen,
37,
##sonographie
frischen,
Weichgewebsvermehrung
T1-Wichtung
errechneten
LK-Metastase
August
##sbe
##ist
subcutanen
Fehllage
OL-Resektion
Leukencephalopathie
Leberfiliae
##-Gabe
##grund
##dense
Hi
##eich
MRT-Kontrolle
Lungen-
Voraufnahme,
Verkalkungsfigur
Sheldon
4F
(s
##rothese
##ow
##kin
geringfügige
C4
echovermehrtes
Halsweichteile,
neuro
Olecranon
Farbdoppler
Diskus
strangförmige
HSL
Altersgerechte
##TA
leberarterielle
Konnektion
##sp
Lymphom,
Jeweils
Arteriae
(19:4
##bein
Verstärkte
BSV
##tale
Verhärtung
Mehranreicherungen
Cobb
multisegmentaler
gemischte
foraminale
Gerät
reichende
EOS
##uer
vergleich
Kieferhöhle
##met
falciforme
PD,
M0
Auffällig
##-C
##bestimmung
Ange
6)
##punkt
Plazieren
außerdem
Lungenrundherd
Hygromsaum
(16:1
(60
##tä
Lungengerüstveränderungen,
Gelenksspaltverschmälerung
##neu
negativ
Schallverstärkung
Bezüglich
ADC-Map
konturbildender
kompletter
Supinationstrauma
Pleuraempyem
minder
Schultergürtel,
C,
(0.9-1.9)
##/U
subcutane
Kompartiment
Intima-Media-Dicke
Z.A.
Reiz
parakolisch
##sd
Unterschenkelarterien
Klavikulafraktur
Cerumen
vermindert
Möglichkeit
Diamox
04
maligne;
entzündliches
##mie
##V-
##erende
subdurales
Verdichtungsstruktur
pN1
##typ
##ommen
##lagerung
##erkrankung
mikrobiologische
HCC,
schwache
Zunge
parietal.
Pedikelschraube
##-ge
zentrilobuläres
Exostose
(2.6-5.1)
##V.
Hauptstämme
Cast
wirkt
oberflächlichen
erscheinende
Stern,
Mar
##ebene
spinosi
rascher
Wirbelkörperersatz
Zystennieren
0,82
sämtlichen
Anteilen,
Normwerte
perifokaler
Confluens
174
##inal
##eo
Dixon
ga
Verhalt?
Oberbauchorgane.
gemessene
erheblich
Glenohumeralgelenk
rechtem
beidseitiger
Pleuraschwielen
P1
Linksseitige
Indikationsprüfung
##äm
##rge
perilienal
Längsdurchmesser
Lungenflügel
DIP-Gelenk
##ittel
Localizer
121
##versuch
ne
Vermutlich
U5
OSG:
##lie
multiplen,
Zufallsbefund
Hypoplasie
Eingriffs
Zirrhose
Stress-Myokard-SPECT
Leberparenchym,
DJ-Katheter
##eite
(18:4
Schädelkalotte,
Osteodestruktionen
3cm
36,
(bspw.
Kalotten
CUP
(d
##nekrose
##ino
vergrössert,
0.6
##depot
Risiken,
Nanokolloids
Kaliberunregelmäßigkeiten
Drüsen
122
##typisch
medullaris
cerebellär,
Subkutane
Leukos
End
##weg
##gefühl
sich:
Spiegeln
sch
Und
##dia
erkennbar,
Avulsionsfraktur
brustwandnah
Ulcus
Spiralfraktur
Deckung
stoffwechselaktive
##/CT
Hemithyreoidektomie
PLIF
Mittellappen,
Lebensjahr
Mutmaßlich
Splenomegalie.
Globus
Condylus
##thrombose
##ständige
II)
Dystelektasen.
NTx,
##blase
territorialer
medianen
Bronchopneumonie
lakunären
pleural
anterior,
Wand,
Pyelonephritis
##og
##lose
To
Thromben
##seitige
kavernösen
Schilddrüsenszintigraphie:
OPS:3-200;
Einleitung
Altersmaß
radiata
La
(16:0
umliegenden
TRAK
Juli
intraperitonealer
hyperintense,
Schilddrüsenloge
caudale
Zi
Größenprogredienter
##ins
reizlos
Mehrbelegung
5)
##Be
signal
kranio
bihiläre
Demenz
Bisher
12/1
##kg
##isierte
##atelektase
gelenkbezogene
##ie,
##3mm
##zellen
thrombotische
axillaris,
Intervertebralraum
##%)
Großzehengrundgelenk
NTX-
Serien
Hiläre
Bandscheibenfaches
Retinakula
Anzahlvermehrte
##z,
##kelett
randsklerosierte
##ies
##Ga
mehrfachen
Mittelphalanx
##chnitt
ar
2018
03/201
a.e
UF,
99mTc-markierten
##51
sk
Aortendissektion
metalldichte
Laborwerte
##ui
randständige
Sitzen
Polabstabd
Glenoids
(K
##rsch
Listhese
invasive
5/6,
##lar
vergrößertem
mäßiggradiger
vera
(Saumbreite
##54
##mmer
##ipp
Harnblasenkatheter
Größere
##sbedingt
intramammärer
choledochus
restriktiven
Unterbauchschmerzen
Polypoide
(ca
TOF-Angiographie
Hilusregion
SL-
Beines
Wirbelkörpern
Lakunärer
##²
November
BLADE
(inkl.
##gesch
mehrsegmentale
##herapie
Eingebrachte
Weder
Lungena
BWS/LWS:
verändertes
Lungenveränderungen
(z.
verplumpt,
Becken/
##avi
zunehmendes
Muko
histologischen
##ventral
pN0
mittelständig.
extra-
Spondylose
Pa
##olumen
sekundärer
inferior,
Blockwirbelbildung
Deg.
du
Hochgradig
pneumatisiert.
VIII.
Koller-Pouch
##nten
koronal,
al
##MBq
zentro
##verschmälerung
##icher
blutige
Ku
(f
(19:3
0,80
Stoffwechsellage,
Schluckakt
EKG-
Aktivierte
Ventro
Monroi
Arthralgien
(16:2
Fissur
13,5
##en)
Infarkt?
T1-hyperintensen
Laparotomie
##ln
sollten
geringe,
Schenkelhalses
Rectum
Fre
sterni
hämorrhagische
Schulterspezialaufnahme
Beckenkamm
##Sonographie
##lation
retrospektiv
Ersatz
Mediateilinfarkt
Korrespondierend
##kus
##atöse
glenoidale
erschienen
##Ma
Tibiaschaft
SVT
Radiojodspeichertest
##res
grosse
Ph
Gehörknöchelchenkette
##tischer
Trochlea
Sequenzielle
Meso
Gelenkspaltes
9/10
##arm
verlagerte
Subcutis
##tr
Hydrierung
cerebraler
Reaktive
Abszeß
##igung
rechtskonvexer
Metastase,
Herzvergrößerung
suboptimaler
L0
##ust
Ber
Arcus
##kulär
demarkiert
Lymphommanifestationen
5/SWK1
##eu
gleichzeitig
Rippenbogen
Diagnose/Fragestellung:
kontrastmittelaufnehmenden
##ml,
Chondropathie
##sig
ZWR
occipitale
Gastro
##palt
Schulterluxation
therapieassoziierte
Verschlusses
versus
mu
malignomtypischer
korrespondierender
##umbau
##uli
flüssigkeitsgefüllt,
Einzel
Vorbefunde
Textur
parietotemporal
konsolidierende
outlet
befundbezogen
Tumorsubstrat
##.2011
versorgten
erhebliche
12-
re)
Subacromialraum
Aufzweigung
radialseitig
Visuell
(l
##uti
3.1
seröser
U/ml
Tendinosis
Stenose.
(03:
höflich
abgrenzbare,
Weber
Sonstige;
RE
Gastrointestinaltrakt
##physe
größenregredienter
LUAE
(Cobb-Winkel
##-Katheters
##rre
##egel
Quer
##Im
##wi
isolierte
##kale
##iel
Retrospektive
0,89
##zt
BS
##schenkel
gewertet
Obere
2010:
betonte,
##chte
dünnschichtigen
Schaftfraktur
HWK3
##perforation
##nitt
##i,
radiodense
mikrobiologischen
apiko
Radioembolisation
Dichteminderung
the
Ste
Querfraktur
abschließend
Test
126
medial,
Stenosen.
173
(anamnestisch
##3-
inlet
##stische
paravertebrale
LAE?
osteoporotische
multifokale
Ossärer
venöse,
Wirkungen
Nasennebenhöhlen,
Knochenmark
##/Sch
Portkatheter
Nierenparameter
##Gy
herdförmige
131
(zuletzt
Befundverschlechterung
##haltige
sonografische
Parkinson
Lumeneinengung
Irreguläre
842
VSL
Abdominal
##operation
##hte
KM-gestützte,
(von
Alignment.
pi
iliacae
gesch
Vaskulitis
älteres
zahlreiche
Patient,
Hautfalte
1%
flash
Anbetracht
Tc-99m-
Pneumektomie
Nierentransplantation
Gelenkspalt,
02/201
Thorax-
Gefäßdarstellung
verschlossen
mittelgradig
Kalzinose
##EN
##gefäß
rostral
Tubuslage
Klassifikation:
BAA
##LA
Angulus
##ple
CT)
##oli
Ruhe-Myokard-SPECT
MPR,
##IR
##schmerzen
##q
##nch
##im
##alt
verschmälert,
bipulmonal,
Bauchorgane
0,60
##8mm
##-V
Spinalkanalstenosen
124
##förmiger
weicher
manifeste
Radiologie
keilförmige
kaudale
dargestellt,
Bursitis
##kuläre
dichte
Block
Befunddiskussion
nennenswerte
Schmorl'sche
Resektionsdefekt
##-I
Betracht
119
##edi
TK,
##-Ab
##zystische
ra
intern
erhaltenes
Marklagerhypodensitäten
Konturunregelmäßigkeit
Jahres
BWS-
##hren
submandibulär,
periprothetischer
[123I]FP-CIT-Aufnahme
Lymphknotenmetastasen.
vermindert,
Periphere
PIP-Gelenk
Intervall
4/5.
##lb
##eitig
##aren
einliegendes
Embryonaler
I)
##logische
Wandung
Befundverschlechterung:
cervicale
PR
##fäß
lehnt
Seitdem
RI-Werte
Knochenfragmente
##ielle
normalen
Milchglas
rund
nachweisbaren
Skapula
##tat
##logie
Milzpol
(80ml
##echo
suspektes
mikroangiopathischen
##/O
##lität
perirenal
TE
Polyp
(v
Thrombosierung
Längsbandverkalkung
Kreislauf
T2-w
Aneurysmasack
##CC
##lia
Wirbelsäulen
ARDS,
##-o
##tige
2001
RIVA
Ebenen;
Du
17mm
##SI
Trepanationsdefekt
Pigtail
Perfusionsstörung
##por
##agerung
(19:5
Hirnvenenthrombose
##sit
(je
##ssi
eng
##fekt
Urothelkarzinom
OSG,
##kte
Pulmonaler
Lungenoberlappen
Bolus
Prozesses,
##fett
Antibiose
##nf
nekrotische
CP
##-Kontrolle
Sonomorphologisch
Distal
Schleimhautfaltenrelief
##ran
Evaluierung
tumoröse
bipulmonalen
Speicherflächen
(Be
moderater
domo
Vergrößerungsaufnahme
(09:0
laborchemisch
Infarktes
Vier
Femorotibial-
Facettengelenks
BI-RADS-Kategorie:2
##yste
##gio
intrapulmonal
Fall
Bronchus
##7x
Schiene
Daumensattelgelenk
##zele
##Infiltrat
##pulmonale
##ichte
Bauchaortenaneurysma
##2.201
Carotiden
Abend
##/Ver
trachealen
flüssigkeits
aufgebrauchtem
Orbitabodenfraktur
##75
Brustkrebs
unsere
Bes
größenkonstanten
##-Gelenk
##frontal
aufgetrieben
Symptome
##SE
links),
gestaute
Postprandial
##equenz
befindliche
ausführlich
Kräftiger
Anästhesie
##meter
Schwangerschaft
Hydrozephalus
##-Drainage
##iden
kardialer
Unterlappenatelektase
(insbesondere
(19:0
Stationsarzt
Kleinhirns
##nan
Duodenums
Beins
178
##belegung
dignitätsunklare
Kalottenfraktur.
Cholezystektomie
Abflussaufnahme
1/
Teilen
Stichinzision
Geringe,
(jeweils
Handgelenkes
Aktivitätsausbreitung:
##ill
grobschollige
VP-Shunt,
##gr
a.e.
TA
##nha
##anreicherung
Nativ-CT
stereotaktische
geblähte
NPH
weiche
arteriosklerotischen
anteilig
Rückenmuskulatur
Liegend
Aryknorpel
##eg
sklerotische
Sonografie
Rö-Thorax
##iom
temporalen
residuelles
Resttumor
Remissionskontrolle
Crohn,
Beckengefäße
##4x
##amt
Verhalts
##ösen
Zeit-Aktivitäts-Kurven
##pel
##metastasen
Poly
Plastik
occipital,
Spiral
Abflachung
##ziert
OPS:3-
D-
ehemals
Darmgas
Nähe
Kardio
Mikro-
Leberzysten,
kraniozervikalen
intraartikuläre
Arterieller
11:
##qua
FT
mehrfragmentärer
RR
Einzelner
##iß
Herz.
Wachstums
TEP-
##-L
##'s
MCP-Gelenke
Entsprechende
Achsen
Art,
gedacht
ektatische
Supervision
SD-Knoten
197
(Sp
(18:5
##-l
Korpus
Konkremente,
Flüssigkeitsansammlungen
##lyse
randständigen
Gen
##teile
begleitendem
Gegenphase-Sequenz
##.2009
##hende
power
DIP-Gelenke
##spiegel
osteoplastischen
frontalis,
abgerundete
Nebennierenraumforderung
##gh
verdickt,
Bauchaorta
proximalis
chronisch)
Restpneu
Resektionsgebiet
Lockerungssäume
##89
zirkulärer
Befunddynamik
##lager
##atrophie
##able
Notfallindikation
Aortenklappenersatz
##/sub
postoperatives
OPTG
(15:5
##-SPECT
koronararterieller
umgehend
Sero
Platten-
Miterfasster
Köpfchens
Kaum
Hashimoto-Thyreoiditis
prinzipiell
cT
Fragmentes
6/1
gelegene,
Seitenventrikels,
##zephal
##pha
##kul
Koronararteriensklerose
6-
cm3
Rück
polypoide
intensivmedizinischen
##-Rezidiv
##oide
##nadel
uterina
Spi
Abdomensonographie
##vic
lipomatös
SAB,
Lymph
HIV
Gra
(LITT-Ambulanz),
##-a
##ette
stehend
schwerer
Vorhaben,
##6x
sin
Seropneu
R1
Nierensequenzszintigraphie
Fistelgang
Apoplex
(g
##bung
glenohumeralen
Schilddrüsenkarzinoms
##tl
##-k
##-Re
##erhöhung
##ec
mamillennah
Kompaktainsel
Endglied
mitabgebildet,
semi
LW
kompensatorisch
op
Mesencephalon
Kardia
(19:1
bedingt,
Je
##cin
mesencephal
aufs
akutem
Vorgehen,
Lebermetastasierung
Eintritt
11/1
##chw
nächsten
Hohe
Bronchopneumogramm
##n/
ventrikulären
frontaler
##1;
##schraube
HWK4
Feinnadelpunktion
Apikal
04/201
##ehen
teilverkalkte
Tabelle
##Sequenzen
##rest
messend)
konsolidierten
##ite
Myokards
acetabuli
ALL
7/
##-K
Resterguss
##ba
LK.
Funktionsanteil
20,7
##yl
OP-Clip
Arthritis,
133
##grenze
Fieber.
Alignment,
14,5
##reite
positiven
ac
##sst
stärkste
sichtbare
Pectus
Erneut
B-Bild
##era
II-III
sphenoidalis,
mellitus
Spondylophytenbildung
Füßen
##B-
pu
LK-Stationen
submental
PET-CT-Befund:
Nierenfunktionsszintigraphie
176
##.2012
Überblähung
arthrotischen
Verbliebene
##od
mitral
Schultergelenks
##sf
##llu
bilateralen
Kniegelenken
Dystelektase,
22.12.201
subkapitale
nodulär
ger
Ovarial
##ses
##ndi
##mma
Osteosyntheseplatte
##ung.
##tten
kalten
Nierena
maskiertes
Sofortmaßnahmen
Dünnschichtige
3-733.x;
##urz
##ala
##medial
##Pro
Ruhephase
subarachnoidale
Umgebungsreaktion
Ru
Ligamenta
12x
##ruch
subcortical
monophasisch
Netz
MKE
Faszie
##RI
##pho
##oca
Y-
Ventrikelsystem,
Dialyse
##rter
Divertikulitis
Sanierter
Aortale
(akut,
##schnitt
##eis
##ane
##merzen
Ganzkörper-PET
10)
##65
##-Sp
kalte
gastroduodenalis
Meningeosis
K.
HASTE,
Bolusförmige
(Mammographie
##Sequenz
projizieren
Arrosionen
##b,
evtl.
03
##oss
Kontrastmittel-
##ja
Versch
HWK7
thrombotischer
spezifische
pertrochantärer
S9
Obstruktion
Monokelhämatom
0,85
seitlicher
cervical,
Rundherdes
Tumorrest
Pleuritis
Niereninsuffizienz,
Bili
##po
##ier
cortical
Zehen
Herzachse
Einsch
frühen
Hirndrucks,
Akroosteolysen
(30
kardio
Röntgenbild
Li.
C1
N0
LVEF
Hüftkopfes
14:
0,84
abnehmende
PICC-Implantation
06
sup
ischiadicum
intensiv
Bezug
NPP
Flexur
##ph
papillärem
Diffusionsstörung
##In
radio
Herzens,
12:
##/b
VII/VIII
Syndesmose
SP
Pertrochantäre
(20:1
(100ml
carcinomatosa
Hilus,
0,83
##L,
##.2010
(V.
##85
leichtgradige
18mm
##zonen
##uell
##ild
ligamentäre
Gy,
Definition
##wer
Familienanamnese
Doppel
Cholezystitis,
Monat
Granulomen
Infiltrates
Sekundäre
Post-
OK
Herden
Ang
einfache
Schräg
polymorphen
ante
Sonografisch
OPMG:
Dichteindex:
anhaltende
Kiefergelenk
Herniation,
monophasischen
langem
VIE
Atelektasen
Auffälligkeiten,
7,8
lokalisiert
Prothesenschaft
dorsalseitig
deshalb
Vom
solitäre
Aussage
Adeno
pelviner
Knochenmetastasen
EPI,
Dekompensation.
Birads-Kategorie:
##oll
primärer
Zwerchfelle
##kum
Wohlbefinden
Enhancements
##man
radiodensen
gutes
Zystektomie
Epiglottis
Carbostesin
to
kontralateralen
epileptischer
My
einge
Retention
##-Ein
mediolateral
fokales
sonografisch
Verbringung
Vorbestehende
172
wachsende
postentzündlichen
or
Tante
(idem
##ep
destruierenden
ascendens,
anti
retrograder
o.
gesamt
Subtraktions-
Kopfspule
##tions
verkleinerte
regelhafter
messen
altes
7)
05/201
##-6
##rän
maxillares,
fibro
Abszess.
##-An
echofreien
aufgelockerte
(die
##58
Oktober
Gesamte
7,4
##bett
thorakales
T2w/FLAIR
Groß
##ösung
##ic
##atische
Kontrastmittelaussparung
##Ab
verstrichener
Hydronephrose
GFR
Drüse
3-70
hyperechogene
Tc-99m-DPD
Nebennierenadenom
schlankes
Schläge
konstantem
inguinal.
hypodense,
##unt
##ssch
pulposus
10/11
##Th
Akut
15:
Thyronajod
schmal,
papillären
Tunnelung
Noduläre
1.1
os
Liquoraufstau,
##mel
##fü
milde
Mucus
(19:2
##3D
##x6
##eil
zart,
relevantes
Zeilen-Spiral-CT
PACS
##jektion
##haut
gestaut,
MRT-VU
pelvine,
Fein
(40
##C-
##injektion
dennoch
Größte
##dung
Systems
PIC-Line)
60,
Maschinelle
HWK6/7
Fibro
##ahn
Tropfen
Fortführung
linkskonvexer
Inkrementale
Ganglion
differentialdiagnostisch
Winkelverkürzung
Tages-Protokoll:
Jahr,
##ato
##laterale
Juni
Infektion/Abszeß,
ERCP
##gra
prophylaktischer
pontifizierende
VKB
Tx-
Hin
##pla
Flussgeschwindigkeiten
Druckgradient
Ben
Archiv;
##ac
mo
Lymphadenitis
Supra
Scout
Koronar-
Blutungsquelle
(20:2
##uptur
Hirndruckerhöhung,
##G-
##abs
Koronale
##-Stenose
Zwischenwirbelraum
Restgewebe
Prostatahyperplasie
Papilla
Knoten,
Hyperplasie
Voll
Fokal
Ergusses
Dezember
##68
Kontusion
##osition
nachfolgend
Durchgehendes
##/9
min,
Körperhöhlen)
Intervertebral
Dünnschicht
##urchmesser
supraaortal
Vergleichende
steilgestellte
Segmentgrenze
KM-Enhancement,
Appendizitis,
Ventrikels,
Intubation,
##2005
##ml)
gewonnene
anzahlvermehrt
Verbandsmaterial
##nische
sulcale
Postop.
Infarkten
Flüssigkeitsverhalte
##Ä
Parenchymlippe
Nasenhaupthöhle
Luftnot,
Ac
zweimaliger
Präoperativ
##/h
##pfe
parasagittale
Den
Ante
##cke
Nuklid
Filiae,
##/Re
##ßt
rarefizierte
angedeutetem
Unterlappenresektion
##WS
##RF
Demineralisation
ausreichende
8/9
##kla
##ch-
Auss
Arthrose,
##stumpf
mitgegeben
bilateraler
ICD-
Kollateral
scharfe
Punktion/Therapie
##vas
FDG-avide
##köpfchen
##angiographie
kurzstreckiger
Empyem
##ero
erfolgt,
Zielläsion
Schulter,
Breites
##lz
VU)
Seitensymmetrisch
Positionierung
Knochenläsionen
##enen
LWS-
Hb-Kontrolle
##Bild
mg/dl
communes/internae
MS,
(antero
##lp
mittelständigem
Klinik?
Bildmaterials,
##kro
seitensymmetrische
deformierte
Mittig
Magenblase
Luxation,
##/min,
##ichtung
erfasst,
darstellen
Befundkonstanz.
Gelenk-
frühe
Wegen
Segmenten.
Ausdehnung,
Infiltrationen
Dauer
##gener
ansteigende
Stenose?
NN-
Befundprogress
##ulation
##rauma
##els
##bra
breitem
##oper
subakuten
hyperintensem
Wirbel
Pericarderguss
Dünndarmschlingen,
(5,
DIXON
Ring-
400)
Lot
##ystische
paranasalen
(CD)
semiquantitative
Zentraler
Kolo
Kniegelenk:
7,2
##KM
Gefäßstrecken
CF
##wa
kurze
erniedrigte
entnommen
Nephroblastom
Hause.
Nierenversagen
18.1
##ulmonale
suffizient
Sediment
Anfang
Listhesis
##bul
##AT
gelingt
Beschaffenheit
Ret
##ria
##hs
##dingt
korrespondierende
gestern,
Miterfasst:
Markraum
gescatterte
bestätigt
Venographie
Plasmozytom
7,3
erforderlich
aortale
Medikation:
Gewebes
femoro
Zusammenhang
Peritonitis
650
(Co
Schilddrüsenhormon
V/VI
Iliakal
Hinterkantenalignement
Deformität
##hö
##bus
Sinusrhythmus
9.1
Ve
Rö-
##al-
entleerte
##Co
##cale
terminale
länglich
Vergrößertes
ossäres
Orbito-Meteal-Linie
##Becken
akzessorische
Jahre:
8/
##post
##ball
Stärkste
Standarddosis
Pathologien
20mm
##Arterie
##tio
##temporal
Nabel
HP
0,59
unverändertes
mikronoduläre
Prä-OP.
(20:3
damals
PSU
##pat
diesbezüglichen
Restliche
##Me
Enukleation
(vormals
##Drainage
##/para
übersichtsradiographisch
Unscharf
Schilddrüse:
Klinisch,
Atemgeräusch
##haltung
mittelgradiger
Weichgewebs
Halbwertzeit
##lan
wegweisende
komplikationsloser,
##3x
##wei
höhengeminderter
dritte
Solitäre
Gewichtsverlust
Radiotherapie
%:
##lä
Liquorräumen
20G
(h
lokoregionäre
externae
ano
(Recovery)
L3/4
70%
(An
##Ba
Herzfrequenzanstieg
##g-
Sakral
aufnehmende
33,
regredientem
flüssige
Parenchymechogenität
Kollateralphänomen
Einengungen
BS-
posttherapeutische
beg
Tendenziell
Intaktes
##kopie
##erter
punktuelle
le
VI/VII
##um-
kollabierte
Zwerchfellkuppe
Trauma,
Kalkdichte
Becken-Bein
##gradig
konfluierend
größenprogredient,
DVA
07
##LD
##umen
echoarmer,
abgesetzt
##ain
Gelenkes
fl
Temporal
##ano
Zentralregion
35,
##sches
OL-
##oa
ml/kg
gesicherten
echoreduziert,
Knochendeckel
Fahrradergometrie
##lum
Einziehung
##ön
Wahlund
##sat
##eur
K-Draht
0.5
Mitral
Hinterkopf
Gefäßa
##xel
Cu
168
Ankylosierung
19.1
Parkinson-Syndrom
Nebennierenmetastase
Mehrverfettung
7,6
zusätzliches
##/R
unveränderten
##port
##order
##nu
min)
ischämischer
Knieschmerzen
Gelenkspalts
##hung
sign
Metacarpale
Crus
2,07
morphologisches
Verhalt,
Seitenventrikelhinterhorn
##su
##lastische
präoperativ
i.v.-
endo
##64
(CT-
##dose
Schwester
leider
##wurzel
Älter
sakral
Orbitaboden
kleiner,
Ra
Leiste:
##lem
mäßiggradig
mediane
Schädel:
KV
Leckage
I.e.
Einsehbarkeit
##suspekten
atypisches
VIII,
##situation
Sin
KM-Applikationen
##Ka
##set
kompensierte
Zökum
Lungenlappen
177
##ick
Pankreaslinksresektion
Echoarme
Atenolol
unten-außen
##zeichen.
##ylo
##ron
##omen
Vigilanzminderung
##mme
##fluss
versch
myokardiales
restliche
irregulärer
inferolateral
echoarme,
Rippen,
Ovars
Temporallappen
Kurzfristige
34,
##dom
extraaxiale
Blutdruckanstieg
0,58
##grafie
Wandverdickung,
Stanz
COPD.
##Verschluss
##nre
##leber
malignes
##urch
##haft
vorderer
##ou
Belastungs
##idal
inspektorisch
bzw
anterolateral
unkomplizierten
größenprogredientes
##ttel
samt
intraabdominale
##2),
umgeschlagen
VI.
Diaphragma
##mt
sigmoideus
Taubheit
KM-anreichernde
##onen
thoracolumbalen
Kleinhirnhemisphäre
##nar
##ckel
hochdruckkompartibel
Lufteinschlüsse.
Fast
lymphonodale
extrakraniell,
Tumor?
##lig
subcorticalen
heterogen-dichtes
fettreiche
10,4
(25
Schambeinastes
##idu
Ubiquitäre
PowerPort
Fettläppchen
##T1
verbliebener
diskoligamentäre
Schwarte
Messung
7,7
##y-
##vis
##tation
Sakrum
##-h
sta
speziellen
infrarenales
(Ma
##efund
situ.
intermittierend
Beckenorgane
##ore
##phy
TOF,
Kontroll
##1.201
zeitgleich
Vor-
##sonographisch
##peicherung
Triggerung
Pankreasschwanzes
##ationen
liquiden
##lte
Tc-99m-MIBI-Injektion
Lungenödem
##sehne
striatokapsulär
fleckförmiger
Oberbauchschmerzen
IM2
gluteus
Leberhilus,
##ras
##ee
Brust-
##verteilung
trabekuläre
Projektion.
Knochenödem
Ggf
HWK4/5
osteodiskoligamentäre
Xylonest
Taubheitsgefühl
Kontusionsblutung
röntgendichtes
hypertropher
At
cortikale
Anschnitt
gelegener
as
Ov
lage
VBC
Retropatellar
##-c
##oph
thoracalis
NHL
LC
6.1
Dickdarms
Umstellung
Psoas
7.1
Raffung
ACR-Dichteindex:2
Stereotaktische
##73
##ket
##erfusion
zartwandig,
Vasospasmen
Sk
Konkrements
persistierender
Kardiomegalie,
Hand:
##ole
##anteilen
Vers
AC-Gelenksarthrose
/-wege
##xt
##the
zeigten
mesenteriale,
Gleason
Ausgeprägte,
127
##manifestation
Mundbodens
ISG-Arthrose
##gehend
osteopenem
fixiert
Bl
(10,
##sie
praktisch
Varusfehlstellung
Relevanz
Epiphyse
(Xylonest
##.7
##Di
##-De
##ezi
intraperitoneal
Rei
Lebersegmenten
##telektase
##nahen
##esch
Acetabulumdach
##fra
##bei
0,625mm
konsolidiert
gefangene
axiale,
sinnvoll
aufsitzendes
##nfarkt
##gest
Omarthrosis
##rah
##erg
mediales
VD
Hodens
pulmonale,
proteinreiche
normgroß
narbig-
cardiale
Siphon
Rechtsbetonte
wenigen
hinaus,
U7
(vorzugsweise
##teil
Schild-,
Doppelkopf-SPECT
(50
##-Sch
##ty
##nce
Y
Tastbefundes
Pleurakarzinose
Parenchyma
MR-PSA-Dichte:
##intens
neuroforaminalen
Sche
hypermetabole
hi
(SPECT/CT)
sp
perihepatische
infiltrative
627098
##.2013
##-typische
Territorialinfarkt
Ap
##uh
##adenom
verschmälerter
Doppelbilder
Datentransfer
##schluss
##lockerung
##iges
pertrochantäre
T2w-hyperintense
Drainage,
302
##8x
kontrastmittelanreichernde
U6
Or
Fx.
##itäts
postaktinische
initialer
feinste
Kontusions
Abschluss
zurzeit
direkte
GB-
##Vor
lat
dixon
Fx,
##endo
Tc99m-
Unterschenkelvenen:
AFC,
##-MRT
##sarkom
einliegend
Felsenbeins
Schilddrüsenlappen,
Kalkaneus
Ausgeprägt
##-re
zerebelläre
Defekten
(4,
##verdächtige
durchsetzt
Lymphome
##jugulär
abgrenzen,
Shuntverlauf
Qu
Lymphknotenbesatz,
LP
Kolektomie
Diffusionsrestriktion,
10,7
Vergleichsaufnahmen,
Segmentes
Malignitäts
##wunde
M2-
##tti
frontoparietalen
Extern
3-997;
##oberfläche
##inge
##frei
Strahlengang
##nze
##inie
##ehr
Polyarthrosis
Komplex
##ue
##gi
gelegentliche
##stu
subkapsulären
Schilddrüsens
Fil
Ay
orthograder
Micro
Perfusions-
##mpf
Mitangeschnittene
Mediastinalstrukturen
Halbjährige
##oxi
##dis
führt
Weichteilödem
Pen
symptomatische
mm3,
Brachytherapie-Katheter
##lli
muskuläre
Thrombusmaterial
KM-Injektion
Hardcopies
Femurschaftfraktur
8.1
23.12.201
VII.
Leberwerte
D1
##kop
punktförmigen
SSL
Inkarzeration
Hochdruck-Kontrastmittelinjektion
T2-Haste
Acetabula
##je
intraabdominell.
Mikroblutung
Deckplattenfraktur
primäre
##0.0
##tfernung
(venöse
##Op
Dysarthrie
##Abdomen
erwägen
September
Hirnbasisarterien
Flankenschmerz
##ass
infektiöse
OSG-Arthrose
LWK1/2
HD
##parietal
vorge
Winzige
Spondylitis
##nose
##fla
##cker
indirekter
VS
CCE.
##kter
messend.
ans
CT-Punktion:
beschrieben,
Tablette
Nachblutung
Lungenparenchyms,
(Äquivalent
Perikard-
Osteoporose,
165
1,5T-MRT
(ohne
##ener
bifrontal
##-se
triphasische
fällt
Kinder
Fettlamelle
Darunter
Axial
4cm
##seite
##normal
subklavikulär
HWK2
Endoleak
medikamentöser
kalkdichten
Volumetrie
Thoraxschmerzen
abges
Ps
Osteochondrose,
quantitativen
abzugrenzen
Inhalation
Humerusschaft
10,6
##pneumonie
##füllung
##est
##ardi
unterschiedlicher
heterogene
erfolgter
Ob
Milzgröße
Messungen
Ablationsareal
Iridium-192-Quelle
##lor
st
optici
fi
Einzeit-Hochdosis-Bestrahlung
##Stent
##88
##prä
##luß
anreichernde
Stuhlgang
Nuklear-OP
Gas
Fu
##.12
OP.
verbleibende
mg/
Myelons,
Defektzone
(MRT)
##FS
##62
##ämie
##nteile
Gegen
##ret
verdächtige
ur
##audal
adjuvanter
Wirbelkörperhöhen
Milz.
##usl
##plastische
Bestrahlungsplanungs-Workstation
leber
Kontrastmittel:
Gesamt-
Gelenkspalten
10,3
##if
degenerierte
Bewegung
##lag
##fistel
durchflossen
Telemedizinische
Nativuntersuchung
Erweiterter
##zie
##gn
Minderbelegung
zentralvenösen
subduralen
Längs
##isches
Lufteinschlüsse,
si
Dickdarmanteile,
Skelettsystems:
Bronchoskopie
##5-
diffuses
aufge
Wirbelgleiten
Rand,
Gradientenechosequenz
Endo
##-N
##tho
##nus
##diagnose
bildmorphologische
Schulter-
Kno
Interhemisphärenspalt.
Frakturlinien
EC
(VA:
##hle
echoreich
Thyreo
5/1
##/H
##scan
##ling
Kontrastmittel-Enhancement
##um,
##aneurysma
thyreostatische
Schallschatten
tastbaren
durale
Sinterungsfrakturen
gerichtete
aussen
Darmabschnitte
14.08.2012:
##itz
Zustandes
VII,
Pfortaderast
PET/CT-Untersuchung
LAE.
##MP
##61
##esen
tibial
(20:4
oben-innen
hyperdenser
Ganzkörper-Skelettszintigraphie
Fleckförmige
Angiomyolipom
Ana
zerebellären
te
frischeren
abgekapselten
Wandverkalkungen
##reiche
Myom
##9mm
##8.0
##.09
subjektiven
Herzfrequenz
##til
CTV
##-Me
##fnahme
Splenium
Pes
Korrelierend
##urs
temporal.
ehemalige
Schrankenstörungen
Ovarial-Ca
Mediastinalemphysem
##ON
##fisch
bo
##tete
anhand
Regel
Metastasensuspekte
segmentalen
periinterventionelle
Tag.
Pfannendach
Bohrkanäle
Arthrographie
Antikoagulation
##Ge
##ept
Suspekter
Leuko
vaskuläre
heute,
Normkalibriger
BWK8
2852
(dorsale
Kopfbereich
9,4
10/
##isiert
TB
Erbetene
(08:5
##mehr
unspezifischen
Retrokardialraum
Myo
(seit
##ations
suffiziente
geringerer
Erosionen,
Epilepsie
Normvariante
##.6
##abe
apexnah
Spinal
Mamillen
##-9
##ock
9,6
31,
medialbetonte
derbe
Hinterhörnern
malignomsuspekt
Vorder-
##D-
Spinale
Herde,
Broviac-Katheter
Auswertung:
842,40
##enge
verkalkt
Minder
ratios
funktionell
Reizung
##eale
Transaminasen
##VU
##entnahme
grobe
fe
Fisteln
##recht
unspezifischer
Remission
Hämato
Falls
Deckplatteneinbrüche
##lm
##infektion
postischämischer
Interponat
(PowerLoc)
##aval
Jejunums
Harnstaus
Cholangitis
##eno
Koloskopie
##CI
meningeale
halb
Reduktionsplastik
##komp
auss
Inch)
02.01.201
(22:0
##ziehen
größenkonstante,
(Ultravist
##ologie
##ack
V.cava
Square
Normalbefund
3-226;
(Pounds
ap-Aufnahme
Uterus,
Glenoidrand
Fernmetastasen
##än
j
Bypasses
00:00
##Na
bedingter
Tumornephrektomie
Tuberkulose
Inguinale
6-8
##ction
Wunde
MPa)
Lage.
KV.
ziehend,
(S6
##fie
verstärkter
Perfusionsszintigraphie
##E-
akzentuiert,
Vordere
Pilz
Emphysem,
Begleiterguss
Achillessehne
intracerebralen
Stellungskontrolle
Schädelkalotte.
Cava
##in-
periartikulär
medianer
Kontra
Ziel,
Sp
Befundänderung,
ACG-Arthrose
##chtung
##beschwerden
Wundverschluss
Rh
Osteosarkom
##etzt
normwertige
benachbarten
##OT
##bro
Sh
Rhizarthrosis
GBM
##0;
zeit
Variante
11/201
regressiv
ESV
(Pädiatrisch)
Met
##renal
urologische
retrograd
abdominalis,
BA
(St
rand
Plaquebildung
Flüssigkeitsgefüllte,
Anasarka.
##kli
##chlinge
abgelehnt
ö
zentralem
Traumafolge,
##differenz
verzögert
Anhaltende
##örper
##nes
Wandanteile
Sacrum
Power
Parenchymdefekte
Floridität
(AVM),
übers
opposed
DTPA-Clearance
parva
Signalenhancement
Einge
##rum
##r.
##lab
malignitätsverdächtiger
Tumore
Parenchymatöse
LWK5,
Traumateam
Kontrastmitteleinbringung
##tag
##ngio
coronal
PT
BWK9
ergaenzende
Pneuspalt
CT-schwächungskorrigierte
##IV
Fremd-Anamnese
##störungen
Kopfplatzwunde
BWK7
##/cm
RG
Materials
Gefäßverschluss
Allerdings
##BW
##-t
pelvinen,
breitbasigen
SSW
Harnblase.
##La
##F,
imponierend.
cuneiforme
Weichteilverdichtung
Sprunggelenke
ges
Verkalktes
Venöser
Tritt
##kti
Ultravist)
Thyreoidale
Kontinuität
Bypass;
##sver
periapikalen
abgelaufenen
Ni
dorsal.
Kribbelparästhesien
formal
Tumora
Gelenkkapsel
Einblutung,
5F-
Szintigramm
COPD-Zeichen
##ga
zuführenden
Reduzierte
Herzgröße,
Facettengelenk
Dank
##ller
VI,
Suboptimale
HG
Bau
32,
##negative
SAB.
Grundglied
##84
##ceps
##af
Minderbelüftungen,
Herdbefunde.
##rma
##echt
Tracera
Osteophyt
9,7
##sektion
systemische
infizierte
Kleinwuchs
Ins
Cisplatin
5cm
dislozierte,
Tmax
Nucl.
05
##Fi
##aph
Stroke
##culär
ventro
selbigen
PSMA
##enkung
präkarinal
hepatis.
Stenting
LWK4,
Begleitperson,
AC-Gelenke
##räume
Stauchung
Radionuklid
##rb
ubiquitäre
Messung;
##.2015
selektive
Oberflächenspule
KM-Abfluss
##idea
##dier
beurteilen
PTCD
CABG,
6,9
##-Score
##lenk
TOF-MRA,
Interponat;
Infraspinatussehne
Bds
tibiae
Aortensklerose,
##sstenose
repräsentativ
ausführlichen
Herz-Thorax-Quotient
Azetabulum
Ablation
##kor
Panatrophie
##-Lymphom
CT-A
Akzessorische
(extern)
AMS,
##h-
##die
totaler
Atlas
##MI
Stammganglienblutung
030-24083383
Pfortaderthrombose
PAO
Nabelhernie
Lymphabfluss
Diarrhoe
Dark
Carpus
zB
pulmonalarteriellen
fronto-parietal
gefäß
auto
Virchow-Klinikum,
CT,
##7-
##mul
triphasischen
Seitenventrikelvorderhorn
Hirnversorgende
(MRCP)
##ks
zentrales
verstrichene
signalarme
obstruktive
bislang
Str.
##83
##derung
schlechte
Cranial
Beckens,
transmurale
end
U8
Belüftungsstörung,
601
##tn
##hol
Gefäßzeichnung,
##MA
##flow
##edu
##att
10.1
##zol
##glich
überlagert
Zusammenfassung:
ergänzenden
Nachbarschaft
Moderat
##Se
##.10
ischii
DHS
6/7,
##rhöhung
Einstauchung
0,86
##s:
##har
geschlossene
Kavernen
caudatus/Referenzregion
Metastase.
##w-
##dic
Kontinuitätsunterbrechung
Ke
T1-S
Spiraltechnik
Eltern
volume
intraartikulären
US-BIRADS
Sternalzerklagen,
Läsionen:
##strom
##niere
Putamen/Referenzregion
(da
##ände
Hypertrophe
##GE
extrahepatischer
Car
##chung
U9
Ansicht):
##ischämie
temporomesial
V4-Segment
Malignitätssuspekte
01/1
##-Szintigraphie
##ostal
best
baso
Protrusionen
Calcitonin
##eld
##dend
retroc
Unscharfe
Nierenparenchyms
Abge
##/G
##atisch
Katheter,
##ypische
beginnendem
VH
31.
##riss
##ema
##cks
artifiziell
Vor-MRT
Restinfiltrat
Nierenzysten,
Konfluenz
Az
##stra
##p-
##ichen
##fehlstellung
pectoris,
dünn
Verschluß;
T-Drainagendarstellung
Konfluens
x1
Röntgenaufnahme
Nebenhoden
8,3
##D,
##bogen
Rezessus
Quadranten,
(21:0
##rium
osteoligamentäre
massiven
koronal
größenkonstant,
Tremor
Leukozyten
Gestauchtes
(120ml
##bis
kontrolliert
##za
##yt
##let
##eum
ilii
Hirndruck
600
##Ho
peria
Schilddrüsen-Medikation
Ju
Hypertensive
Anamnese/Fragestellung:
##itische
Konsolidierung,
##SWK
neoadjuvanter
bronchi
Thyreoiditis
Kontrastmittel,
##ii
i.v.-Kontrastmittel-Gabe
Dignitätsunklare
##lam
rezidiv
370,
(Ge
##oo
verlegt
stabil
Ulna-
Schilddrüsenszintigramm
Hemilaminektomie
##atur
gröberen
durchmessendes
Meta
ma
Fetthiluszeichen
(post-)
(Bild
atem
Schub
##K,
##onente
Maligne
Länge,
HA
Altes
(Z.n.
##-0,8
##uni
##synthese
##ionen
##iche
LCX
Durchleuchtungstechnik:
Ampulle
##rose
TN
Medialbetonte
Lungeninhalationsszintigraphie
##Resektion
ho
Telemetrische
Klappen
Interventions
136
##effekt
kraniale
Verschlechterung,
Kompressions
Herdläsion
30.12.201
##chaft
Cholecystektomie
(4-0
##enti
##ausschluss
zurückgezogen
prominent,
CT-Durchleuchtungstechnik
Au
##ech
wo
Ventrikeleinbruch
zer
T2/FLAIR
Saumbreite.
reichlich
Sekunde
Leberraumforderung
Folgetag
##te,
##nachweis,
##chirurgische
anteriore
Verfahren
15.01.2015:
##kle
med.
größenprogrediente,
Notfallindikation:
Grenze
Embolisat
planarer
3:
##bri
unregelmäßiger
konnektierter
MS-
##tiv
##grafisch
Strahlenexposition
Kr
(Dr.
##spezifische
##orisch
vertebrales.
nu
Markierungsclips
Gefäßkalk
##aft
dünne
Ums
OMT
##/201
##'schen
##stoma
##gan
disseminiert
geführter
Subclavia
Durchgängig
##zogene
Röntgendichte
Beinlänge
Abgleich
con
Matthys-Katheter
Clivus
Aufhellungszone
5000
##sc
Wirbelkörperhämangiom
lokoregionäres
kontrastiertes
##0-
##sph
##operative
ste
größenregredient,
Liquorsystem
Fokus,
##urie
Distension
9,8
##-assoziierte
rheumatoider
fluss
Synovitis
Fuß:
Bechterew
11,2
##fx
##anti
echoreich,
Invagination
Euthyreose:
quantitative
StarVIBE
Schlechte
Kenntnis
C2-
##äl
periostalen
lateralseitig
chirurgischer
Restharnbestimmung
Brustkrebserkrankungen
##teo
Tc-99m-Pertechnetat
NA
Hemicolektomie
Abs
##rti
##inder
heterogenes
Fort
/Beurteilung:
##76
##arr
grauen
abgangsnahe
Konturirregularität
Gesamt-DLP
3-22
begleitend
Schambeinast
Patientin,
HK
##alem
multisegmentalen
intermedia
10,2
##yg
fluid,
##-W
8,7
##ück
##theter
##rüsen
zi
fraglichem
Thorakal
Mittellinien
##sub
Bewegungseinschränkung
##TX
##oi
fraglichen
Subakromialraum
STARVIBE
Polytrauma,
Kommunikation
Schrankenstörung,
Kortikalis,
FG,
Cholezystitis.
##berg
Myome
11,3
##/Mittel
##ors
##ert,
Stauungs
Anamnese/Klinik,
##-Phase
T1-GRE-DE
Peribronchitis,
##denom
feinfleckige
einschmelzende
8,6
##isti
spezifisches
flach
com
##2/
parailiacal
nod
ESIN
3.0
tubuläre
renale
betrug
ACM
##stent
##sma
Zementaustritt
Schock
Radiusköpfchens
Drainageanlage
Cine-True-FISP-Funktionsuntersuchung
Blutentnahmen
##usi
einsehbarem
Verdichtungsareal
Tractus
Scheitel
STIR,
KS
(sagittal),
gek
gastro
Routine
Kniegelenke,
Endoprothese
137
0,5-5
Zahnextraktion
Flow-void
FLASH-3D-Sequenz
##sn
RH,
Kleinfleckige
14G
(21:1
frustraner
Vorwölbungen
##stau
##arzt
eingebrachtes
Zerebrale
Myelom,
Meningitis
Deckplattenimpressionen
CT-Thorax/Abdomen
##PA
##.2014
Polypen
Plötzliche
F18
Balken,
##chter
aortalem
Weit
Radiojod
mäßiggradigen
Periinterventionelle
Hepatosplenomegalie
Ti
Perihiläre
##kan
Medikamente
BWK6
##rha
##oren
##lic
##aktion
Voruntersuchung.
Fibrose,
4/1
Gesamtclearance
Ernährungssonde
##PSMA
Lungenartienembolie
Gastrointestinaltraktes
Bekanntes,
##63
höhengemindert
Screening
Leber.
##KG
##kl
therapeutische
innen,
feine
beidseitigen
Parenchymver
Insel
Ggfs.
9:
##aste
abgekippte
Tränen
Liquoraufstau
Kontrastmitteldynamik
ovalären
nervi
G3
Konst
Knie,
Bekannter,
8,4
##eration
Nuklidanflutung.
zahlreichen
intraluminal
Dieses
(coronar),
bzgl.
Jo
##T,
##-Aufnahmen
We
Pfortader,
Jochbein
##förmigen
##bes
Lungenspitzen
80%
(11,
Fetteinlagerungen
Kniegelenkserguss
Bipulmonal
##siche
##ierend
spontan
occipitalis
Gefäßband
Fehlbildung
letztere
Zahnwurzel
Infektparameter,
EVAR
##rekt
supradiaphragmal
filiform
Voruntersuchung:
10,8
##Man
wesentliches
kalzifizierten
T1/T2
132
(BARD)
##-Ka
##ull
Sondenlage
Colonflexur
##reduktion
##abszess
septische
PFN
Fixierte
Chondro
ADC-
##lst
##nagel
inkremental
Seitenast
Nephro
Colons
Calcium
##urale
##eh
Übersichts
Ventrikelsystems
Ventraler
postop
optimaler
chron
Großzehe
Bein,
Arm,
##anal
Wirbelkörperhöhenminderung.
Myositis
##dar
konturbildende
Stenosen?
Media-
MammaCa
11,4
gestauchte
betont.
Minderbelüftungen.
##?).
##ix
##gal
Gefäßnervenstraße
Gangaufstau
Afterloading-Therapie
cuboideum
Ka
sind,
postinterventionelle
80ml
##weis
##nale
Coecum
##ffen
Zahns
Sand
Mehrsklerosierungen
##reste
na
Fla
Erreichen
),
rechtsventrikuläre
dys
art
Vakuumsaugbiopsie
Med
Kontusionsherde
(maximal
weite,
Unterfeldern,
9,2
anteroseptal
##ube
gröbere
Verplumpung
Teila
Fettgewebe,
Bemerkungen:
BI-RADS:
##egmente
transiente
differenziertes
Ventrikelweite,
##lichkeit
##abel
perikardiale
Fibula,
C8
##Er
Weichteilformation
Sy
##V,
Umgebend
Konfiguration,
##rne
##artiger
Spondylo
Gelenkpfanne
ACI-Stenose
##/n
##parenchym
Steil
Altersentsprechendes
0,87
##ilia
##arterielle
kommend
Sedierung
Karzinoms
Belüftungssituation
##-b
##swinkel
##mehrung
##ez
superioren
Unregelmäßige
##sions
früher
Zwerchfellkuppeln
Szintigraphie:
%).
##verhältnisse
telefonischer
Portalvene
Mantel
Hashimoto
infiltriert
Tag,
Osteonekrose
Mediane
Koagel
Dentes
CIA
(MIBI)
überragen
Papier
Keilbeinhöhle
Tracermehranreicherung
Bro
16.1
##over
echoleere
Mammakarzinombelastung,
Klinischer
Intraoperative
##oni
##alz
jetzigen
heran
gruppierten
Tub
Rezidiv-
Gefäßverschlüssen
2/1
145
Sternalcerclagen,
Beckenachsen
13:
(BWK
##ET
suspekten,
Pleuraverdickung
Kavernom
HNO-
Fenistil
niedrige
kongruente
durchgeführt,
IN
Fettsättigung,
Außen-
tingierte
bronchiale
Supratentorielles
Lückengebiß
8,2
Arme
13x
##thyreo
starkgradige
##konkrement
no
Turbo-JeCT
OSG-TEP
Auflockerung
2011,
(COOK):
##TR
##ett
Pleurale
Austritt
###
##ngs
verk
Pleurabegleitschatten
Normgerechte
Cisterna
12.1
umgebendes
Leberherde
11,6
##ritis
tra,
iliopsoas
##fische
kraniokaudal
LS
postradiogene
plötzliche
geschwollene
(9,
##interponat
tumorsuspekte
leukenzephalopathische
chronisch-entzündliche
Zungenrand
Schilddrüsenvolumen
(22:1
Standardabweichungen
BWS-Veränderungen
##segment
spikulierte
rechts),
Lokalisationsscan;
Kontrastierungsphase
DTI,
Autoimmunthyreopathie
##koll
Mantelpneumothorax
Cholangio-Pancreaticographie
Anatomische
##RS
##llar
s-förmige
RCT
Gallenwege,
##I-
##schu
bra
Thorako
CD
(auch
##An
ansteigend
OPS:3-22
varum
postischämisch
Shaldon-Anlage
IP-Gelenk
communes
TWIST
16:
##sierung
sekundär
knotiges
hep
betreffend
9/
##mitte
chronisches
Scha
D2
Schilddrüsenrest
Pharynx.
Ergüssen,
##rterie
PN
##nderung
Infarkte.
Analgesie
15Gy
Hypoplastischer
##san
##mäß
##intensität
kortikomedullärer
iv
dekompensierte
Verschw
KM-Sonographie
##grade
Überdachung
zurück
artefaktbedingt
Duokopfprothese
CI
##4/
##ros
##ache
craniale
TX-
Erguß,
##areale
stehender
porta
multifokalen
linkem
cm³
Schilddrüsenläsionen
Oberbauch.
##unfall
##sklerose
äußerst
Zwerchfells
129
##69
vorhandene
unmittelbarer
benignen
##79
##übersicht
##dichtung
werten.
Großmutter
Befund-Kategorie:
Aktivitätsanstieg
##H-
##sturz
##dicke
Ölzyste
späten
Spontan
Ausscheidung
##R-
geführte
##zintigrafie
##pping
Tonsillenloge
Aufhellungs
Abdomensonogramm
Materialentfernung
Gefäßstatus
##rz
##reg
bilobären
##Szintigraphie
##Lo
##arme
##annte
weichen
Hydrozele
##jährige
ÖGD
prox
iso
generalisierter
abgelaufene
Knorpels
##C,
tubulären
Virchow
Sti
laterobasal
Betonter
8-
peripankreatisch
Minderung
H.
##3),
Paukenhöhle
Bildqualität
##tk
##lauf
äußeres
Plötzlich
##74
##organ
##in)
nachgeschalteten
erhalten
Pac
Niere.
##x1,
kaudal,
echoärmere
Protokoll
Entscheidung
(22
##E,
##iner
##ege
Ösophaguskarzinom
12F
##nto
Marklagergliosen,
Kaverne
Infektion,
Atrophes
(sub
##-ver
protrahiertem
basolateral
Zahlreiche
Hüfte,
Aspirationspneumonie
##71
MTX
Infra
Cr
Bed
##B,
anatomische
Zervixkarzinom
Thoraxschmerz
SS
##/N
##x-
##ign
Möglicherweise
(20:5
##är,
##vergleich
submandibuläre
Sternums
Primovist-
Klips
I-123-FP-CIT
##TSE
##mas
##AL
##/der
Inspirationslage,
2.5
##rc
par
destruierte
alt
##rko
##mäßig
##llo
##gänge
##fte
Seitenanteils
ADP
303
##ähte
Vermis
T2-S
##mun
KM-affine
##artigen
10/201
##tie
hierdurch
einsetzende
##A.
##.,
##stel
zervikothorakalen
dreier
darstellen,
##Shunt
##ota
##hypo
vermehrt,
Bakerzyste
laborchemische
Schild
##usch
hyperdenses
distalem
Satelliten
60-120
##tzt
minimalinvasive
Tür
##fusion
interest
ampulläres
RA,
Emissionsmessung
distribution
Taillierung
171
Recist
0,57
##81
neuroforaminaler
Zentralvenöse
Schultergürtel
DPD
5F-Schleuse,
persistierenden
##Te
##rel
näher
Unfall
Seitenfunktionsanteile
Bildern
##ual
##konst
retroperitoneale,
regions
infradiaphragmal,
PSA-
Klärung
orthotope
Obstipation
##ura
T1-w
Niveau
Ebene,
##/6
vorerst
pT1
kontrastmittel
Vigilanzminderung,
konturiertes
darin
Intensität
Hüftgelenkes
Atherom
17:
179
(DVR)
##nach
portalvenös
Spondylodesematerial
##c-
venöses
Wiederauffüllung
RGs
Dichtes
aufgelockert
Skrotum,
Leberläsionen.
Distaler
Archiv
3-226
10Gy
##66
##letzung
Streifendystelektase
absolut
HU)
18)
FLAIR-Sequenz
##duktion
VUR
11/0
##dent
Wi
Entzündungszeichen.
##rige
wiederum
Umschlag
Osteophytenbildung
##erst
##epi
kam
Beginnendes
##uspekte
vollständigen
sichtbar
parasternal
inzwischen
breiten
Konturunregelmäßigkeiten
sitzender
i.v.-Kontrastmittelgabe
Gelenkveränderungen,
##rde
Übergang.
Epiphysenfuge
Besatz
##illen
##hal
kavernöse
ausgewählte
Positive
Aortal
##/10
##schl
##bereich,
paraventrikulär
neuroendokrine
anzahl
##/retro
##esi
ringförmige
ri
Strukturstörungen
Steißbein
(W
##angio
inversionspräparierte
BC
Abdominalorgane,
##sor
SC
##sch,
##ndu
Strahls
Multisegmental
Ellbogen
##vul
##rst
Suszeptibilitätsartefakten
##lge
##forme
##eut
##dens
##ail
radiologische
lückenlosen
Oberbauchorgane:
Knochenstruktur,
K-Drähte
coronoideus
akzentuiertes
Pankreas-
(Se2
STA-MCA
Restpankreas
Lipiodol
Gi
Flüssigkeitssignal
Ant
##87
##gangs
retropatellar
i.v.-Applikation
au
SCLC
Interlobärspalt
Hämatoms.
Defizit
positive
gefüllten
bulbär
BE
11/200
##anstieg
echoarmem
Freitag
13.1
##yper
##lärung
##konfiguration
ausreichender
OPS:3-222
Becken/Hüfte
##aria
prae
gegebenfalls
beibehalten
Glukosemetabolismus
##höhlen
##echte
ödematisierte
g/m²
Pfannenerker
Lufteinschlüssen,
Entzündung,
14.1
##IE
##82
##ram
kariöser
frage
Skeletts
Pneumothoraxnachweis.
1999
(Anteil
##dn
int
Stable
Lokalisationsscans,
punktionswürdiger
Vorhofs
Rückenmark
Pleuraständige
AC-
##uro
##rende
schmalkalibrige
lobulierte
Weitere,
I-
3-221;
##ünd
hypervaskularisierten
##-Pro
##esti
Weichteil)
Retikuläre
Präparat
Prostata-Ca
Lymphknotenkonglomerat
Jodid
DISH
Coronarsklerose
##sale
suprakondyläre
Prellung
Passagehindernis
Mon
MCP-
Lakunen
Karotisbifurkation
##boden
-3,
##verdächtigen
Klappenersatz
##Bereich
opposed-phase
dürfte
Vorgehens
Konkrementnachweis.
Gallen
2.1
11,1
##-Z
##onographie
hohen
Talusrolle
##ortal
##korrektur
Unterrand
Herniationszeichen.
Größenkonstante,
Flau
##artefakte
überlagerungsfrei
perimamillär
iliacalen
Glukose
Beschwerde
infiltratverdächtiger
grenzwertiger
Fußball
Ausw
AFS,
7Gy
100ml
##1),
sphenoidale
Bildübertragung
##üft
##ku
vorliegender
Wade
Studien
03/1
(ab
##Tumor
intramurale
Retrospondylophyten
RT
N1
7,9
Tracers
Lipase
flaues
Synovial
##rad
##avide
Weichteils
Wandverdickte
pg/ml
dorso
Reg
Kopf;MR
Kammer
CT-Anmeldung
##granulom
##dach
schmächtige
poststenotische
physiologisch
Disko
##-Aus
##yo
##katheters
inhomogener,
Weichteilkomponente
Orbitadach
Nebenschilddrüsenszintigraphie
4.1
##sser
vergleiche
co
##ästhesie
##uier
seinem
Veränderung,
Blick
ventralseitig
Rinden
Lumens
Fettgewebes,
(In
okkludiert
latenter
Linksherzverbreiterung,
BWK1
8,8
##erb
sondern
residuale
kontrahierte
Leichtgradige
Auffüllung
2010,
ECMO-Kanüle
##SPECT
##95
##itu
pallidus
ovaler
##ränder
poplitea,
atroph,
Schon
Go
60%
##rrh
zwar
mitt
Jodspeicherung
CVK
CTX
Adnexe
##Ima
##77
##dy
##dri
perip
medio
Tc-99m-Mag3
Krampfanfall
Infektfokus,
7,1
0.7
##tub
intervertebrale
Kalzium
##tau
unbe
avide
Werten
ausgeschwungene
Vorderhörner
Oberlappensegment
Filialisierung
Bilateral
Aortenklappen
##zylinder
##ud
bu
Erguß?
##konstante
rei
einmal
Unterbauchs
Prostatakarzinom,
##8),
##roph
##gte
Duralsack
Bandscheibenersatz
Allgemein
400,
##aterial
Hyperkyphosierung
Anlage,
AG
(Thorax)
##-in
##quis
hypointenses
Schultergelenke,
Aorto
Angiographie)
##yndrom
##ition
randständiges
mmol/l
mittel
luftgefüllten
Wil
UB,
Histologie
02/1
##0-1
##zs
##dio
perfundierten
Ring
ACA-
3/1
##9),
##zo
##tion,
##tatus
##sre
unruhigem
re:
geeigneten
Restliches
11,7
##lavikulär
##iste
Sus
Stanzzylindern
8,9
##nachweis.
intrakardialer
Mammakarzinom,
Primärtumor
Hartmann
##ephal
Tibia-
Tenosynovitis
Regelhafter
Platz
Parenchymveränderungen
Milzläsion
Ach
##spa
##on-
Posteriorstromgebiet
Intermittierende
##risch
broncho
##ilt
##-de
parakoronar
folgt
azygos
Fra
FAST:
Bri
##änder
##tet
##test
luftgefüllter
ergeben
Nebenmilzen
Lympho
Handgelenke
Terminale
Hypodensitäten.
Ansprechen
3-82
##appen
##alter
ä
subfalzine
harmonisch
Nebenbefund:
Meß
11.1
milchglasartigen
low-dose-CT
haste
Zo
Ergussbildung
##zin
popliteal
lymphatische
Übersichtsangiographie
periportales
maxillär
gestellte
diagnostisch
Anfärbung
subakuter
Zielregion:
Sanierung
Orthograde
(21:4
##oto
##algie
langstreckigen
64-
##-TEP
##buläre
perifokal
Untersuchungtechnik:
Symphysis
##tero
##line
sklerosierende
hypertensive
DIP-Gelenken
0,56
##eitet
##över
Vol
Segmentebene.
Einklemmung
##DG
##ruktur
##nö
vielen
ml/min
Lungenapex
Hypertonus
190
(6F
##szone
infrakarinal
Thorakaler
Perihepatisch
Perfusionswerte
Dargestellte
(08:4
##suspekter
gr
##ober
myomatosus
Unterlappenarterie
Serie;MR
Kalkbesatz
Hb
##xie
##mens
##eni
erschwert
Schilddrüsen-Diagnostik
PICA-
8)
(21:3
##7),
##6),
##/Z
##aut
##Übergang
prolabierten
fatsat,
Symmetrie
Sakroiliakalgelenk
Gallesystem
7/BWK
##Du
##hase
sternal
punkt
Verkehrsunfall,
Mitbeteiligung
##ius
##fil
##assoziiert
RDS
Iliacal
Dringender
DTI
DI
##catio
seitliche
Schm
Schleim
185
(längster
##gre
prät
Weichteilver
Prop
Lokalrezidiv,
Eva
Coil-Embolisation
(submaximale
##asti
frühes
anterius
Tracerverteilung
Opticus
Leberresektion
KA
(Me
##deviation
nasale
Milzloge
Bildkopie
Belüftung,
##pti
##gelenks
gefüllt.
Beschwerdesymptomatik
punctum
abdominell.
##/K
##peritoneale
Herzkatheter
später
Manuelle
FDG-
hochgradigem
benigner
Tracheal
Paraaortal,
Fl
##rittel
Img
Gefäßabbrüche
20.01.2014:
(Ver
##4),
##ameter
Ovarialzysten
incl.
abszesssuspekten
MRT-Erstuntersuchung
Auswärtige
2-L
0,55
##ski
Ödematöse
Streifig
III)
##egion
Dyst
DW
##ärztliche
sich,
bezogen
Stufenbildung,
##/o
##of
##gesteuerte
spi
kalk
Reanimation,
Pla
04.1
randbildenden
Vergrößert
Signalabsenkungen
Prot
Galle
##Sta
##best
peritoneal
50%ige
gefäßbedingt
Not
Bone
Altersnormwert
(6,
##LG
##rdi
tibiofibularis
hil
vorheriger
reichend.
Verlegte
J18.8
##chst
turbulenter
aufweist
Zell
Pleuraspalt
PEG-Sonde
Autoimmun
30,
kl
(no
##ildet
ka
gegeben
dichteangehobene
atlanto-
akzessorischen
Elektrodenspitzen
miterfasst,
Koller-
Auswurf,
##-O
Ösophagusvarizen
atemverschieblich,
CAM-
##sup
Reaktiv
##teilung
wei
humero
Zervix
Unterfelder,
Insult
Flussmessung
Filtrationsrate
##Leber
Zweit
NF
pellucidum
Lk
IV)
##5),
val
uncinatus
bds:
Ur
Plattendystelektase
Lebersegmente
IS
##dysplasie
Par
25.1
(Dens-)Fraktur
##side
zunehmendem
spitz
begrenztes
Randenhancement
Meningiom
Katheter)
Aquädukt
##uri
##-Werte
Interstitielle
Hinterhorns
Avulsion
Asp
##lf
##zung
##idi
zuzuordnen
Langstreckiger
2-5
##ping
malignitätsverdächtigen
VKB-
Malignomsuspekte
Gynäkomastie
08:
##-8
vorbestehende
Ulnar
NW:
Lokalisationsaufnahmen,
Handgelenk:
26.1
240,
##tlich
transversalen
paratrachealer
Unmittelbare
##vaskuläre
##degeneration
##begrenzung
gestürzt
epileptogenen
epigastrische
blut
##kun
##ch,
systolisch
blutungs
##öl
##rierte
intraoperative
Läsion.
##inderung
fibröse
Verteilungsmuster
Ellenbogens
Aortenwurzel
##nktion
gedeckte
##sequenzen
intensive
eingeschmolzene
abgeschwächtes
Charakter
##-Ra
##kanten
##iz
##ildgebung
##este
erg
Unterfeldes
Schenkelhälse
Koronarien
Hei
##R,
##leitung
Nativtechnik
ADC-Mapping,
(21:2
PSC
I1
##SWK1
med
absoluter
C3
5.1
##NS
##abgang
subl
intermodal
Steatose
OPS:3-80
Chiari
Anreicherungen
unver
Oberlappen.
DLBCL
##uung
##erweiterung
Spin
Direkte
Dermatom
##hyper
##bu
##artefakt
##alk
µm
postzentral
Blutungsanteile
(post
##rit
##erk
##dosis
Lymphknotenvergrößerung
Gallenblasenhydrops
##ularis
##uen
##organe
##krankung
ursprünglich
abführenden
Mikrogramm
(21:5
##cula
atherosklerotischen
##/de
##mbolisation
definitive
Striatum
Organtypische
(de
##T.
##on,
weitere,
ventromedial
neurologische
lei
genaue
LV-
##ühl
##tebral
##pri
##ox
insuffizienter
Rekonstruktionen,
Halsbereich
Gel
Formgebung
3-706.1
##2mm
Übersicht
ventrolateralen
bekannt.
alternativ
acetabuläre
Lungenkarzinom
##chts
verlagert,
falsch
Zwerchfellhernie
Pulmonalgefäße
Periapikale
Hepatische
##-Segment
postinterventionell
dünnschichtiger
SAB/
Mono
Gastrografin
2.6
##fix
normoreflexive
Sondenspitzen
Schwi
Liegender
(Genant
##skelett
##real
##rainage
##hä
¾
Procedere
07/1
##rea
Striatum/Referenzregion
Postinterventionell
Halswirbelsäule.
##ologische
##impression
normoreflexiv,
Mitralklappen
Einschränkung
##inger
##gleich
traumatischer
ihrem
Transiente
Prednisolon
##azi
steil
##4-
##zentral
postero
assoziierten
Signalminderung
Mini
ISI
Girdlestone
##usk
##iet
minimalem
metastatische
cu
Spondylophytose
Anastomose,
Aktivitätsverteilung
##-Implantation
Rückgang
##rthrose
messbar
MG
Lebertransplantation
Hämosiderin
Mark-
##sstörungen
##chle
interna.
Varusstellung
Nierenversagen,
Ly
Dorso
zunehmend,
eingriffsrelevanter
differenzialdiagnostisch
S.e.
##ika
etwaige
endend
IM3
Hüftschmerzen
Dissektionsmembran
##uda
##mar
elektive
postcentralis
Sinterungen
Konkrementes
harmonischer
Unterkante
Schichtführung
OP-Planung
Notfall
Liquorkissen
11,8
sämtliche
mmHg,
aufgebrauchte
Zwerchfellstand,
Muskeln
Dosisreduktion
10-
vereinzelter
Organ-
Erfassung
24h
1-3
0,88
subka
Tre
Intervertebralfach
Destruktionen.
##in,
##fung
##az
aufgelockerter
Palpatorisch
Nu
Hyperp
##78
##flu
##ansatz
Schulterschmerzen
Pollänge
Kolonkontrasteinlauf
(Station
##arat
proximal,
fronto-
echonormale
abszessverdächtigen
UL-Dystelektase
Subkapitale
Pseudozyste
##orti
##hrung
kollabiert
SR-
Daumensattelgelenke
##äg
##trukturen
##ital
##bet
ähnlicher
koronarer
Unterlappendystelektasen
Nodus
Myokardinfarkt
D.D.
##bahn
durchsetzte
blind
Bilirubin
Baseline
##äng
##strang
##ede
kaliberstarke
hängender
Kost
(Thorax
##flächig
##WK
##tehende
##ossene
##meta
##hypertrophie
MS-CT.
Fern
1/2,
komplexer
ausgehende
Regelhaftes
MTP-Gelenke
1:200
##chsel
S10
Femurschaftes
Entrundung
##-Spi
##implantate
vorliegende
befundkonstante
Schwe
Radiatio,
Fabella.
Bildung
Bandscheibenvorwölbung
##odi
ven
Transf
T1-hyperintense
Sekunden
Bogen
Aufge
##knorpel
mediastinaler,
Achs
Ablations
##Par
##top
ileo
enge
aorto
B-NHL
##96
##chri
übergreifend,
metastasenverdächtigen
ieL
hy
Unregelmäßigkeit
Neo
Klinikum
3-200
(LWK
(Bosniak
seitlich:
pneumonischem
Beckenwand
##.14
keinem
Zunehmendes
(8,
intraforaminal
Trakt
Narbig-
(SIRT)
wellig
Männer
Mikroangiopathische
MR-VU
Aneurysma,
##HWK
##tot
ragt
kontralateral
FL2D
Adrenalin
##-Aneurysma
##basale
hä
aktiver
Erweitertes
Can
##.15
jährlicher
Milzparenchym
17.1
141
##Ü
##treten
mesenterialen,
for
Verziehung
Anker
##2004
##-Na
langjährige
disloziertes
Schilddrüsenlogen
Partialruptur
##nin
perirenales
Foci
Dichteanhebungen
Blockung
9,1
##tf
rechtslateral
##-ne
##kar
nicht-dislozierte
intravesikale
cranio
bet
Restperfusion
Infarktfrühzeichen
IR
Adrenalektomie
(HU
##tern
Papillen
Mikrokalk,
Coilembolisation
##EC
##szi
##rück
##rete
subkortikalen
hyperdens
hochaufgelöste
Leberperfusion
Infiltrates.
##richt
##lige
##eilresektion
coronaren
##Z,
stereotaktischer
manuell
infraclaviculär
epiduralen
Spinalkanal-
AV-
##unschärfe
regionale
Metastasenresektion
Bruch,
4-7
##92
rektaler
palmare
darstellt
St
##5/
##xe
kommenden
Zweidimensionale
Therapiee
Rad
Primovist,
0,1ml
##steigerung
##chaden
Mesenterium
Karies
Hu
15.1
##98
##karzinom,
parenchymale
konnektiertem
Lagekontrolle,
08/1
(axial)
untypisch
Substratplus
Milzinfarkt
Lemke
Hüftkopfnekrose
Aorta.
##/c
##np
##mäßige
perfundierter
Tr
Kürzung
##Mi
##get
Öffnung
befinden
Weich
Polyarthrose
Mikrokatheters
HWK3/4
04/1
##schwäche
##atus
Port-Katheter
Geb
Foley
##lös
on
frühestens
Unver
MR-Fremdbilder
Kragenschnittnarbe,
Index
FNH
Augenmuskeln
18:
##rektale
##qu
Luftsichel
Fal
Bauch-
(TER
##phr
##chli
fassbare
TIPS-
Hintergrund
Blutzuckers,
##inlage
präp
postspezifischer
Wo
Fä
##oti
##ektasie
peri-
liquorisointense
intrathorakale
belastungsinduzierte
a.p.-Aufnahme
10,0
##enst
##egen
gra
Zeitraum
TOF-
Femoro
Blande
##stein
##links
r,
Keil
normalgroße
gliotische
##mon
##ctu
keiner
Verdichtungsherd
M1-Segment
Kreislauf.
##/peri
standardisierten
Sitz
Kontrastierung,
Herddosis
Fistelbildung
(Li
behandelte
Heterogene
Flussprofilen
verlorene
Uterusmyom
Osteosynthesematerials
Gliederung
##rag
##kre
nachweis
mutmaßliche
gescatterter
Bef
##viert
eingeengte
dicht
Treppensturz
Sekretretentionen
cerebral
Thrombo
Beratungsgespräches
4:
301
##AS
##rus
Überschlucken
Zugänge
verlegter
unwahrscheinlich
Rec
Diskontinuität
##szinti
punktförmiger
arteriovenöse
Postoperatives
Kalzifikation
Ganzkörper-CT
##.2018
nasi
UL.
Ser
Ga68-PSMA
Easyflow
2012,
##uchte
##leb
##eral
korrelierbar
Ul
Territorialinfarktes.
Anulus
##geminderte
Schichtaufnahmen
46,
(Ha
##une
##pta
Bewegungsapparat:
2D-
(Br
##-U
##lumbal
##bildende
##iere
kontrastiert.
intestinale
flächenhaft
Tomosynthese
Geh
Abschlussplatten
##ndes
##ernie
parotidea
ml/m2
geht
chirurgische
VIC
Untersuchungszeitpunkt
Mittelwert
Erst
Blutanteile
##zeitige
infrarenale
Wurzelspitzengranulom
Stent-Implantation
##etrie
##ation,
konturbildend
aboral
Wurzeln
Ntx
(Sonographie
##baren
##arstellung
geschwollen
Mediastinum.
Befundskizze),
##residuen
verlaufenden
super
Mehrfragmentäre,
Bronchial-Ca
Abd
##eif
l/min
hyperintens,
WS-Veränderungen
Kniegelenk,
##dg
##bildung,
zeitlichen
Vorderhorns
Val
Stichkanal
Fitting
138
##oval
gerade
Rektale
Lig
Ellbogengelenk
##tral
##nver
##lap
##eder
parenchymatöser
(Tante
(Ga
##angs
##rani
##ragment
##arese
interaortocaval
axial)
autochthonen
##szeichen
##qui
##hend
##gü
##gefüllt
temporo
dringender
Verkürzung
Aufl
Anmerkung
169
##SD
##wellung
##orm
Zielregion
Kortexband,
##9x
##ranial
überragt
subcorticale
eventuell
ROL
##g/
vorbekannter
periventrikulär,
1998
##ED
##tru
##rech
…
Ösophagus-
verkleinert,
posteriore
Wahrscheinlichkeit
Kolons
##97
##lec
hängend
Terminen
Normalkalibrige
Aufnahmetechnik
12/200
##rot
##nne
wahrscheinlich,
symmetrischen
mesial
gesicherte
Okklusionen
Gewichtszunahme
Fissurenzeichnung
Cl
CT-P
Ösophagus,
längs
flüssigkeitsgefüllten
erbeten,
Weiterführende
Stammskeletts.
Inguinalhernie
Furosemid
Frakturspalte
Basilaris
hypoplastisch
derselben
atlantodentaler
Knick
Früherkennung/Nachsorge
Absolute
16-
##B.
##atik
mut
Emphysemaspekt,
Diaphyse
(RI
##retikuläre
dist
Duodenal
AICD-Aggregat
##struktion
Untersuchungsbe
Tele
Schenkels
Orbitabodens
LWK3,
##etabul
Parenchym-
NNH/Felsenbein:
Hilusfettzeichen
##-Läsion
reduziertem
Frontallappen
Abdomen)
(MRT,
##OS
kraniales
intraparenchymatös
atheromatösen
(22:2
##hie
##fli
##bor
Nuklidbelegung
Mastitis
LMCA
Fazialisparese
BWK5
##³
Stoffwechselsteigerungen
##osteo
##lip
angiographische
MLO
Gleich
(DPD)
stationären
T1-VIBE-FS
Sowie
MPRAGE,
Inkremental
I.W.
##le-
Duplex
Anus
19)
erh
ISG-
Hep
Entsprechend
##ibe
dilatiert,
Follikuläres
##mato
##belastung
orotracheales
intraossäre
erkennen
Vergleich:
Spondylolisthese
Moya-Moya
Befunder
05/1
##astung
Temperatur
Neuritis
Herdbefund,
Einriss
AZ-Verschlechterung,
(7,
(200
##.16
##erti
neo
hypertrophierte
Zeilen-
T2-T
Messwerte
##lini
##din
(neu
(an
##iver
kalter
abgegrenzte
mastopathische
Hil
Befundwandel:
Balkens,
34)
##/t
y
spe
Marknagelung
Femurkopfnekrose
##Teil
##Karzinom
##syn
##ora
Wiener
Radiosynoviorthese
Normalkollektiv
Leiste,
Caudal
AB
##renale
##osti
VHF
HWI
##ance
volar
ADC-Absenkung
8,0
##-Kategorie:
##vergrößerung
##hyperintense
subcapitale
Kiefergelenke
IX
Coronar
COPD-Zeichen,
##&
##dä
externus
belastungsinduzierten
Sklerosierungs
Lagerung
Herzinsuffizienz,
Darmwände
6,0
##lc
##ipi
triquetrum
darstellbare
W,
##-suspekte
verl
schwartige
nachweisbarer
Leberkapsel
Labyrinth
Enge.
##86
##isk
lymphogene
langsam
folgt:
V2
Bard
##ange
zystoider
gab
vaskulären
Pankreaskarzinom
Ostium
Fragmenten
##nl
aufgetretener,
Körperoberfläche,
suba
sol
Kontrolluntersuchung
Frühgeborenes
##Ein
##mn
##eti
##auss
hypointenser
biphasisches
Waden
Schli
MR-tomographischen
(21
##inde
zentral-venösen
erheblicher
differenziert
VCS/
Restleber
Lumbago
CTx
10,9
##/in
##medikation
##auch
verlaufend
norm
infraklavikulär
Multislice-Spiral-CT
Magen-
Konsolidierung.
Komplett
Adeno-Ca
(2,5
##ACE
##hafte
Venensystem
Seite,
Papilläres
Herzrand
EB
##ktiv
traumatischen
gen
17.10.2008
##medi
juxta
hatte
besprochen
ausreichenden
7/1
10,1
(a
##/Me
##ymph
##ssig
##han
juxtakortikal
RM
PA15
Lungenspitze
##ration
angehobene
aktivierten
Unterarms
Gaseinschlüsse
Atlasbogen
9,9
##-Kon
##ulären
##nick
vor-
Pfannendacherker
Periventrikulär
Pericarderguss.
Normaler
Blutauflagerung
fleckförmigen
Kontrollangiographie
(te
##Dis
##äs
##erin
##divertikel
multisegmental
gekammerte
Chronisches
15)
##termin
##apsel
positives
Vater
Symptomen
Schnittbilddiagnostik
Sagittal
PCA-
##reb
regelmäßig,
Fettgewebs
Blutbild
Aphasie,
##5;
##uchung
##ift
##einlage
zirkulären
sequenzieller
epileptischen
RCX
I2
Fleckig
##omp
##l)
tur
rostralen
fa
Subkutanes
Rein
Gyrierungsstörung,
##induzierte
Überwiegend
ulnarseitig
gekammerter
begonnen
Wedel
Quartett
Komplikationsloser
Dopamintransporter-Dichte
Absetzen
Abfluß
wandverdickt,
sichtbaren
Spondylophyt
Reorientierung
(Scheitel
verschiedenen
li:
doppelte
corticalen
TSH-Suppression
KM-Aussparung
##usb
##lati
##k,
##bszess
retroaurikulär
inhomogene,
PD/T2
Marklagerödem
Hirndrucks.
81.9
paraösophageal
Windungen
Armes
##fenster
präaortal
Rückenschmerzen,
Ros
pleuraständigen
echofrei
Rechtsseitiger
Komprimierung
Dipidolor
Bel
##94
vornehmlich
testis
periapikale
ak
Verlaufskontrollen,
TIRM-Signalsteigerung
Herzverbreiterung,
Bereich,
Anbau
##-Tra
##dickung
eingeengt
behandelnde
Dilatierte
Articulatio
##zieren
##hys
spinal
ku
intravenös
Subscapularis-
Hä
HWS-Veränderungen
bip
begrenzten,
Zusammenfassend
Ursprung
Mastoidektomie
Astes
Abknickung
##kot
##ging
unvollständige
Postentzündliche
Kontaktaufnahme
Kolonflexur
IIa
Ergänzend
(Mi
##äß
##sstellung
##lve
subc
obliqu
neue,
Hemihypästhesie
metatarsalia
lateral.
##aa
vorbekannt
tastet
präs
osteophytärer
fortschreitende
##G)
##thro
delayed
assoziierter
abdominell,
Atemabhängige
##nse
beschrieben.
Teilsanierter
Conchae
Adduktoren
2.00
(cc
##rische
TPO-Autoantikörper
Res
Myokardiale
Längsausdehnung
Ödemzone
Zofran
Ventile
Blutpool
20.1
##führen
##fraktur,
puls
kleinen,
Neurocraniums
Kurvatur
Dopamintransporter-Szintigraphie
30.1
(Di
##1.16
##¿
##ansch
Karzinom,
##wege
Grösse
##ah
verlegt,
verd
postischämischen
mehrfache
Mikroangiopathie
ML-
##-Er
unvollständiger
Modic
Mayerding
##Gr
##lit
##isse
magnum
Metaphyse
resp
konnektierte
Plumpe
##prall
##hepatisch
Mittellinienstrukturen
Keilförmige
##tab
##apikal
proximales
akzessorischer
Imeron-400
Gründliche
Einführung
EKG-getriggerte
0,17
vestibulocochlearis
Metalldichte
Fo
Apikaler
##rog
##applikation
quantitatives
Situs
Liquors
15.10.2008
(70
perisplenische
musste
lokoregionären
Zusatz
Tc-99m
Pf
Luft-
Konkrement,
Kalzifikate
B-Bild-Sonographie
21.10.2008
(zu
##/Unter
##zogen
##sth
subinsulär
respiratorischer
paraösophagealer
Nephrostoma
Einzelniere
wandverdickter
Darmischämie
##parat
##jo
retroa
eitrige
arthro
Tumornachsorge
Miniplattenosteosynthese
12)
##nb
##ana
##a)
atemmodulierter
Vortag,
Institut
-s
(ap
##deformität
schmerz
##2x
Unge
Rechtsherzbelastung.
Projektions
Nadelspitze
Concha
47,
##III
##.13
##nsversal
##ion,
pectoral,
Tachykardie
Eigen
BRCA
A1-Segment
155
##/0
##pra
##ngi
##kk
fibrozystische
Signalverhältnis
Reste
PI
##protokoll
##gur
atrophierte
al.
Shunt-
Montag
Humerus,
mittelgradigen
fehl
Schmerzsymptomatik
Parapelvine
Mamma-Karzinom
##hro
harnableitenden
(rechts)
(TSH
(DaTSCAN)
##RG
##AC
paro
beurteilt
Zwischenzeitliche
Wirbelkörpersinterung
Spondylarthrose.
Spe
Plaques,
Nebenschilddrüsen
HCC-suspekte
##sko
##rakt
okzipital,
intraabdominell,
einiger
##essi
HF
/-wege:
##Ober
##15:
##uk
seiten
marginale
diagnostizierte
computertomographisch
Nekrosen
Hepatomegalie,
Durchleuchtungszeit:
##ssend
##ena
Verlaufskontrolle:
Venenwinkel
Infiltrat/
Hemikraniektomie
(64
##inkel
##eitige
Drüsenmitte
##x7
##unde
##sge
##dd
##bschnitte
postentzündlicher
mCi
Regelrechte,
KM;MR
Indi
Facetten
Exazerbation
Doppler-
06/1
##hem
##com
##abla
kurzstreckigen
intakten
Em
allergische
Stri
Seitenventrikels.
Opposed-Phase
##Do
##Aneurysma
##spe
jugulärer
Verkalkungsstrukturen
Befunden
piriformis
Tendinitis
Teil-
TG-Wiederfindung
Sono-
Prä-
P3
NS
Grundplattenimpression
zervikalen/thorakalen
entwickelt
Aufnahme,
##mpe
##markierung
MRT)
LWK5/SWK1,
1.2
##Schwellung
##tativ
sti
hauptsächlich
ausger
Osteodestruktion
Drüsenkörperinvolution
##Her
##weit
##verändert
##ua
##retention
##onder
##ktasie
Unterkieferfraktur
Traceraufnahme
Portal
Kra
CT-Voraufnahme
Arterien.
##rau
mediastinal.
Unregelmäßigkeiten
Latente
Fallenberg
FK
Claudicatio
##ventrikuläre
##befall
temporobasal
rechtshepatisch
mesorektalen
gewünscht
fest
depressive
basisnah
Low-Dose-Technik
LWK2,
Jod-
Eigenniere
Anatomie
8/1
##Bi
##ereich
##bio
T-SE-FS,
Paras
##irbel
kraniolateral
hochdruckkompatibel
halben
Spiegelbildungen,
Mehrere,
Fetts
(Re
pontine
p.i.
nekrotischen
keinerlei
WK-Höhenminderungen
Traceruptake
Nahrungs
Arterien,
transp
Aufklärungsbeleg)
##oß
progredient.
Vorder
SA-Raum
##CE
##patient
##hel
insbesonders
cardialen
Minderbelüftung,
Ja
14.10.2008
##obene
##asis
Älteres
Sekretions-
Harnwegen
Glu
Gipsanlage
##rekonstruktion
intraparenchymale
bullösen
ZNS-Erkrankung
Thorakotomie
Schleifenbildung
Hüftpfanne
##IA
##entier
oberflächlich
meta
Sequester
Plat
LI
Hieraus
Gaumen
Eigennieren:
Cerebri
##öhe
##omin
##elo
überw
notwendig
hyperthyreote
Entlassung
##ard
##aden
Ö
Schröder
##lti
##ahme
sh
intrac
höchstgradige
NZK
entfernte
darstellbar.
Verkalkung,
KM-Fahne
##tend
##hlt
##det
selektiven
punktförmig
Triphasisch
Planungsaufnahmen
Mikroverkalkungen,
ulnar
triphasisches
gewonnen
Weichteilsaum
HWK6
##tens
gestaucht
Verbandmaterial
##Le
##zust
##gestützte
radialen
Woche,
Spül
10/200
(Bi-Rads
##säule
##ifi
vorhanden.
prävertebrale
eingebracht
Tumorinfiltration
Mikronodulus
Lazeration
Infarktareale.
16.10.2008
scheinbar
Sprunggelenks
Gelenksstellung
##Sono
##richtung
##positive
Vorderkanten
S52.
Platzwunde
regelmäßiger
komprimierbar
elongiert
M81.99
Komplettierung
##/k
##ppung
##koli
##bsch
MIBI,
Enthesiopathien
##Projektion
verschiebliche
kol
##rze
geplant,
Lungenunterfeld
Körperoberflächenspule
Infiltrats.
BRASSTM(Brain
##dl
dorsokaudal
Zweite
Bu
##rap
##onale
wahrscheinlich.
Stei
##sä
##sy
##bit
verfolgen
suspekter,
metaphysäre
Ausgeschwungene
##tm
##altet
frei;
Schrägfraktur
Radius,
Kostenübernahmeerklärung
##'sche
##toma
##maß
µg/Tag
vormaligen
umgeknickt
bes
Segmentebene
##wu
##sw
##nic
kom
brachiocephalicus
atrial
angeschnitten
Baur
##olo
systemischer
höhengeminderte
funktionelles
beidseits)
Wirbelkörperfraktur.
Pankreas.
Mark-Rinden-Differenzierung
Mamma,
22.10.2008
09/1
##sstörung,
##inhalt
##chem
thorakoabdominellen
cN
TR
Doppel-J-Katheter
##erv
##enes
rheumatische
motorische
disseminierter
angelegter
Spondylarthrosen
messenden,
Schleimhautschwellung,
HKB
(k
(23
##-10
##ktr
##genen
subkapsulär,
gelenk
Herzinsuffizienz
##pre
kr
Urolithiasis
7-
##Ha
##vorder
##rsal
##leural
parap
Schwankschwindel
Sc
Mortalität
MR-VA
Implant
Carina,
Aufklärungs
##.2016
##trakt
##rka
##enie
##einbr
##barer
sklerosiert
ml.
interenterische
Vorbefunden
Schi
Lange
48,
##FA
##aktivität
schwierige
positiv,
benachbart
Hamartom
retrograden
idiopathische
begrenzter,
MB
Descendostoma
Binnenecho
##/Abdomen
##-Übergang
subpleuralen
regressive
granulomatöse
Pilzpneumonie
PICC-System:
umgeschlagener
messendem
Schmerzhafte
Bereich.
(links)
##TER
##Kn
##1.17
##statische
mg/kg
Wurzelreste
Vergleichsaufnahme
Kontrastmittelgabe,
Direktzeichen,
Bewegungsartefakten.
##ypho
##ensi
einliegend,
PP
Gyri
Gelenkkörper
Alveolarkammatrophie
##:1
##olle
parakoronar,
PC
Lokalizer,
Kraniektomie
167
verwaschene
Tc-99m-uptake
Konsekutiver
Degen
transjugulär
Verkleinerte
##SA
##ori
##mes
sche
gel
Spa
Parenchymzyste
Oropharynxkarzinom
HT
verbliebenem
angrenzendes
Leberhämangiom
Körperstamm
##Angiographie
##gerung
vertebrale
anamnestische
Massiver
##lat
korre
intramuskuläre
Spitzengeschwindigkeit
Sal
Narbig
C5/6
##..br
##chm
transpedikulärer
marginalis
bek
Knorpeldefekt
Intram
Frakturzonen
##CH
##ule
##rden
geb
##EP
Tumord
Kopf/
Glas
3.2
##reihe
verringerte
infektiös
Ruhigstellung
Mitbetrachtung
22mm
##dierte
Akzentuiertes
##93
mil
FDG-A
Episode
9)
6F-
##thal
##lob
verschattete
Vollbild
Diffuses
##Tag
##n;
malignom
entsprechendem
Histo
(we
##Stromgebiet
##-sch
Wundheilungsstörung
Versorgungsgebiet
Lungenfibrose,
Harnleiters
saniertes
epikardiale
##/f
##-te
##suchung
abs
Herzkonfiguration,
29.12.201
##rac
##passage
##nkt
KH
Gelenkveränderungen
8,1
##speicherung
Punktionsnadel
Hilusstruktur
Ans
144
12/0
##zenti
##scha
po
Urethra
Hypoperfusion
Fetti
Beckenskeletts
##/re
##äss
##skopie
überblähte
stuhlgefüllte
Zystenkonglomerat
142
##rke
##chn
##ax
subarachnoidal
pterygopalatina
geschl
Sichel
L5-
Fremdbilder
(er
##ssp
##cularis
Sellink
Gesichts
Einheit
Atrophie,
Arthrotische
(24
##H,
##/post
WHO
Schr
Orientierende
Cardia
##-me
befund
Perirenale
##Ne
##eine
portosystemische
infra-
Pankreaskopf,
(un
sitzende
reg
post-KM,
pelottiert
großflächige
ehestens
Vors
S\uUS
Orbitae
Magnevist
Erhöhtes
30%
##lastung
parao
gebl
emphysematische
Vergleichsaufnahmen.
Thorax/
TH1
SL
Metallartefakte
##rol
##gli
postentzündlich,
Subc
Score:
Lungenbe
Hilusfett,
Divertikel,
80-Zeilen-MS-CT
##5cm
##nsat
rektosigmoidalen
##grad
leere
Angedeutet
##-Stent
##zyst
##omal
##längs
##ifizier
kalzifizierende
angeschnittenen
Tx
Posterior
IVR
aufliegende
19mm
##ux
##plus
##dex
##ablation
versp
rot
##typischer
platziert
TLIF
Perforation,
L4-
Befundprogress:
(AC
##ollen
##nkung
##eichen
##dese
ki
dysplastische
##onal
regel
fraktionierter
V3
Semiquantitative
Amnesie
602
1997
(gemessen
##sso
##pu
##net
Metallartefakten
Gefäßverkalkungen
Flußbeschleunigung
zerebral
rektale
Miktions
Hemip
Anteil,
45,
##telle
##neigung
##itig
##gin
##beurteilung
verf
SM-
Repo
HR
Blutab
(L)
##örmig
fem
##/11
##ntri
überschreitenden
rekto
eingedickte
Zyste.
29,
##app
kleinknotige
Zungen
##IC
##sna
##rio
##ngu
##lten
##kondyl
##ierender
##gegen
##ffekt
Progression
Kopf/Hals/Thorax
Höhle
BWK4
Ausnahme
##erh
Keros
##Uptake
Unterlappens,
Pneumonie.
Nacken
Fehlen
Dreigefäßversorgung
##amputation
verstärkt
positiver
chronischem
Wirbelkörpera
TZ
Gefäß-
Ellenbogen:
29.1
(Schwester
##C)
tirm
kardiales
Sinusvenenthrombose
Analkanal
ACI,
##dra
Verkalkungsfiguren
ND
##ziehung
mehrfragmentären
Streifig-
Harnleiterschiene
Enthesiopathische
Briden
Bandscheibenextrusion
28.10.2008
21.1
##pneu
##enf
ferner
Wetz
Schleimhautfältelung
Cholecystitis
Basilariskopf
##fibrose
##alar
eiweißreiche
Flußprofile
Antikörper
##Si
##übergang
##linien
##lagerungen
lokalisierten
TEA
Größenregredienter
##ure
##sartefakt
Überbrückung
organtypisch
Varizen
Radiojodtherapie,
Bildgebende
##tere
##schicht
Äußerer
Verla
Kontusionsblutungen
5-6
##/T2
##vität
gest
ber
VIII:
Imp
iliacus
groß.
Ze
Interlob
Glandulae
durchmisst
PICC-Line)
Adultes
##0),
##ela
zweiter
nie
ZF
(De
##RE
thorako
distendierter
ZVK-Lage
Verl
Tracheotomie
Immunsuppression
Bekanntermaßen
3D-Gradientenechosequenzen
(ko
##-Wert
##omi
##ita
##hor
vereinbar,
VI:
Schrauben-Stab-System
Caudafasern
BWK12,
Abszessformation.
(S.
verdichtete
Pansinusitis
146
##nfall
Restriktionen
MIP,
(Lu
##Raum
##10:
##gri
Drucksonde
6-12
##IN
##rem
CH
300,
(08:3
##0mm
##thie
uni
supracondyläre
dünnschichtig
chirurgischen
Reizfreie
Hypokinesie
Gefüllte
Dezent
(di
##tanz
##ateral
##arp
triangularis
erw
3-7
##tea
##gende
##enal
vorliegen.
Schaftdrittel
LKS
Hochdruckinjektion
Hirnanschnitte.
Engstellung
##-lateral
paraaxial,
bestehendem
Verb
Men
Hohl
Embol
39,
pectorales
osteochondrale
Pneum
Pau
Lebermetastasen.
Flüssigkeitsretentionen
Drittels
##fu
flaue,
Rests
Omentum
Neue,
Bedarf
44,
##2.13
##fragmente
schluckverschiebliche,
kühle
halt
Frustrane
Extremität:
##Perfusion
##-Befund
##rten
##lant
langfristig
korreliert
erkennt
Sequenz,
Restparenchym,
Milzvene
Hirninfarkt
Einige
##6/
##relevante
Mark-Rinden
Humerusschaftfraktur
##kös
##kontrast
##ior
##iliaca
##här
medialisiert
heutige
Synkope,
Körper-Phased-Array
Femurkopfkerne
##Rezidiv
##arte
potentiell
RTx
Konvexität
Bedingungen
23.1
##uche
##chwellung
hypert
Hälfte
8:
##7/
##terien
plan
##-Syndrom,
##ntral
Speicherdefekte
STA
Röntgendichtes
Linksbetont
##frakturen
##ement
Fistel,
EA
##rotation
occ
heranreichend
Subakuter
Ili
AKE,
##Voraufnahmen
##sku
cc)
cCT:
Subtraktionsaufnahmen
Rippenserienfrakturen
Nierenr
##psie
##ose,
##eiten
ze
Valgus
Hierauf
Ganzkörper-Szintigraphie
Emphysemaspekt.
Einklemmung.
Dysarthrie,
25.0
##tar
##bia
##arietal
x,
morphologische
a.p.
Untersuchungstag
TRUFI
Postspezifische
Auswurf
Akromion
##slo
##seitigen
plattenosteosynthetisch
parenchymalen
KM-E
Embo
(wie
##keiten
komplexe
frühere
erstmals
Normgroße
Fragliches
16-Zeiler
##2.15
##webe
mittventrikulär
kutan
Speicher
MRT.
Lä
Luxationsfraktur
-k
(Leber
##verdächtig
##orp
kardiovaskuläre
Osteosyntheseschrauben
Betontes
##strukturen
##rzel
##rtig
##ologisch
sacrum,
descendens,
BWK3
10/0
##-Rezeptor
##culi
##bindung
##arenchym
pharmakologische
Schilddrüsenläsion
Neuro-
KM-Dynamik
30-
##gelenken
kraniozervikaler
dis
Schmerze
Mehrzeilen-
14x
0.0
##udal
##radiologisch
##kard
neu,
ana
Verf
Reichlich
NAK
Dar
Aufs
8.00
##Wi
##Schilddrüsensonographie
##6.0
##-Tumor
##-St
prävesikal
Kabel
Hueftgelenk
FF
##rid
##ellär
parasagittal
kaudaler
flächenhaften
Speicherfläche
##implantat
plumpe
gesteigertem
bifida
T2-F
Mechanische
Max.
Fibrom
1.3
##sstelle
##hne
putride
lu
bein
Lungengerüstveränderungen.
Kolondivertikulose
143
##mf
betroffen
Progrediente,
Narbenverlauf
NAST
Lungenemphysem,
2.8
(Teil
##chicht
operativ
invasives
ableitbar
Visus
Sehnenansatzverkalkungen
Intern
##ieg
##bd
pleomorpher
Microkatheter
Liposarkom
Gefäßan
FE
D3
Cortison
COPD-
07/200
technischen
retrok
rechtsfrontale
dextra,
Geringfügig
vorbeschriebener
Perfusions-,
MRT-Befund
Ganzkörper/Poytrauma
##clip
##axial
supraorbital
Temporalhorn
Ergebnisse
BWK12/LWK1
##acht
subcutaner
nachgewiesene
bifrontale
Tan
Ovaläre
Discus
Aktivitätsdepots
##reck
valga
signalangehoben
mikro
interp
echofreier
Randständig
NAS
Intrakraniell
3-Phasenskelettszintigraphie
##fort
##abhängig
Vd.
3036
0.9
(Fr.
##Evaluation
##anden
nüchtern
Vagina
Inhalations
Dysphagie
vaskulär
partiellen
minimales
kü
beurteilbar)
3-220
0.3
Ulnafraktur
Fernmetastasierung
##gen,
ursächlich
tre
Schrauben-
20)
162
##kalkungen
gesichertem
##ochen
##igert
vertikale
Bohner
##peri
##kanüle
##ismus
##imi
Syn
Magenkarzinom
Ansatzverkalkung
23.10.2008
##riff
##reduziert
##hyse
zuge
osteochondrotische
Spondylophytäre
OC
Nasenseptum
Daneben
BPH,
1mm
##/Hals
##äch
##omographie
pleuranah
Lungengerüstveränderung
Gewichtsabnahme
Frischere
Douglas
Cho
2.2
##osus
##lio
Schmerzsyndrom
PSMA-avide
LCE
Io
40m
##-g
##auer
wegweisender
maschinenassistierte
Tar
Mittelgesichtsfraktur
##isi
wa
periaortal
anst
Teilinfarkt
Speicherdefekt
Minderverfettung
Materialdislokation
mehrmalige
linksventrikulären
Einweisung
Anteile,
##ml;
##fluß
ausgefüllt
PO
Kopf-Hals-
CF,
##1.14
##…
unten-innen
Suppression
Mil
##3;
##idose
verbleibenden
Radiojodtestes
Dünndarm,
30.10.2008
##17.
##spekt
##hasisch
##chtig
subsegmentale
rekanalisierte
feste
ersichtlich
endende
Acetabulumfraktur
148
##pflichtige
##noe
##ace
supraspinatus
isoechogene
fibrotischer
Hirn-
GK
##HI
##/cor
Überlagerungs
zentriert,
mediolateraler
MR-B
Große,
##-Te
##uns
##rik
##nken
vergleichbar,
spät
rasche
genetische
dislo
costodiaphragmaticus
Schlinge
Resektionsareal
##Pa
##Image
##versch
##nein
##lse
zweimal
längsoval,
Verbesserte
Stirn
Quellbildern.
Ple
Gefäßabbruch
Bru
##schrauben
wandständigen
kal
intracranieller
Mammo-
L3-
GG
Foki
Enchondrom
153
##aka
VKU
Stellen
Gefühl
Fragl.
Exkretionsphase
Adipositas,
22.1
(über
##sack
##profil
##abstand
szintigraphische
ihr
einzelne,
arterieller,
Lam
Kla
Hände,
Bülaudrainagen
20.10.2008
##stri
glo
frakturierten
abgehenden
Füße,
Bisherige
stabilitätsgefährdende
retroma
##/Pa
##-na
vertiefter
leer,
aktuellste
Schein
Fibroadenomen
147
##I)
##sep
##rec
##ost
##olu
bildgebend
Liegen)
Gr
##-v
##rchmesser
##ient
thorakolumbaler
subt
paracaval
Verlust
Umschriebener
Recessusstenose
Minderkontrastierungen,
Acromion
seither
kalkdichter
fibrosus
ampullär
Antiemese
weiten
signalabgesenktes
fleckiger
Unruhe
T2-Signal
PIP-Gelenke
Nierens
Frontobasis
##ssung
##nr
##ahr
ol
metastasiert
interdisziplinären
endoskopische
aufgeweitete
Vereinbarungsgemäß
Status.
OPS:3-203
Mutation
Malignom,
h.
geformte
Uncovertebralarthrose
Primovistspeicherdefekt
Dialysekatheters
##rnie
supraklavikuläre
ko
erkrankt
Portographie
##Ex
scha
hinterer
SpA
LAVA
GK-
Diffusions
Cochleaimplantat
Anmeldung
(pa
##symptomatik
moderaten
Verkippung
E04.2
Baastrup
##unregelmäßigkeiten
##oka
##mantel
Sinusitis.
Ergussflüssigkeit
Atrophie.
3-701
##-PET/CT
suprasellär
intramedulläre
Verbesserung
Staging:
Sel
LWK1-
(ggf.
vorgesch
septal
regressiven
(00:0
##;MR
##-fl
##gewebes
unklares
intercostal
Vaginal
Larynxkarzinom
Druckschmerz,
Absch
##12:
##sab
##md
##cheide
fehlen
Radi
Pallacos
Gesichtsschädel:
FRFSE
Bullöse
##2.12
##zia
##guss
##cha
##aspekt
dystelektatisch
Wandver
Nierenfkt.-Szinti.mit
Hypophysenadenom
Cranielle
(S60
##ya
##ila
subkapsulär):
prästenotische
endovaskuläre
apikolateral
Uro
PDw
Leere
##üllt
##ximale
##toxische
##pr
intraorbitale
Osteolytische
MRT-morphologisch
Fokus.
##zept
##steo
##bek
sämtlich
supraclavikulär
organisierte
kap
Schwan
Pha
Katheterlage
Gefäßverschlüsse
(Image
##sul
präc
diskutiert
Wandunregelmäßigkeiten
Säu
Subpleurale
Luftansammlung
##ungsbedingt
rechtfertigenden
größenregredientes
angrenzend,
anges
Tc-99m-MAA
KM-Ab
Anfall,
##HWS
##En
##5.0
##skopisch
##lak
##king
##ami
mono
TD-
Penis
Morison-Pouch,
Grad)
FDG-Positivität
Erguss/
##-d
##streifige
##icke
##hnlich
subareolär
schraubenosteosynthetischer
scharfer
okk
Trisektorektomie
HU,
Druck,
Areal,
##S1
##P-
##uckel
##plastie
vaskularisierte
kommender
femoro-
Basisfraktur
Achsenskelett
(28
##K-
##suche
##jun
flüssigkeitsgefüllter
dilatiertem
Rückenlage;
Perfusionsmessung,
Hinterkante,
08.02.2010:
(12,
##bst
Grades,
Gal
(Se3
##-Karzinom
##weiterung
##oms
##ntin
##loc
statt
rep
hinausgehende
Rezidiv.
Nierenvenen
ALL,
21)
##ye
##thorakale
##sl
intraluminaler
Rezept
Oberarzt
(10:00
##nwe
##mat
##lüsse
##einlagerung
maximalem
flow
dia
axillärer,
Vorgeschichte
Misch
Messungenauigkeit
Duodenalsonde
Denecke
##ierenden
##er)
anzu
Patellaluxation
Infl
Corticale
CT-morphologische
Anämie
##tert
T1-GRE
Sternoclaviculargelenk
Kolloid
Hirnatrophie
Aspekt,
(Pro
##?)
##nsu
##ichtete
multifokaler
denkbar
cord
biventrikulär
abl
Umgebende
Systemische
Ganzkörper-Spiral-CT
Suprasternal
Pseudospondylolisthesis
29.10.2008
12,3
##PT
##flächen
glomerulären
gestürzt,
breit,
aufgehobener
Wirbelsäule.
Tc-99m-Technegas
Spektrum
Pulmonalis
Fragmentadaptation
Aorta:
##schri
##plant
struktureller
schnelle
opticum
erl
Splenektomie,
##Gelenke
##/Se
##metabol
##artung
angelegt,
Radiusschaft
##zy
wünscht
durchmessende,
Vereinbar
LWS-S
Klatskin
#
##mb
ei
Umgehungskreisläufe
Iso
Fibulaköpfchen
Double-J
Allergie
2.7
##-ma
##zuf
##iose
##chl
parahilär
corporis
antegrader
Pfortaderäste
Nativ.
Kreuzbandes
##Signal
##ähr
frustrane
Skrotum
Peritonealkarzinose.
Neu:
Intrap
99mTc-Mercaptoazetyltriglyzin
25mm
##-ra
##us)
seitens
Segment,
Schnittverletzung
Embolie
Begutachtung
##epiphyse
posterolateral
Periostreaktion
NSTEMI
Hämoptysen
Anforderung:
##stamm
##rophie
überschrittener
wandständiger
akrale
Con
Cla
Bohrkanal
5:
##pac
##oh
verdrängt
temporäre
Magnet
Gelegentliche
139
(T)
(Ser
(DD:
##trom
##sar
##ntes
##chel
prävertebral
Prominenz
21.01.2014:
##sb
##gne
V/VIII
Infiltraten.
##verhalt
##pli
##nhancement
kontrastierter
Punktionsmaterial
Mä
17.06.2013:
##ämme
##radige
mehrere,
kompletten
ektope
Unveränderte,
Stehende
Sensibilitätsstörung
Hochdosis
Fibroadenoms
(CC
##RP
besseren
Verkalkungen.
Tangierung
Kontrastmittelaussparungen
Kle
Bildrand
3-709.0
##pfl
schr
cerebellär.
T2w/PD,
Sof
Regionen
Inspiration,
Hautfalten
Empfehlung:
Dekompensierte
Cholezystolithiasis.
##wind
##rontal
##nreicherung
##find
signalreiche
palpablen
Zystenbildung
Weichteilüberlagerung
Vergrößerungstechnik
Mammographieaufnahme
Flüssigkeitskollektionen
##/Co
##kta
##iar
##culäre
retinierte
Vertebroplastie
Schul
Rotatorenmanschette
Klopfschmerz
##Va
##riert
##ektiert
komprimierte
geste
cMRT:
auslaufendem
TSE-
##s;
##rural
##nod
##grediente
Ätiologie
reichen
Spr
Hypodenses
Felsenbeins.
Diverse
Diffusionswichtung,
##elt
wirkende
synoviale
reaktiven
hypothyreote
Verbreitertes
Leiter
Eu
CM
50mg
1/1
##inn
##dt
präkardial
pathologischem
##ßer
##prellung
##eru
offensichtlich
latero-
Sprung
Shaldonkatheter
DHC,
Außenrotation
Aortenektasie
##nd,
Streck
Pedunculus
Osteopenie.
Krankenhaus
Gangunsicherheit
Chipkarte
31.10.2008
0.2
##spule
##rektal
##ileus
##bre
reaktiv,
kyphotische
kaudo
epidural
Medulloblastom
##mass
##krement
##fleckige
##emo
LABOR
##16.
##ged
##angi
Szintigraphischer
P.a.
Oro-,
Hausarzt
Biopsietisch
##Aufnahmen
##änger
zugänglichen
systolischer
exp
Radiusfraktur,
Doppelkontur
Axiale,
27.1
##occipital
##nü
Mastoiditis
Kolonrahmens
verlaufender
paramediastinale
ante-
Verk
Uni
Stase
Epikondylus
Carotiss
##-VA
##schaft
##bge
parafalcin
ist.
Zerklagen
Vari
Schwer
Papille
Clavikula
Anprall
##zwischen
##gion
durchmessend)
Zwerchfellkontur
Kri
##zien
paras
längeren
denkbar.
cr
Wandauflagerungen
Verdichtungsfiguren
Schluck
Schilddrüsenlaborparameter:
Antibiotika
##skontrolle
##ichts
Ölzysten
unaufällige
capitatum
Suppressions
Schnitt
OSG.
Cave
Beispiel
11)
(sagittal
##uation
##nochen
##l/
##geni
##eie
stenosierenden
kranialer
Seh
Modalitäten
##NH
##öße
##verb
sonstiger
okzipitale
abdominis
Daumengrundgelenk
##-PET
##ämie,
##schw
##pse
##ima
##hme
brachiales,
Weber-B-Fraktur
Septumdeviation
Kalks
DES
##T2
##MS
##rahlung
##ophag
kapselüberschreitende
anliegend,
Skoliose.
Chirurgie
Bereichen
##100
##blasige
##azeration
entzündlich-rheumatischen
echoarmen,
bel
angegeben
Uvula
Periprothetische
hochgezogenen
externum
Technische
Laufende
Aspiration,
Adjuvante
27.10.2008
##rungen
##iegen
pleomorphe
nachweisen
ischämi
Erstvorstellung
163
##status
##nige
##n-S
##ierung,
##f.
darauf
Muster
(23:3
##.2017
##äume
##opti
##neumonie
##laps
##fan
zustand
Ultraschall-gesteuerte
Lungenarterien
Fluss,
19,5G
##usscheidung
##ther
##rechte
Intrahepatisch
IIb
FT4
12/
##4.0
##kap
postentzündlich.
br
abgeklebter
VFC,
Thalamusinfarkt
Fontanelle
AT
##Mu
##via
##setzt
##cm),
lin
Unterschenkel,
Osteitis
IVa/
EKG:
2.9
##BWK
##umb
##smi
##eber
##chten
Wirbelbogen
Vereinzelte,
Knochenk
Herzspitze
(um
subk
eingesch
Vorhofkatheter
Infrarenales
43,
##ES
##-betonte
latent
infiltratverdächtigen
enhancement
deutlichere
Deso
cerebellären
bio
Schädel,
Cholangien,
##nke
##immung
zeitgleichem
imponierende,
Stabil
(einzelne
##sierende
##rö
##ect
weich
ru
intraventrikuläre
Symmetrischer,
Mas
Hydrocele
Herdsetzungen
FDG-aviden
##stru
sein,
colli
Zone,
Tamoxifen
Sigmoid
Portexplantation
Leberk
CAM
##Pol
##Antikörper
##figur
##bez
rückläufig,
hypoechogenen
Wichtung
Humeruskopfhochstand
Größenprogress
(PET
retrokrurale
Segmentresektion
MRT-Aufnahmen
Liquorräume;
AV-Fistel,
##ibi
##hron
pel
kombinierte
Femoralis
40%
(Na
##kra
##ehne
regrediente,
RP
Niedrig
II-V
Gelenkknorpel
Döllinger
Blutleiter
AC-Gelenks
9-1
(Hi
##-w
##-Str
##rme
##mpo
##loser
##fahrer
##anomalie
voll
Widerstandsindices
KM-aufnehmenden
Ektatische
##Studie
##zintigramm
##oskopische
##homogen
atemabhängige
Totalverschattung
Len
Dort
(gering
##-s
##x15
##liert
Teilkörperaufnahmen
Pumpfunktion
OP-Material
Gefäßversorgung
1,5-T-MRT
##-Phänomen
##mpl
##eli
schwacher
Unterfeld:
Proximaler
Fissuren
Befundverbesserung
##vidität
femorotibialen
fehlendes
bestand
Intracranielle
##phasisch
bruise
ani
Walter
Skelettm
Pleurearguss,
Herzrasen
Einstrom
Blut-
(Kopf
##St
##Br
##-Kl
##ope
##ktu
lt.
abgeh
Schilddrüsengewebe
Nephrogramm
Gangerweiterung
Gallengang
##v-
##tit
##höhung
gelegentlich
Titanium
Nierenläsion
Fußs
Bestätigung
Bandscheibenprothese
3-705.0
##2.16
##stes
##okzipital
metastasierten
UE
2009,
##ogisch
##arin
fib
Oberbaucha
Kompressionsfrakturen
182
(diese
##kaudal
va
stenosiert
cervikal,
Lymphödem
Gefäßverschlusses
##-11
##utz
##ruck
##bla
##artefakten
ödematisiert
unterschieden
retropatellaren
oval
horizontalis
CT-Befund
41,
200-LA
##G:
##ktivität
Retrosternale
Oberschenkel,
22)
##okal
##derm
##asale
##achweis
articularis
Mikronoduli,
Mammas
Lungenarterienembolie,
Frakturstellung
Durchsetzung
Densfraktur
##2.17
##x.
##hinterwand
transarterielle
Weichteildichte
Low-dose-CT
Drehschwindel
(i
##rig
Überwärmung
Zahnf
Wurzelspitzen
Bronchialwände
20Gy
##sbereich
##ozele
markiert
Beu
##unden
##is-
##irk
##hilär
streifiger
stabile
Wei
Pontifizierende
Niehues
Maßgabe
Abganges
"S
##nchi
wertende
ventrikulär
PCA-Teilinfarkt
Implantats
Anschließende
Ano
09:
Wiederfindung
Tubuslage,
Gallenblasenkonkremente
##ucht
##ind
##ikation
nativ:
car
Teilverlegte
Rea
Normo
Lebersteatose,
Fußgänger
Cerclagen
##I,
##tis.
schall
multif
infrahilär
echogemischt
Tumorkernschatten,
Infektwerte
Bypass-OP
##nh
##cortin
##arti
histopathologischem
WS:
DTPA
BWK2
15x
##0/
##en/
##ekti
##bos
##bb
##anie
ballonierte
Rektumstumpf
Oberfeld:
Mag
Kolonkarzinom
Fx-
Darme
##ress
sy
paralytische
Unterschenkel:
Tc-99-m
Segmentarterie
Schwielen
Knochenmarksödem
Bandscheibeninterponate
##M0
##-ka
##umfang
##rso
##ppchen
präoperativer
bl
Kyphotische
Intensiv
Erw
##Vene
##alo
unverändertem
systemischen
kn
hirn
ausgedünnte
Gerota-Faszie
Beckenfraktur
##9A
##erge
##eln
##aktiv
strukturierte
hypoxischen
dorsomedial
5/6.
12,4
##pin
##haupt
##enhancende
minimal-invasive-ambulanz@charite.de,
interquadrantär,
hypodensem
ce
Meniskopathie
99m-Tc-Nanokolloid
##ersch
zarten
schattengebende
atrophiert
Zwischenwirbelraumes
MDS
Knöchel
Hypertonus,
Erysipel
99m-Tc-
##uff
##hnig
##aro
metastasensuspekt
FDG-Uptake
Arbeit
(letzte
##Sin
##ypo
##ulierte
##renz
##elte
##ches
umfassend
rechtshemisphärisch
Sternoklavikulargelenke
Müdigkeit
Femoral
Auftreten
Atemnot
##nä
mA
Su
Kreatininwert
30)
15x1
##rü
##laviculär
##kardiale
##haus
valgum
porto
Indirekte
##wand,
##sverh
##schwerden
##cephali
##bschnitt
abgeflacht
TIR
Reperfusion
Morrison-
2008,
##-li
##verzögerung
##sekret
##lls
Kardiopulmonale
IPMN
Hüft-TEP-
Ballonkatheter
##pule
worden
strähnige
il
hohem
einsch
Oligo
Masse
12,7
##ndung
##lust
##isierter
##carcinom
##arbe
zirrhotische
zentrilobuläre
bre
Wash-
Verdichtungslinie
Spiral-
Residual
##0.201
perirenaler
Web:
Rückfluss
Regeneratknoten
Pleurodese
Gesamt-DFP:
Beckenvenen
##rsi
##rate
##enförmige
verstrichen
septiert
fetthaltige
Vorfüße
T),
Mittelfeld:
##pül
T2-MEDIC
Sprachstörung
Rheuma
MRT-Verlaufskontrolle
Bogenschlussstörung
Blutungsresiduen
##LE
##1.15
##ziel
##arth
Osteolysen.
Kanüle
GRE-Sequenzen
Dazu
##-En
##ulus
##motori
##eth
##biet
wellige
vertieftem
verkippte
besserer
Rückenlagerung,
Periton
OPS:3-820
Fistelung
##Po
##zervikale
streng-seitliche
Zellen
Wächterlymphknoten
TIRM-Sequenz
Sehstörung
(anamnestisch):
(Vor
##wski
##una
##oz
##kose
##indung
##car
vereinbar.
kyphotischer
Mat
FDG-PET:
Enhancement:
Aktive
ACI-
##plantation
##kri
##izi
transformierte
abzugrenzen,
Stammzelltransplantation
Paraaortale
Nachresektion
NPL
Morison-
Hämangiom,
##/g
##-Bild
##aumforderung
osteolytisch
korrespondierenden
Zuggurtung
Rippenfraktur,
Prävertebrale
Osteopenie,
Marcumar
##nephr
hierfür
Wendeln
Mitreaktion
Heberdenarthrose
199
(10x
##-Bypass
##mph
notwendige
Langstreckig
Kontrastmittelanreicherungen
Hirna
Enddiastolisches
Durchleuchtungs
Aufstauung
158
##morphologisch
##lipom
##lg
##bn
##apikale
beginn
Hemithorax:
24.10.2008
##sag
##k:
##eller
##bal
verschoben
ph
ergometrische
Stau,
PET-Hirn
Entzündungsparameter
2013,
##-J
##öger
vaso
infero
Yttrium-90
Verletzungen,
Mehrs
HW
##äsionen
##ona
##messen
retroperitoneales
konventionell-radiographisch
SD-Lappens
Jochbeinfraktur
Infektfokus.
Eisen
Breitbasiger
Befundbesserung:
##ndy
##erapie
Überweisung
prätracheale
imprimiert
Stauungskomponente
RK-Fremdbilder
Portkapsel
OMC
##tibial
##systems
##kav
##hot
i.e.
basilica,
STEMI
Pneumonie;
Fahrradsturz,
##ular
kapsel
Vulva
Diameter,
C-
42,
##x2,
metastasen
jod
ext.
Subakute
Gefäßabschnitte
Chron.
21.01.2015:
181
##EI
##transplantation
##fuß
rhythmisch
genaueren
WS,
Typischer
Thorax-Voruntersuchung
LWK-
Knochena
GRE
Event
Defi
08/200
##sophag
hämorrhagischer
gezielten
Verstrichene
SLE
Kurzbefund:
FT-
(IMK,
##rese
##reichen
perio
Subphrenisch
Ok
LJ).
Kallus
IM4
DL
Broncho
Allo
164
##markierte
##kung
zentralbetonte
pulmonales
Tumorko
Segment.
Fettgewebsinvolution
Chondrosis
##1x
##ysto
##pon
##iehung
superinfizierte
Sac
PRRT
Gl
Diskrete,
##9G
##stellt
##rguss
UL-Resektion
Serienangiographie
(23:0
##HO
##öt
##ritt
##relief
##is.
##hirn
##ektomie,
Überst
asymmetrischer
altem
Jod-131
Drainage.
##Ko
##9/
##sehen
enthesiopathische
computergestuetzte
ausschließ
abdominaler
Volumenbelastung.
Ventrikulo
Schichten,
Colonrahmens
14.01.2014:
##essen
##ertes
##ektive
reizloser
neuem
men
gering-
beatmet
Retroflexion
PET/MRT
Endsystolisches
Beurteilbarkeit,
##ücken
##umf
##nur
mäßigem
Retrobulbär
Bio
##acr
ps
kapselüberschreitendes
i.v.-Gabe
Kompressionsdicke:
Gliom
Auswurffraktion
25.04.2018:
Ösophagus.
wiederholte
Olisthesis
Kol
Auswahl
##A)
##racheal
##his
##dissektion
gruppierte
Reilly
(ver
(Tiefe):
##Au
##-Par
##üd
##aci
postoperativem
laterodorsal
hypop
ausgeschwungener
Ruheschmerz:
Fallneigung
DHC-Stent
Anmerkungen:
(S7
##sklerosier
##nsi
##iten
laborchemischen
evidente
dystelektatischen
Flu
Abständen
(ka
##TS
##Ödem
##onie
##nderte
##itär
##itution
##entzündliche
##entr
pleuranahe
kutanen
Sicherheitsdistanz
Processi
Migräne
Leberherd
Flußprofil
##üle
##venöse
##fanne
##enze
weiterführend
ventrobasal
kraniokaudalen
herabgesetzte
bef
Schrittmacherimplantation
Pal
Infarkts
Hirnstamm,
Fetthilus,
23)
##end,
spätstatische
fester
Unkovertebralarthrose
Oberkante
Oberfeldern
Motorrad
Marknagelosteosynthese
LTx,
Kn
HNO
Gefäßlumens
Gefäßabbruches
##ngesch
##myo
##my
##ehnen
PSA-Wert
Mittelg
Ileum,
Dis
##zei
##ontur
perforierte
hyperperfundierten
groben
fleckig-
eingestellte
QD
Hauptstammverschlüssen
Halo
Bauchdecken
##ten,
##stal
##liac
##iertem
##gend
##bie
inverser
intraaxiale
Minderkontrastierung
Knorpelschaden
Bö
Brücken
187
##cle
durchbaut
Zirku
Weichteila
Pankreast
MDP
Indikations
G1
B,
##nor
##dehiszenz
##amina
##affektion
entnommen,
Stolpersturz
Nadel,
12,6
##SDH
##mmt
segmentaler
basilaris,
Schrittmachersystem
Q6
Passagere
Lebers
Hämangiomen
Gelenksspalt
Alternativ
##reu
##kuli
##hil
karpale
aortalen
Localizer;
FNP
Det
5/8
01/200
##1.11
##.17
interkostal
Substitutionstherapie
Mediabifurkation
Gonarthrose,
Enteritis
Ei
28.04.2014:
12.11.2014:
(Do
##-Status
##orma
hochs
gestellt
dezidierte
Schmorl
Marklagerläsionen,
Han
Dichteminderungen
22G
##LT
##breiterung
Wer
Osteoplastische
Knochen:
##p,
##nm
##bar.
übriges
Trophische
Node
Listhese?
Im1
##13:
##wend
##tera
##ordnet
##ntal
##erl
bil
Tracer-
(Pr
##Mo
##epatische
##cel
##ari
gleichmäßig
Zart
Tesla-MRT
Marklagern
Liquordiapedese
Häma
For
Einverständnis
196
(EF):
##rbe
##iziert
##enha
ratio
malignitäts
low-profile
ged
Voraufnahme.
Shunte
Hinterkantenbeteiligung,
Ausrichtung
02/200
##DD
##ührende
##trolle
wandverdicktes
[bei
Zisternen,
Zeitgerechter
Seg.
Mehrzeilen-Spiral-
Low-
Ferse
Bereiche
(nativ
##äche
##zytom
pos
körper
Parak
Ovarialkarzinom,
##vit
stationär
ausladende
Sehbahn
längerstreckige
extrakranielle
cum
PL
Gemischt
FOLFIRI
Bronchitis,
##disc
vs
frontotemporale
dentale
cl
PCP
Milzläsionen
Lupus
Einb
C50.9
Abstütz
##vers
##ulo
herni
CHI
Bewegungsa
(22:4
##itäten
postp
mm);
Septierung
Retrosp
Proximal
Eigenanamnestisch
##BG
##23-
##täts
##rippe
konvex
knochen
akzentuierte,
Ziehen
Perip
13.04.2016:
(23:1
##trans
##anu
multipler,
erstmalige
atemmodulierte
Turb
Spongiosa;
Pleurop
Muskela
Koronarsklerose.
Hinterhörner
CT):
10.11.2014:
(z
(Tabelle).
##FSE
##verdacht
##usa
##iell
##ellte
##dig
periz
gelenknahe
Proze
Kal
##uktur
##sicht
##out
##ops
##falte
##bulbär
##alam
vergrösserte
Sekretspiegel
RI:
Mäßiges
ML,
Lungenanteilen.
Gefäßsklerose
Extr
##ontine
##iso
Pin
Ostiomeatale
Haller
Anforderung
10.05.2016:
malig
Subk
Recessus,
Kontrastmittelre
Ausgedehnte,
##ola
##kh
wechselnde
vergröberte
Ventilationsszintigraphie
Venenkatheter
Synovitis,
Satellitenherde
Restdrüsenparenchym
Loge
##/dis
invasiv
allo
Pneumatosis
Nierenunterpol
Klinik/Fragestellung:
12.01.2015:
##Biopsie
knöchernem
errechnet
bew
Zysten.
Basalganglien.
Auslöschungsartefakte
##SC
##ementierte
##ear
trapezium
sternale
Superselektive
Hirns
##untersuchung)
##klus
##geräusch
##ccipital
peritr
meningealen
Temporalhörner
Oberkiefers
Kronen
Furosemid-Belastung
4F-
##ril
##mals
thro
prot
mammär
durchbaute
WK-Höhenminderung
LK?
CT-S
Beinschwellung
Adenosin
ANV
05.06.2013:
##vel
##orten
##kalzi
##dislokation
zeitnahe
palliative
disloziertem
Nierengefäße
Lappens
Knochenmetabolismus
Frakturspaltes
Alveolar
##Pr
##kutan
embolische
Störungen:
183
15-
10.10.
##CL
##strahl
talo
schlanker
regionalen
epilepti
Umbauten
Trac
Signalauslöschungen
Roll
Mindestens
Listhese,
GK-Skelettszintigraphie
Fernmetastasen.
Bauchwand,
Anamnese/rechtfertigende
##rande
umspülte
Weichteilphase
Ventilations-
Exkretion
Bandscheibenherniation
##emm
Überwachung
doppelläufige
Konservativ
Einse
Begleitreaktion
##Über
##v.
##siti
ergänzendes
Frontale
Angio-
AICA
3/4.
##zeitig
##raniale
verti
gef
anf
Subjektiv
Pneumatisierung
Länger
IL
Antrum
20.03.2013:
##-Co
##änz
##utane
##gestellt
terminales
pulmonalvenöser
kraniokaudaler
frFSE
Koller
Destruktionen,
(Röntgen
(1-
##szeichen.
##hepatische
##bol
segmental
mesenteriales
intraforaminale
Pneuanteil
Meteorismus,
Mediastinalkonfiguration
MRT-V
Lymphknotenkonglomerate
Knoten:
22x
06/200
##3%
##tp
spin
rechtsbetont,
hemisphärielle
gesto
disloziert,
Aufhebung
25x
(TI
##ubi
##menta
##igt
##ffer
triphasischem
dark-fluid
Verlängerung
Varik
Abst
##Q
##Befund
##stanz
##pä
##lisch
täglichen
subpleuraler
Tc-99m-Mikrosphären
Segments
Patch
Orbitopathie
Harntrakt
Abdomens.
##/Ma
##/LWK
##rtebral
##lea
##gina
##d)
ton
kontrast
beschr
Thoraxhälfte
Schal
Rarefizierung
Radio-
L2/3
Kleinhirntonsillen
4/LWK
13.06.2017:
03/200
##-n
##latt
zügige
FDG-PET/CT
19:
##Wert
##piegel
##ndo
##enhancement
kontrastmittelaffine
Thyreoglobulin-AK
Stenosierung,
Röttgen
225
05.06.2014:
(distal
(Ne
##He
##ssage
pat
Pfortaderastes
Arthr
75%
##:3
##lau
vora
sprechen
Schlecht
Rege
Re-R
##fac
pleur
ima
demarkierende,
Sättigung
##penie
##hancement
mittel-
Subcutane
Sakroiliitis,
NET-
KM-CT
DWI-EPI
##genes
##ffne
älterem
¼
thorakoabdominell
periareolär
erhalten,
Schla
Röntgenstrahlen
Magen-Ca
Che
12.05.2015:
##schein
##inden
sequen
septierten
schmerzbedingt
posterius
Signalver
Gefäßin
Epiphysen
12,2
##glu
rein
hypervaskularisierter
a.p.-
SDS*
Patella,
Ir
Hierdurch
Durchfall
Abgrenzbare
##sein
##pathische
plantar
metrisch
gelegenes
Wandverkalkung
Marklager.
LWK5/SWK1.
22.05.2013:
07.05.2018:
##Gefäß
##14.
##xiale
vitale
schlechtere
hirneigene
Restd
Akt
##rang
##nei
Paranasale
Materialbruchs
Ischämien.
FOLFOX
CT.
24.1
##Zeichen
##x8
Zyklusabhängige
Distendierte
Bildm
##tumpf
##fur
kräftige,
Seitenventrikel.
Mel
##Score
##nga
##klärung
umgeschlagene
perim
laparoskopischer
acetabulär
Rhabdomyosarkom
PSA-Anstieg
Milzzyste
Anfälle
(S2,
(AF
##IL
##kine
gl
gene
distalis
Querfortsatz
GCS
FT-Gelenk
(26
##Ö
##mediane
##irn
##arzinom
low-
langsame
kombinierter
Nierenbecken,
LWK3-
##dächtige
##bili
ti
kong
interventionsbedürftigen
chronisch-
12.07.2016:
(zuvor
##/Infiltrat
##ngene
##auff
vorbe
streifig-
maxillaris.
diverse
Spezi
Medikamenten
Luftblase
Echoreiche
70)
13)
##RV
##äd
##yk
##leer
parav
intraspinales
hämato
Ovarektomie
Gleit
Befundd
0,54
(laut
##7.0
##mod
##ids
strahl
pleuraständiger
deformans.
buccal
Sigmakarzinom
PSV
Gefäßwand
##/Ge
##-Po
##-Anstieg
##zumab
##relat
##kaval
semiquantitativ
differenter
beidseits;
Zuordnung
Harnwegsinfekt
(Großmutter
##-Zeichen
##raub
##planung
##lid
##itiert
zirrhotisch
territorealen
postoperativ.
plump
normwertig
narbig,
fal
OPS:3-802
12.03.2014:
(23:2
##chäd
sonographisch-gesteuerte
occipito
ansteigender
Stap
PICA-endende
22.01.2014:
(23:4
##Zirrhose
##ysten
##iod
präpontinen
costa
aufsitzende
angefertigte
Uhr:
Mischbild
CE
2.3
(T2
(22:5
##verk
##uz
##onst
##dyl
kontrastierte,
deszendens
Perorale
Obturatum
Girdlestone-Situation
Fettgewebssaum
Atemartefakten
Ag
06.
##Art
##2008:
##sla
##när
##haryngeal
##cr
vorhandenen
sensomotorische
rezidivierender
eh
Schleimhautpolster
Gebiet
11,9
(22:3
##mpression
##cos
solitären
ausgegangen
ass
Thorax-Verlaufskontrolle
Lungenf
Leistenbandes
Hautklammernaht
Gefäßband,
Erf
Benigne
##4cm
##nkrea
pankreaticus
heißen
erfolgen,
##öh
##zirkulär
mittleren/
mg/d
früharterielle
entzündungs
entzündlich,
benachbarte
Vd
Standard-
##hunt
##ave
umsch
Viszerokranium
Normalgroße
Linksseitiger
Lingula,
Lebera
Fel
Duodenaldivertikel
##pt
##kopische
##fäl
vorgezogene
reizlosen
perigastral
hypoechogener
cervicaler
Verlaufsbeurteilung:
Thyreostase
Nuklidretention
MCP-Gelenken
Knochenaspekt.
Klipping
El
(2/
##L-
##wicht
##resektion,
möglichst
d.h.
Radikul
PSMA-
Hygromsäume
Hinter
6cm
6/7.
24.02.2016:
(so
##vertebral
##ikar
messender,
linkshepatisch
indirektes
cm/s.
##askul
protrahiertes
Valleculae
Uretero
OG,
Kompressionsatelektase
Größena
AZ-Verschlechterung
(BARD):
##misch
##bezogene
systolischen
solitärer
eventuelle
abgehend
Verhalten
TX
Luftbläschen
Koronarstent
Kniegelenkspalt
06.04.2016:
##/pro
##-12
##zeh
##pic
##hmen
##chenkel
rotatorische
osteodestruktive
Ren
Knochenstoffwechselsteigerung
Bandscheibenvorfälle
(Normbereich
(Cobb
##P)
##läche
##behandlung
strukturiertes
führend,
freier,
Inkrementaltechnik,
Dissektion,
Bra
##Linie
##Kont
##zw
##ometrische
Stich
Kalibersprünge
25)
15.05.2013:
04.07.2017:
(11x
##/ve
##ußer
präpa
nas
makro
ca.1
Weg
Oberbauchschmerzen,
16.03.2017:
##Pertechnetat
##volut
##schie
##gehalt
Wirbelbögen
Vernarbung
Verminderung
T2-TIRM,
01.06.2015:
##wandige
##sszintigraphie
##ssa
##osto
##lock
##eben
verlangsamte
hiesigen
Rippe.
Resektionshöhle,
Gutes
Endokarditis
Elgeti
Distorsionstrauma
Ausb
24.04.2017:
23.05.2017:
09/200
##/De
##ärt
##sak
##iliakale
retrocrurale
Radiocarpalgelenk
Nierenclearance
LV-E
Implantaten
Fischwirbelbildung
Ath
(ma
##ske
##indlich
##eim
##bula
##arkom
nasalis
dent
Sport
Multifokale
MR-A
Heberden-
Fingergelenke,
Aortenkalzinose
AP,
11.07.2017:
(Tra
##Schleuse
##-Infarkt
##üng
##uft
##ng,
##hyperplasie
verteilten
lokoregionär
Seitenventrikeln
MC-
Fem
Demarkation
Bandscheibenfächern
25.03.2014:
15.02.2010:
##.200
##nati
##kol
vorausge
ung
Verd
Tibial
Por
NEIN
09.05.2016:
0,91
##mera
##atum
Verdichtungsformation
Mita
05.05.2014:
##2.14
##wärts
##igmoid
##gige
rezeptor
Verzicht
Schilddrüsenautonomie
Rückläufiger
Peribronchiale
Magenentleerung
Humero
Bulbär
27.10.2014:
##S)
##tim
##ju
stehender,
REF
Otitis
Cervical
Azetabulumfraktur
%ig
##Infarkt
klarem
grün
Untersch
Kollagenose
Kin
Bestrahlungs
Becken-Bein-
186
0,90
##sill
##gier
orbitale
mid
glattwandig
abgebrochen,
Vorlage
Resp
Gefäßpunktion
Gefäßmalformation
CT-Kopf
##Knoten
##stens
##phar
zweifach
pl
intragastral
i.v.-KM-Gabe
Marklagerl
20.02.2017:
##lex
T2-Hyperintensitäten
Surfactant
Beuge
Aszites?
Abblassung
25.03.2013:
##-Sta
##van
##rnd
##prozess
kombinierten
Tumorbe
Papillom
Lungenfenster
Leberarterien
Col
BÜ
BWK-
AL-Technik
24.06.2014:
14x1
14.10.2013:
13x1
07.01.2014:
03.05.2016:
subdural
nachgewiesen
lumbaler
ausgehändigte
4h
184
##szeichen,
##gland
##enin
verbleibt
supracarinal
sonographisches
angedeuteten
Strahlentherapie
Risikoabklärung
Kontrastmittelaufnahme,
Gesc
Gefäßes
Anasarka
##opli
##ichtige
Ösophagojejunostomie
fla
cM0
Tumorl
T1-Flash,
##verdichtung
##hetisch
th
streng
rel
rechtsthorakal
prä-OP
isointense
intrathorakal
Verbreiterte
Lunge.
Gallenblasenkonkrement
Biphasische
##Pe
##x;
ulzerier
grober
getr
durchb
Gehirns;
19.05.2014:
##Nachweis
##/Be
##nau
##destruktion
##anhebung
bas
Herzerkrankung
Gelenkerkrankung
14)
##-typischen
##-kon
Tonsillen
TI
Spondylophyten,
Somatostatin-Rezeptor-
Sklerose,
Lokalisation:
Intervertebralräume
Größenre
DIAGNOST
11.11.2014:
08.03.2017:
##9-
##tic
##sätze
##ev
welliger
verkalkt,
vergrößerter,
portalvenöse
kV,
disc
Leberanteile
Einwilligungserklärung
3-750;
16.03.2016:
15.04.2013:
12.05.2014:
05.08.2013:
0.1
##FR
##tikel
##orme
##leite
##akti
intraka
imp
abgesprengte
Wegener
TX-Pankreas
M1-
Innenmeniskushinterhorn
Hinteres
Fol
Entero
9G
27.05.2010:
##ogra
##funktions
wiederholt
massivem
frischerer
Zwerchfellschenkel
Gesamtd
Abla
5-1
##wo
##ref
##psi
##figuration
##ald
subareolärer
WK-Fraktur
Lis
Ihrer
Hypertransparenz
Ganzkörpers
Befund/Zusammenfassende
Aitken
Abdominale
(Mutter,
##1/
##serie
##graphisch
fistulierende
Thoraxwandemphysem
Linkskon
Kopfschmerz,
Fettgewebsnekrose
20.11.2013:
11.06.2013:
##rse
unpaaren
dens
Patellafraktur
Hormonrefraktäres
Elektrodenspitze
07.11.2013:
##-ca
##lotti
##ften
##fne
heterogener
fra
Mineralisationsphase:
Durchs
16)
11.06.2014:
##lage,
Ältere,
ventro-
py
perine
angepasst
Wen
Infusion
Dünnschichtrekonstruktion
Derzeitige
Cross-
17.02.2014:
##PECT
##iläre
##illi
##heumat
viszerale
hämorrhagischen
ev
ausgedehnt
Nebenbefunde:
Nachw
Lokalbefund
Gesamtausdehnung
Capitulum
13.02.2018:
(he
##prolaps
##nommen
##infekt
Vorsorge
Tumormarker:
Pleurar
Huang
Donornephrektomie
1996
06.05.2014:
##OM
##-st
##rzt
##max
##kV
getroffen
Röntgenkontrolle
Parenchymschädigung
Offset
Gegenphase
Abt
8-10
(S9
##titi
##bl
volumen
intaktes
einzusehen
alkoholischer
TUR-
Suprac
Shunt,
S4a
Nebenschilddrüsenadenom
Metallklips
Knotenstruma
Hiatus
##T)
##Rin
##x13
##rdiale
##cla
##besatz
fand
Weichteil-
Ovarial-CA
Hal
Bogenwurzel
Bewusstseins
##nbe
##horn
##ffe
großlumige
ausschließlich
Kranio
Cobra
Binnenstrukturen
Beingefäße
90%
##oba
J20.9G,
Interphalangealgelenk
ES
24)
07.01.2010:
##2;
##nda
##mati
##chf
wes
distal,
bioptisch
Hydro
17.06.2014:
06.05.2013:
##Spiral-CT
##überschreitende
##vante
##perativ
##biert
verteilt
ungewöhnlich
perirenal,
kleinere,
Phlegmone
Normalbereich
30.05.2016:
##EA
##äuf
##tomogra
##residuum
##par
##omet
interlob
gestaut
bekannter,
Stufenförmige
Pfortader-
Fuß,
Fremdkörpers
Erstaufnahme
Empfohlen
CC-Abstand
Amp
15.03.2017:
08.06.2016:
07.03.2017:
##O-
##sosteo
##kardial
gutartigem
destruktive
Rechts-
Myelo
Mehrfach
M81.99G
Blutungen.
50-
28.08.2013:
##esser
##atale
signalreich
conditional,
alveoläre
Tumormasse
Bewusstlosigkeit,
Alveolarkamm
-S
##Block
##roll
##eig
##chirurgie
transf
korrekte
intrap
hepaticus
Stehthorax
Neuroforaminale
Hormonsubstitution
##mine
##iter
##gestellte
##exstirpation
pulmo
parafalzine
Präp
Endometrium
DBS
(se
##/In
##Ösophag
gewi
Pleuraschwarte
6:
24.10.2013:
166
##zinose
##störung.
##orge
##etra
##enb
erklär
atelektatische
PCA-Infarkt
Hüften
Anamnese?
Alterstypische
##umin
##rach
##gna
##glenoidal
mitgegeben.
VE
Thiel
Segmentale
SO
OSG-Fraktur
25.04.2017:
##14:
##sges
##fal
##bierung
verkürzt
unterschiedlich
Tumor-
Pilon
Beckenboden
27.06.2016:
17.11.2009:
15.06.2016:
##rechts
##dh
höher
dreibändiges
Stellschraube
Sens
Bewusstlosigkeit
(EKG-getriggerte)
(65
##üs
##tsch
##nspi
equina
Weber-
Skelettsystems
Retentions
Radiopharmakon-Applikation
Nephro-
MCA-Stromgebiet
(SPECT)
##xial
##rop
##mput
##merz
elongierter
Verlaufskontrolle)
NEC
MTP-
Keilbeinflügel
Kaliberreduktion
KM-S
Cholesteatom
A.vertebralis
24.11.2015:
20.05.2014:
##:00
##-Vor
##stante
##gebung
##frontale
umge
monophasische
costo
Wunddrainage
Epiphysiolys
23.11.2016:
08.05.2013:
##oste
##noten
##lei
kons
Organl
Linea
Krampfa
Kostenübernahme-Erklärung
Hüfts
Duktektasien
11.06.2012:
##Arthrose
##rkeit
##onar
Überf
peritonealer
fü
abgeklebte
SIG-
Phlebographie
06.05.2015:
##Applikation
##zende
zweizeitiger
periportale
kra
i.v.-Injektion
geeignete
epidurales
High-
Geburt
Facettengelenken
BPD
(Größe
##VH
##unters
##rver
##gän
schwierig
orbito-meatal
inkomplette
Schriftlicher
Intima
Handgelenk,
As
19.06.2017:
##Adenom
##/Thorax
##erative
##ander
zementfreier
verändert,
sero
präsakrale
pan
hypoplastischer
TG
Sta
Occlusion
HCV
Arthrosonographische
(Abdomen
##orr
##leus
##inst
verstärkten
suprap
gliotischer
acetabulären
Vo
Ultraschallgestützte
Softplaque
Pancreas,
Implantateinlage
Iliakalarterien
Freier
Drainagenspitze
CEUS
Brei
Bildserie
Atmung
##us.
##ode
##natale
##mung
##log
eingelagerten
Transit
The
Linksherz
Epidural
18.05.2016:
16.12.2013:
1-4
06.07.2017:
(t
##rt,
##mmung
##de,
paramedianen
dezenten
biliodigestiven
aufsitzend
abgerundeten
Retinierter
Materialdislokation,
Ilium
Gefäßwandverkalkungen
Abdominell
19.02.2014:
10.07.2017:
##Plastik
##nitten
##inen
##chosequenz
##char
schräge
abgebildet)
Schwanz
Niereng
Axillär,
157
11.05.2015:
-a
(min
##tös
##tragende
retropatellare
medulläre
Wellig
Tc-
Parenchymein
Lipo
Ileitis
AH
##reicht
##formi
supratentorielles
eingele
Zufl
Wurzelrest
Thieme
Sternotomie,
Lympha
Hili,
Hauptbronchus,
22.06.2016:
21.09.2016:
2.4
##ndel
verschlossen,
vacuo
renaler
Schilddrüsenlabor
Opti
Nie
Bandscheiben-
Aufzeichnung
20.03.2017:
17.05.2017:
##Angio
##arinal
aktivierter
VCS/rechter
Ras
14.03.2016:
##anke
##amid
meist
fetale
apikal.
Om
Medic
Gabel
Funktionsstudie
Anschlussdegeneration
11.03.2014:
##reicher
##ossäre
intraartikulärer
Tro
Störungen
Prostata-
Mamillenabstand
Kaliberschwa
Fach
Brustschmerzen
##sier
##ellation
##blutungen
Thrombose,
Rachen
Oberer
LWS/
CRC
Beatmung,
24.04.2013:
21mm
(IMA
##L)
##dos
glenohumerale
fleckige,
dicke
auswärts
adipöse
Vorhofflimmern
TT
Sitzbein
Lipotalon
Granulationsgewebe
Gegenphase,
Deckplattensinterung
14.06.2017:
12,1
11.01.2016:
(B)
##szintigrafie
##phische
##onto
vi
thorakolumbale
kleinnoduläre
gal
dopplersonographische
Vas
Patellas
Einschmelzungen
Astrozytoms
AR
17.01.2017:
05.03.2018:
03.09.2014:
(So
(S30
##ulmonal
thorakal.
nicht,
beurteilbarer
Schmerzkorrelat
Myokarditis
Ligament
Hirndrucks
23.01.2017:
##TI
##stü
##geben
engem
Zielregionen:
Vorm
Umverteilung
Trachealbifurkation
Kräftig
Gefäßstr
Demgegenüber
Blutzucker:
BMD
Abdomen;
11.11.2013:
1.8
(r
##Spalt
##Aus
##spondylo
##e;
Ödem?
perive
Wu
Drainagematerial
10.10.2008
##2009.
##/Te
##-Imp
##üns
##röße
##lücke
typico.
komprimiert,
Stamm
Proliferation
Mark-Rindengrenze
Kelchsystem
Dopamintransportern
Digit
DO
12x1
0,92
##ire
transparent
sofort
perfundiertes
pararektale
Uns
Strombahn
SIG-Arthrose
Knochensp
Dring
1,5-
01.07.2014:
##ugh
##pop
##mphysem
##c.
Parenchymbrücke
Niedrigdosis
Liegt
Hinblick
Exp
Brustd
AD
152
-15
(maximale
##ydr
##lymphknoten
##caval
stärkere
pen
hyperplastische
Vorhofflimmern,
T2-hypointense
T2-FSE
Syrin
Seitenb
Schleimhautverdickung
Pulmonalvenen
Ergänzung
CT-D
Art.
23.10.2013:
##our
##ndete
kar
Wochen)
Magenh
27.06.2017:
15.01.2014:
10.01.2017:
06.03.2017:
(rechte
zwingend
nah
aufgest
Zwerchfellbuckelung
Strahlensch
Stammskelett
Operative
Indurationen
Ganga
Frakturfragment
25.01.2016:
23.03.2017:
##-mi
aufgehobene
aufgefunden
Somatostatinrezeptor
Radioiodtherapie
Laboruntersuchungen
Intrao
Infiltrats,
Drainageeinlage
09.01.2017:
07.03.2018:
04.05.2015:
01.06.2016:
teila
sensible
nachge
Zystisch
VE:
Suszeptibilität
Myokardischämie
Mitt
Marklagers,
Komplizierte
In-111-
Gesunden)
Auges
Anamnese/Klinik/Fragestellung:
2),
##weisen
##lun
##chr
trigeminus
supprimiert
subkapitaler
portale
pausiert
Tonsilla
Ton
Rechtsseitenlage
RH.
Oben
Konkremente.
II-IV
Are
23.05.2018:
(cm/s)
##19.
##1.08
##yer
##x12
##ulier
##tiel
##schm
##klappen
##gische
##gastrostomie
umgeben
singulärer
selten
gedeckt
Rippe,
RECIST
Operationen
Nierenarterienabg
Gelenksspaltweite
Dialysekatheter
21.06.2017:
10.06.2015:
("
##zerklage
##rra
##ausd
singulären
lakunare
inters
Zügige
Wandausdünnungen
V.femoralis
Rhizgelenk
Ischämiefrühzeichen.
Fremdmaterials
Deformierte
Außenk
Ausschaltung
Anastomosenregion
25.07.2016:
156
##.9G
##chatten
gelenks
entfernt.
ansatznah
Symp
Lokalisationsdiagnostik:
Broviac
Axis
7:
23mm
13.01.2015:
10.06.2013:
05.04.2016:
##elin
notwendig,
UA-
Super
Steinbrocker
Lebervers
LV-EDV:
Herzrhythmusstörungen
Clavikulafraktur
12.06.2012:
09.05.2017:
##GT
##9V
##-Ne
##-Manifestation
##ulter
überzeugender
kürzlich
idem)
gesi
Scholz
Rotation
Kreuzbänder
Dopamintransporter
Chol
1),
##M1
##-1,
##ösophag
##indi
##einst
ggü.
PPPD,
Low-dose
5mm,
22.04.2015:
##1.12
##rweise
##olge
##kom
Überg
radiale
intrame
circu
app
Tracheo
(Recovery):
##x14
##sem
##sakral
##mina
##liegende
##ister
##höhenminderung
Knochendefekt
Fibrosestränge
Bildbefund
40,
26.05.2014:
##CO
##ventrikulär
##pplikation
##esis
##erlich
##aute
entrundete
Hüftprothese
Cholecystolithiasis
27.03.2018:
10.02.2010:
##-ti
##schwe
##orie
##ontusion
##imp
##bh
sterno
nodosa,
assoziiert
Wiberg
Schmorlsche
Schlagvolumen:
Hautmarkierung
Einlegen
(pro
(hTG):
##12.
##uu
##tos
##mische
##mbibierung
ulnare
extraaxial;
col
Ruhe-
Pseudotumor
Antero
15.07.2013:
11.10.2016:
(Da
##uchen
##raf
##api
stechende
intrasellär
intakter
hilär.
epiduraler
SZ
Marklagergliose
Bronchialkarzinom,
6-7
27.05.2013:
24.05.2013:
22.03.2017:
11.04.2016:
08.05.2018:
##venti
piriformes
distendiert
Narbenb
Lebens
3.5
15.05.2017:
13.09.2017:
11.05.2016:
06.06.2013:
##hrombus
##gem
##ftige
zy
paravertebrales
homogenen
corti
Hinweisen
Bek
28.06.2017:
26.01.2015:
13.05.2019:
08.11.2016:
##3.9
##suspekt
##isth
schalenförmige
minderperfundierte
li..
Steigerung
Redistribution
Formel
23.05.2016:
22.04.2013:
07.05.2019:
(planar)
##I.
##äk
##temporo
##dicht
##atheter
posttherapeutisch
paraa
morphologischen
LV-EF:
Kontrastmittelab
Hohlorganperforation.
Athyreoten)
25.01.2012:
24.02.2014:
24.01.2017:
16.05.2017:
08.09.2014:
##ric
##hof
##atin
verme
unklar
Reizloses
OB-
Maskiertes
21x
20:
19.04.2017:
16.04.2014:
14.02.2017:
05.09.2017:
##;MR-OPS
##ntrikulär
tracheale
inkrementell
Wüstefeld
Parästhesien
Osteosynthetisch
Mamma-Spule;
Hemis
Ade
09.02.2010:
(Ab
##uber
##om,
##jet
Sing
Müdigkeit,
KM-Enhancements
Gewichtsverlust,
25.03.2015:
18.06.2013:
17.03.2010:
##stä
##ig,
high-
Sinusitis,
Pankreaslipomatose
Krankenhauseinweisung,
Infarzierung
HR-
Child
3-70c.1
1.5T
(MD
##-Ca,
##loz
##inb
medialis,
juxtakortikale
intervention
hämorrhagisch
Strähnige
Lappen,
Flüssig
27.08.2014:
14.05.2018:
13.01.2014:
11.07.2016:
03.06.2013:
##proportionale
##niveau
##eichend
subpe
muskulären
Tonsille
Stauchungsfraktur
Rektum,
Leukoaraiosis
Lebert
Bessere
Anatomie:
##PO
##loka
##enkt
ventral.
spa
n,
Vorb
Shaldon-Katheters
Schäfer
Dünn
Defektes
99mTc-Nanokolloid
26.04.2017:
16,5
04.11.2013:
##My
##ätt
##metrische
##lithiasis
Unvollständige
Therapiere
Septierungen
Jährliche
Infiltrates,
Datums
Bur
Befunde:
ACI-Abgang
154
07.05.2014:
01.12.2014:
##Läsion
##Fl
##eiben
##deckel
intraventrikulären
hypertrophen
behandelt
abgrenzen.
Valgusfehlstellung
Schallauslöschung,
Lobektomie
Homogenes,
05.09.2012:
04.07.2018:
##zentrum
##teils
##nste
schw
mod
konnten
Nebennierenloge
M3-
Konsolidierungs
ANV.
27.02.2017:
15.05.2019:
07.06.2017:
##vex
##verf
##vaskulär
##blastisch
polyzystische
Ventrolisthese
Pra
Pfortaderthrombose,
On
Mamma-Ca,
Linksver
Kortikalisbreite
Invasive
Hydrop
Beckenschaufeln
842.4
29.04.2015:
27.08.2019:
19.07.2017:
15.10.2014:
02.05.2018:
(IMK)
(00:1
##übergreifend
##infiltrate
zulaufend
vulgaris
perivaskulärer
minus
intrat
gastrointestinale
Parenchym.
Dünnschichten,
10:00
spätstatischen
linkslateral
Milzr
Gesamtperfusion
31.05.2016:
##/Ein
##onung
##dau
##bat
unveränderte,
indi
gew
gefallen
biliäre
Yamakawa-Drainage
Vorbeschriebener
Splitbolus-Technik
Gebiss,
Exo
Basalganglien;
16.10.2013:
##plen
[...]
